{
  "version": "1.0",
  "truncation": null,
  "padding": null,
  "added_tokens": [
    {
      "id": 0,
      "content": "<|pad|>",
      "single_word": false,
      "lstrip": false,
      "rstrip": false,
      "normalized": false,
      "special": true
    },
    {
      "id": 1,
      "content": "<|bos|>",
      "single_word": false,
      "lstrip": false,
      "rstrip": false,
      "normalized": false,
      "special": true
    },
    {
      "id": 2,
      "content": "<|eos|>",
      "single_word": false,
      "lstrip": false,
      "rstrip": false,
      "normalized": false,
      "special": true
    },
    {
      "id": 3,
      "content": "<|unk|>",
      "single_word": false,
      "lstrip": false,
      "rstrip": false,
      "normalized": false,
      "special": true
    },
    {
      "id": 4,
      "content": "<|system|>",
      "single_word": false,
      "lstrip": false,
      "rstrip": false,
      "normalized": false,
      "special": true
    },
    {
      "id": 5,
      "content": "<|user|>",
      "single_word": false,
      "lstrip": false,
      "rstrip": false,
      "normalized": false,
      "special": true
    },
    {
      "id": 6,
      "content": "<|assistant|>",
      "single_word": false,
      "lstrip": false,
      "rstrip": false,
      "normalized": false,
      "special": true
    },
    {
      "id": 7,
      "content": "<|tool|>",
      "single_word": false,
      "lstrip": false,
      "rstrip": false,
      "normalized": false,
      "special": true
    },
    {
      "id": 8,
      "content": "<|end_of_turn|>",
      "single_word": false,
      "lstrip": false,
      "rstrip": false,
      "normalized": false,
      "special": true
    },
    {
      "id": 9,
      "content": "<|fim_prefix|>",
      "single_word": false,
      "lstrip": false,
      "rstrip": false,
      "normalized": false,
      "special": true
    },
    {
      "id": 10,
      "content": "<|fim_middle|>",
      "single_word": false,
      "lstrip": false,
      "rstrip": false,
      "normalized": false,
      "special": true
    },
    {
      "id": 11,
      "content": "<|fim_suffix|>",
      "single_word": false,
      "lstrip": false,
      "rstrip": false,
      "normalized": false,
      "special": true
    },
    {
      "id": 12,
      "content": "<|reserved_0|>",
      "single_word": false,
      "lstrip": false,
      "rstrip": false,
      "normalized": false,
      "special": true
    },
    {
      "id": 13,
      "content": "<|reserved_1|>",
      "single_word": false,
      "lstrip": false,
      "rstrip": false,
      "normalized": false,
      "special": true
    },
    {
      "id": 14,
      "content": "<|reserved_2|>",
      "single_word": false,
      "lstrip": false,
      "rstrip": false,
      "normalized": false,
      "special": true
    },
    {
      "id": 15,
      "content": "<|reserved_3|>",
      "single_word": false,
      "lstrip": false,
      "rstrip": false,
      "normalized": false,
      "special": true
    },
    {
      "id": 16,
      "content": "<|reserved_4|>",
      "single_word": false,
      "lstrip": false,
      "rstrip": false,
      "normalized": false,
      "special": true
    },
    {
      "id": 17,
      "content": "<|reserved_5|>",
      "single_word": false,
      "lstrip": false,
      "rstrip": false,
      "normalized": false,
      "special": true
    },
    {
      "id": 18,
      "content": "<|reserved_6|>",
      "single_word": false,
      "lstrip": false,
      "rstrip": false,
      "normalized": false,
      "special": true
    },
    {
      "id": 19,
      "content": "<|reserved_7|>",
      "single_word": false,
      "lstrip": false,
      "rstrip": false,
      "normalized": false,
      "special": true
    },
    {
      "id": 20,
      "content": "<|reserved_8|>",
      "single_word": false,
      "lstrip": false,
      "rstrip": false,
      "normalized": false,
      "special": true
    },
    {
      "id": 21,
      "content": "<|reserved_9|>",
      "single_word": false,
      "lstrip": false,
      "rstrip": false,
      "normalized": false,
      "special": true
    },
    {
      "id": 22,
      "content": "<|reserved_10|>",
      "single_word": false,
      "lstrip": false,
      "rstrip": false,
      "normalized": false,
      "special": true
    },
    {
      "id": 23,
      "content": "<|reserved_11|>",
      "single_word": false,
      "lstrip": false,
      "rstrip": false,
      "normalized": false,
      "special": true
    },
    {
      "id": 24,
      "content": "<|reserved_12|>",
      "single_word": false,
      "lstrip": false,
      "rstrip": false,
      "normalized": false,
      "special": true
    },
    {
      "id": 25,
      "content": "<|reserved_13|>",
      "single_word": false,
      "lstrip": false,
      "rstrip": false,
      "normalized": false,
      "special": true
    },
    {
      "id": 26,
      "content": "<|reserved_14|>",
      "single_word": false,
      "lstrip": false,
      "rstrip": false,
      "normalized": false,
      "special": true
    },
    {
      "id": 27,
      "content": "<|reserved_15|>",
      "single_word": false,
      "lstrip": false,
      "rstrip": false,
      "normalized": false,
      "special": true
    },
    {
      "id": 28,
      "content": "<|reserved_16|>",
      "single_word": false,
      "lstrip": false,
      "rstrip": false,
      "normalized": false,
      "special": true
    },
    {
      "id": 29,
      "content": "<|reserved_17|>",
      "single_word": false,
      "lstrip": false,
      "rstrip": false,
      "normalized": false,
      "special": true
    },
    {
      "id": 30,
      "content": "<|reserved_18|>",
      "single_word": false,
      "lstrip": false,
      "rstrip": false,
      "normalized": false,
      "special": true
    },
    {
      "id": 31,
      "content": "<|reserved_19|>",
      "single_word": false,
      "lstrip": false,
      "rstrip": false,
      "normalized": false,
      "special": true
    },
    {
      "id": 32,
      "content": "<|reserved_20|>",
      "single_word": false,
      "lstrip": false,
      "rstrip": false,
      "normalized": false,
      "special": true
    },
    {
      "id": 33,
      "content": "<|reserved_21|>",
      "single_word": false,
      "lstrip": false,
      "rstrip": false,
      "normalized": false,
      "special": true
    },
    {
      "id": 34,
      "content": "<|reserved_22|>",
      "single_word": false,
      "lstrip": false,
      "rstrip": false,
      "normalized": false,
      "special": true
    },
    {
      "id": 35,
      "content": "<|reserved_23|>",
      "single_word": false,
      "lstrip": false,
      "rstrip": false,
      "normalized": false,
      "special": true
    },
    {
      "id": 36,
      "content": "<|reserved_24|>",
      "single_word": false,
      "lstrip": false,
      "rstrip": false,
      "normalized": false,
      "special": true
    },
    {
      "id": 37,
      "content": "<|reserved_25|>",
      "single_word": false,
      "lstrip": false,
      "rstrip": false,
      "normalized": false,
      "special": true
    },
    {
      "id": 38,
      "content": "<|reserved_26|>",
      "single_word": false,
      "lstrip": false,
      "rstrip": false,
      "normalized": false,
      "special": true
    },
    {
      "id": 39,
      "content": "<|reserved_27|>",
      "single_word": false,
      "lstrip": false,
      "rstrip": false,
      "normalized": false,
      "special": true
    },
    {
      "id": 40,
      "content": "<|reserved_28|>",
      "single_word": false,
      "lstrip": false,
      "rstrip": false,
      "normalized": false,
      "special": true
    },
    {
      "id": 41,
      "content": "<|reserved_29|>",
      "single_word": false,
      "lstrip": false,
      "rstrip": false,
      "normalized": false,
      "special": true
    },
    {
      "id": 42,
      "content": "<|reserved_30|>",
      "single_word": false,
      "lstrip": false,
      "rstrip": false,
      "normalized": false,
      "special": true
    },
    {
      "id": 43,
      "content": "<|reserved_31|>",
      "single_word": false,
      "lstrip": false,
      "rstrip": false,
      "normalized": false,
      "special": true
    },
    {
      "id": 44,
      "content": "<|reserved_32|>",
      "single_word": false,
      "lstrip": false,
      "rstrip": false,
      "normalized": false,
      "special": true
    },
    {
      "id": 45,
      "content": "<|reserved_33|>",
      "single_word": false,
      "lstrip": false,
      "rstrip": false,
      "normalized": false,
      "special": true
    },
    {
      "id": 46,
      "content": "<|reserved_34|>",
      "single_word": false,
      "lstrip": false,
      "rstrip": false,
      "normalized": false,
      "special": true
    },
    {
      "id": 47,
      "content": "<|reserved_35|>",
      "single_word": false,
      "lstrip": false,
      "rstrip": false,
      "normalized": false,
      "special": true
    },
    {
      "id": 48,
      "content": "<|reserved_36|>",
      "single_word": false,
      "lstrip": false,
      "rstrip": false,
      "normalized": false,
      "special": true
    },
    {
      "id": 49,
      "content": "<|reserved_37|>",
      "single_word": false,
      "lstrip": false,
      "rstrip": false,
      "normalized": false,
      "special": true
    },
    {
      "id": 50,
      "content": "<|reserved_38|>",
      "single_word": false,
      "lstrip": false,
      "rstrip": false,
      "normalized": false,
      "special": true
    },
    {
      "id": 51,
      "content": "<|reserved_39|>",
      "single_word": false,
      "lstrip": false,
      "rstrip": false,
      "normalized": false,
      "special": true
    },
    {
      "id": 52,
      "content": "<|reserved_40|>",
      "single_word": false,
      "lstrip": false,
      "rstrip": false,
      "normalized": false,
      "special": true
    },
    {
      "id": 53,
      "content": "<|reserved_41|>",
      "single_word": false,
      "lstrip": false,
      "rstrip": false,
      "normalized": false,
      "special": true
    },
    {
      "id": 54,
      "content": "<|reserved_42|>",
      "single_word": false,
      "lstrip": false,
      "rstrip": false,
      "normalized": false,
      "special": true
    },
    {
      "id": 55,
      "content": "<|reserved_43|>",
      "single_word": false,
      "lstrip": false,
      "rstrip": false,
      "normalized": false,
      "special": true
    },
    {
      "id": 56,
      "content": "<|reserved_44|>",
      "single_word": false,
      "lstrip": false,
      "rstrip": false,
      "normalized": false,
      "special": true
    },
    {
      "id": 57,
      "content": "<|reserved_45|>",
      "single_word": false,
      "lstrip": false,
      "rstrip": false,
      "normalized": false,
      "special": true
    },
    {
      "id": 58,
      "content": "<|reserved_46|>",
      "single_word": false,
      "lstrip": false,
      "rstrip": false,
      "normalized": false,
      "special": true
    },
    {
      "id": 59,
      "content": "<|reserved_47|>",
      "single_word": false,
      "lstrip": false,
      "rstrip": false,
      "normalized": false,
      "special": true
    },
    {
      "id": 60,
      "content": "<|reserved_48|>",
      "single_word": false,
      "lstrip": false,
      "rstrip": false,
      "normalized": false,
      "special": true
    },
    {
      "id": 61,
      "content": "<|reserved_49|>",
      "single_word": false,
      "lstrip": false,
      "rstrip": false,
      "normalized": false,
      "special": true
    },
    {
      "id": 62,
      "content": "<|reserved_50|>",
      "single_word": false,
      "lstrip": false,
      "rstrip": false,
      "normalized": false,
      "special": true
    },
    {
      "id": 63,
      "content": "<|reserved_51|>",
      "single_word": false,
      "lstrip": false,
      "rstrip": false,
      "normalized": false,
      "special": true
    },
    {
      "id": 64,
      "content": "<|reserved_52|>",
      "single_word": false,
      "lstrip": false,
      "rstrip": false,
      "normalized": false,
      "special": true
    },
    {
      "id": 65,
      "content": "<|reserved_53|>",
      "single_word": false,
      "lstrip": false,
      "rstrip": false,
      "normalized": false,
      "special": true
    },
    {
      "id": 66,
      "content": "<|reserved_54|>",
      "single_word": false,
      "lstrip": false,
      "rstrip": false,
      "normalized": false,
      "special": true
    },
    {
      "id": 67,
      "content": "<|reserved_55|>",
      "single_word": false,
      "lstrip": false,
      "rstrip": false,
      "normalized": false,
      "special": true
    },
    {
      "id": 68,
      "content": "<|reserved_56|>",
      "single_word": false,
      "lstrip": false,
      "rstrip": false,
      "normalized": false,
      "special": true
    },
    {
      "id": 69,
      "content": "<|reserved_57|>",
      "single_word": false,
      "lstrip": false,
      "rstrip": false,
      "normalized": false,
      "special": true
    },
    {
      "id": 70,
      "content": "<|reserved_58|>",
      "single_word": false,
      "lstrip": false,
      "rstrip": false,
      "normalized": false,
      "special": true
    },
    {
      "id": 71,
      "content": "<|reserved_59|>",
      "single_word": false,
      "lstrip": false,
      "rstrip": false,
      "normalized": false,
      "special": true
    },
    {
      "id": 72,
      "content": "<|reserved_60|>",
      "single_word": false,
      "lstrip": false,
      "rstrip": false,
      "normalized": false,
      "special": true
    },
    {
      "id": 73,
      "content": "<|reserved_61|>",
      "single_word": false,
      "lstrip": false,
      "rstrip": false,
      "normalized": false,
      "special": true
    },
    {
      "id": 74,
      "content": "<|reserved_62|>",
      "single_word": false,
      "lstrip": false,
      "rstrip": false,
      "normalized": false,
      "special": true
    },
    {
      "id": 75,
      "content": "<|reserved_63|>",
      "single_word": false,
      "lstrip": false,
      "rstrip": false,
      "normalized": false,
      "special": true
    },
    {
      "id": 76,
      "content": "<|reserved_64|>",
      "single_word": false,
      "lstrip": false,
      "rstrip": false,
      "normalized": false,
      "special": true
    },
    {
      "id": 77,
      "content": "<|reserved_65|>",
      "single_word": false,
      "lstrip": false,
      "rstrip": false,
      "normalized": false,
      "special": true
    },
    {
      "id": 78,
      "content": "<|reserved_66|>",
      "single_word": false,
      "lstrip": false,
      "rstrip": false,
      "normalized": false,
      "special": true
    },
    {
      "id": 79,
      "content": "<|reserved_67|>",
      "single_word": false,
      "lstrip": false,
      "rstrip": false,
      "normalized": false,
      "special": true
    },
    {
      "id": 80,
      "content": "<|reserved_68|>",
      "single_word": false,
      "lstrip": false,
      "rstrip": false,
      "normalized": false,
      "special": true
    },
    {
      "id": 81,
      "content": "<|reserved_69|>",
      "single_word": false,
      "lstrip": false,
      "rstrip": false,
      "normalized": false,
      "special": true
    },
    {
      "id": 82,
      "content": "<|reserved_70|>",
      "single_word": false,
      "lstrip": false,
      "rstrip": false,
      "normalized": false,
      "special": true
    },
    {
      "id": 83,
      "content": "<|reserved_71|>",
      "single_word": false,
      "lstrip": false,
      "rstrip": false,
      "normalized": false,
      "special": true
    },
    {
      "id": 84,
      "content": "<|reserved_72|>",
      "single_word": false,
      "lstrip": false,
      "rstrip": false,
      "normalized": false,
      "special": true
    },
    {
      "id": 85,
      "content": "<|reserved_73|>",
      "single_word": false,
      "lstrip": false,
      "rstrip": false,
      "normalized": false,
      "special": true
    },
    {
      "id": 86,
      "content": "<|reserved_74|>",
      "single_word": false,
      "lstrip": false,
      "rstrip": false,
      "normalized": false,
      "special": true
    },
    {
      "id": 87,
      "content": "<|reserved_75|>",
      "single_word": false,
      "lstrip": false,
      "rstrip": false,
      "normalized": false,
      "special": true
    },
    {
      "id": 88,
      "content": "<|reserved_76|>",
      "single_word": false,
      "lstrip": false,
      "rstrip": false,
      "normalized": false,
      "special": true
    },
    {
      "id": 89,
      "content": "<|reserved_77|>",
      "single_word": false,
      "lstrip": false,
      "rstrip": false,
      "normalized": false,
      "special": true
    },
    {
      "id": 90,
      "content": "<|reserved_78|>",
      "single_word": false,
      "lstrip": false,
      "rstrip": false,
      "normalized": false,
      "special": true
    },
    {
      "id": 91,
      "content": "<|reserved_79|>",
      "single_word": false,
      "lstrip": false,
      "rstrip": false,
      "normalized": false,
      "special": true
    },
    {
      "id": 92,
      "content": "<|reserved_80|>",
      "single_word": false,
      "lstrip": false,
      "rstrip": false,
      "normalized": false,
      "special": true
    },
    {
      "id": 93,
      "content": "<|reserved_81|>",
      "single_word": false,
      "lstrip": false,
      "rstrip": false,
      "normalized": false,
      "special": true
    },
    {
      "id": 94,
      "content": "<|reserved_82|>",
      "single_word": false,
      "lstrip": false,
      "rstrip": false,
      "normalized": false,
      "special": true
    },
    {
      "id": 95,
      "content": "<|reserved_83|>",
      "single_word": false,
      "lstrip": false,
      "rstrip": false,
      "normalized": false,
      "special": true
    },
    {
      "id": 96,
      "content": "<|reserved_84|>",
      "single_word": false,
      "lstrip": false,
      "rstrip": false,
      "normalized": false,
      "special": true
    },
    {
      "id": 97,
      "content": "<|reserved_85|>",
      "single_word": false,
      "lstrip": false,
      "rstrip": false,
      "normalized": false,
      "special": true
    },
    {
      "id": 98,
      "content": "<|reserved_86|>",
      "single_word": false,
      "lstrip": false,
      "rstrip": false,
      "normalized": false,
      "special": true
    },
    {
      "id": 99,
      "content": "<|reserved_87|>",
      "single_word": false,
      "lstrip": false,
      "rstrip": false,
      "normalized": false,
      "special": true
    },
    {
      "id": 100,
      "content": "<|reserved_88|>",
      "single_word": false,
      "lstrip": false,
      "rstrip": false,
      "normalized": false,
      "special": true
    },
    {
      "id": 101,
      "content": "<|reserved_89|>",
      "single_word": false,
      "lstrip": false,
      "rstrip": false,
      "normalized": false,
      "special": true
    },
    {
      "id": 102,
      "content": "<|reserved_90|>",
      "single_word": false,
      "lstrip": false,
      "rstrip": false,
      "normalized": false,
      "special": true
    },
    {
      "id": 103,
      "content": "<|reserved_91|>",
      "single_word": false,
      "lstrip": false,
      "rstrip": false,
      "normalized": false,
      "special": true
    },
    {
      "id": 104,
      "content": "<|reserved_92|>",
      "single_word": false,
      "lstrip": false,
      "rstrip": false,
      "normalized": false,
      "special": true
    },
    {
      "id": 105,
      "content": "<|reserved_93|>",
      "single_word": false,
      "lstrip": false,
      "rstrip": false,
      "normalized": false,
      "special": true
    },
    {
      "id": 106,
      "content": "<|reserved_94|>",
      "single_word": false,
      "lstrip": false,
      "rstrip": false,
      "normalized": false,
      "special": true
    },
    {
      "id": 107,
      "content": "<|reserved_95|>",
      "single_word": false,
      "lstrip": false,
      "rstrip": false,
      "normalized": false,
      "special": true
    },
    {
      "id": 108,
      "content": "<|reserved_96|>",
      "single_word": false,
      "lstrip": false,
      "rstrip": false,
      "normalized": false,
      "special": true
    },
    {
      "id": 109,
      "content": "<|reserved_97|>",
      "single_word": false,
      "lstrip": false,
      "rstrip": false,
      "normalized": false,
      "special": true
    },
    {
      "id": 110,
      "content": "<|reserved_98|>",
      "single_word": false,
      "lstrip": false,
      "rstrip": false,
      "normalized": false,
      "special": true
    },
    {
      "id": 111,
      "content": "<|reserved_99|>",
      "single_word": false,
      "lstrip": false,
      "rstrip": false,
      "normalized": false,
      "special": true
    },
    {
      "id": 112,
      "content": "<|reserved_100|>",
      "single_word": false,
      "lstrip": false,
      "rstrip": false,
      "normalized": false,
      "special": true
    },
    {
      "id": 113,
      "content": "<|reserved_101|>",
      "single_word": false,
      "lstrip": false,
      "rstrip": false,
      "normalized": false,
      "special": true
    },
    {
      "id": 114,
      "content": "<|reserved_102|>",
      "single_word": false,
      "lstrip": false,
      "rstrip": false,
      "normalized": false,
      "special": true
    },
    {
      "id": 115,
      "content": "<|reserved_103|>",
      "single_word": false,
      "lstrip": false,
      "rstrip": false,
      "normalized": false,
      "special": true
    },
    {
      "id": 116,
      "content": "<|reserved_104|>",
      "single_word": false,
      "lstrip": false,
      "rstrip": false,
      "normalized": false,
      "special": true
    },
    {
      "id": 117,
      "content": "<|reserved_105|>",
      "single_word": false,
      "lstrip": false,
      "rstrip": false,
      "normalized": false,
      "special": true
    },
    {
      "id": 118,
      "content": "<|reserved_106|>",
      "single_word": false,
      "lstrip": false,
      "rstrip": false,
      "normalized": false,
      "special": true
    },
    {
      "id": 119,
      "content": "<|reserved_107|>",
      "single_word": false,
      "lstrip": false,
      "rstrip": false,
      "normalized": false,
      "special": true
    },
    {
      "id": 120,
      "content": "<|reserved_108|>",
      "single_word": false,
      "lstrip": false,
      "rstrip": false,
      "normalized": false,
      "special": true
    },
    {
      "id": 121,
      "content": "<|reserved_109|>",
      "single_word": false,
      "lstrip": false,
      "rstrip": false,
      "normalized": false,
      "special": true
    },
    {
      "id": 122,
      "content": "<|reserved_110|>",
      "single_word": false,
      "lstrip": false,
      "rstrip": false,
      "normalized": false,
      "special": true
    },
    {
      "id": 123,
      "content": "<|reserved_111|>",
      "single_word": false,
      "lstrip": false,
      "rstrip": false,
      "normalized": false,
      "special": true
    },
    {
      "id": 124,
      "content": "<|reserved_112|>",
      "single_word": false,
      "lstrip": false,
      "rstrip": false,
      "normalized": false,
      "special": true
    },
    {
      "id": 125,
      "content": "<|reserved_113|>",
      "single_word": false,
      "lstrip": false,
      "rstrip": false,
      "normalized": false,
      "special": true
    },
    {
      "id": 126,
      "content": "<|reserved_114|>",
      "single_word": false,
      "lstrip": false,
      "rstrip": false,
      "normalized": false,
      "special": true
    },
    {
      "id": 127,
      "content": "<|reserved_115|>",
      "single_word": false,
      "lstrip": false,
      "rstrip": false,
      "normalized": false,
      "special": true
    },
    {
      "id": 128,
      "content": "<|reserved_116|>",
      "single_word": false,
      "lstrip": false,
      "rstrip": false,
      "normalized": false,
      "special": true
    },
    {
      "id": 129,
      "content": "<|reserved_117|>",
      "single_word": false,
      "lstrip": false,
      "rstrip": false,
      "normalized": false,
      "special": true
    },
    {
      "id": 130,
      "content": "<|reserved_118|>",
      "single_word": false,
      "lstrip": false,
      "rstrip": false,
      "normalized": false,
      "special": true
    },
    {
      "id": 131,
      "content": "<|reserved_119|>",
      "single_word": false,
      "lstrip": false,
      "rstrip": false,
      "normalized": false,
      "special": true
    },
    {
      "id": 132,
      "content": "<|reserved_120|>",
      "single_word": false,
      "lstrip": false,
      "rstrip": false,
      "normalized": false,
      "special": true
    },
    {
      "id": 133,
      "content": "<|reserved_121|>",
      "single_word": false,
      "lstrip": false,
      "rstrip": false,
      "normalized": false,
      "special": true
    },
    {
      "id": 134,
      "content": "<|reserved_122|>",
      "single_word": false,
      "lstrip": false,
      "rstrip": false,
      "normalized": false,
      "special": true
    },
    {
      "id": 135,
      "content": "<|reserved_123|>",
      "single_word": false,
      "lstrip": false,
      "rstrip": false,
      "normalized": false,
      "special": true
    },
    {
      "id": 136,
      "content": "<|reserved_124|>",
      "single_word": false,
      "lstrip": false,
      "rstrip": false,
      "normalized": false,
      "special": true
    },
    {
      "id": 137,
      "content": "<|reserved_125|>",
      "single_word": false,
      "lstrip": false,
      "rstrip": false,
      "normalized": false,
      "special": true
    },
    {
      "id": 138,
      "content": "<|reserved_126|>",
      "single_word": false,
      "lstrip": false,
      "rstrip": false,
      "normalized": false,
      "special": true
    },
    {
      "id": 139,
      "content": "<|reserved_127|>",
      "single_word": false,
      "lstrip": false,
      "rstrip": false,
      "normalized": false,
      "special": true
    },
    {
      "id": 140,
      "content": "<|reserved_128|>",
      "single_word": false,
      "lstrip": false,
      "rstrip": false,
      "normalized": false,
      "special": true
    },
    {
      "id": 141,
      "content": "<|reserved_129|>",
      "single_word": false,
      "lstrip": false,
      "rstrip": false,
      "normalized": false,
      "special": true
    },
    {
      "id": 142,
      "content": "<|reserved_130|>",
      "single_word": false,
      "lstrip": false,
      "rstrip": false,
      "normalized": false,
      "special": true
    },
    {
      "id": 143,
      "content": "<|reserved_131|>",
      "single_word": false,
      "lstrip": false,
      "rstrip": false,
      "normalized": false,
      "special": true
    },
    {
      "id": 144,
      "content": "<|reserved_132|>",
      "single_word": false,
      "lstrip": false,
      "rstrip": false,
      "normalized": false,
      "special": true
    },
    {
      "id": 145,
      "content": "<|reserved_133|>",
      "single_word": false,
      "lstrip": false,
      "rstrip": false,
      "normalized": false,
      "special": true
    },
    {
      "id": 146,
      "content": "<|reserved_134|>",
      "single_word": false,
      "lstrip": false,
      "rstrip": false,
      "normalized": false,
      "special": true
    },
    {
      "id": 147,
      "content": "<|reserved_135|>",
      "single_word": false,
      "lstrip": false,
      "rstrip": false,
      "normalized": false,
      "special": true
    },
    {
      "id": 148,
      "content": "<|reserved_136|>",
      "single_word": false,
      "lstrip": false,
      "rstrip": false,
      "normalized": false,
      "special": true
    },
    {
      "id": 149,
      "content": "<|reserved_137|>",
      "single_word": false,
      "lstrip": false,
      "rstrip": false,
      "normalized": false,
      "special": true
    },
    {
      "id": 150,
      "content": "<|reserved_138|>",
      "single_word": false,
      "lstrip": false,
      "rstrip": false,
      "normalized": false,
      "special": true
    },
    {
      "id": 151,
      "content": "<|reserved_139|>",
      "single_word": false,
      "lstrip": false,
      "rstrip": false,
      "normalized": false,
      "special": true
    },
    {
      "id": 152,
      "content": "<|reserved_140|>",
      "single_word": false,
      "lstrip": false,
      "rstrip": false,
      "normalized": false,
      "special": true
    },
    {
      "id": 153,
      "content": "<|reserved_141|>",
      "single_word": false,
      "lstrip": false,
      "rstrip": false,
      "normalized": false,
      "special": true
    },
    {
      "id": 154,
      "content": "<|reserved_142|>",
      "single_word": false,
      "lstrip": false,
      "rstrip": false,
      "normalized": false,
      "special": true
    },
    {
      "id": 155,
      "content": "<|reserved_143|>",
      "single_word": false,
      "lstrip": false,
      "rstrip": false,
      "normalized": false,
      "special": true
    },
    {
      "id": 156,
      "content": "<|reserved_144|>",
      "single_word": false,
      "lstrip": false,
      "rstrip": false,
      "normalized": false,
      "special": true
    },
    {
      "id": 157,
      "content": "<|reserved_145|>",
      "single_word": false,
      "lstrip": false,
      "rstrip": false,
      "normalized": false,
      "special": true
    },
    {
      "id": 158,
      "content": "<|reserved_146|>",
      "single_word": false,
      "lstrip": false,
      "rstrip": false,
      "normalized": false,
      "special": true
    },
    {
      "id": 159,
      "content": "<|reserved_147|>",
      "single_word": false,
      "lstrip": false,
      "rstrip": false,
      "normalized": false,
      "special": true
    },
    {
      "id": 160,
      "content": "<|reserved_148|>",
      "single_word": false,
      "lstrip": false,
      "rstrip": false,
      "normalized": false,
      "special": true
    },
    {
      "id": 161,
      "content": "<|reserved_149|>",
      "single_word": false,
      "lstrip": false,
      "rstrip": false,
      "normalized": false,
      "special": true
    },
    {
      "id": 162,
      "content": "<|reserved_150|>",
      "single_word": false,
      "lstrip": false,
      "rstrip": false,
      "normalized": false,
      "special": true
    },
    {
      "id": 163,
      "content": "<|reserved_151|>",
      "single_word": false,
      "lstrip": false,
      "rstrip": false,
      "normalized": false,
      "special": true
    },
    {
      "id": 164,
      "content": "<|reserved_152|>",
      "single_word": false,
      "lstrip": false,
      "rstrip": false,
      "normalized": false,
      "special": true
    },
    {
      "id": 165,
      "content": "<|reserved_153|>",
      "single_word": false,
      "lstrip": false,
      "rstrip": false,
      "normalized": false,
      "special": true
    },
    {
      "id": 166,
      "content": "<|reserved_154|>",
      "single_word": false,
      "lstrip": false,
      "rstrip": false,
      "normalized": false,
      "special": true
    },
    {
      "id": 167,
      "content": "<|reserved_155|>",
      "single_word": false,
      "lstrip": false,
      "rstrip": false,
      "normalized": false,
      "special": true
    },
    {
      "id": 168,
      "content": "<|reserved_156|>",
      "single_word": false,
      "lstrip": false,
      "rstrip": false,
      "normalized": false,
      "special": true
    },
    {
      "id": 169,
      "content": "<|reserved_157|>",
      "single_word": false,
      "lstrip": false,
      "rstrip": false,
      "normalized": false,
      "special": true
    },
    {
      "id": 170,
      "content": "<|reserved_158|>",
      "single_word": false,
      "lstrip": false,
      "rstrip": false,
      "normalized": false,
      "special": true
    },
    {
      "id": 171,
      "content": "<|reserved_159|>",
      "single_word": false,
      "lstrip": false,
      "rstrip": false,
      "normalized": false,
      "special": true
    },
    {
      "id": 172,
      "content": "<|reserved_160|>",
      "single_word": false,
      "lstrip": false,
      "rstrip": false,
      "normalized": false,
      "special": true
    },
    {
      "id": 173,
      "content": "<|reserved_161|>",
      "single_word": false,
      "lstrip": false,
      "rstrip": false,
      "normalized": false,
      "special": true
    },
    {
      "id": 174,
      "content": "<|reserved_162|>",
      "single_word": false,
      "lstrip": false,
      "rstrip": false,
      "normalized": false,
      "special": true
    },
    {
      "id": 175,
      "content": "<|reserved_163|>",
      "single_word": false,
      "lstrip": false,
      "rstrip": false,
      "normalized": false,
      "special": true
    },
    {
      "id": 176,
      "content": "<|reserved_164|>",
      "single_word": false,
      "lstrip": false,
      "rstrip": false,
      "normalized": false,
      "special": true
    },
    {
      "id": 177,
      "content": "<|reserved_165|>",
      "single_word": false,
      "lstrip": false,
      "rstrip": false,
      "normalized": false,
      "special": true
    },
    {
      "id": 178,
      "content": "<|reserved_166|>",
      "single_word": false,
      "lstrip": false,
      "rstrip": false,
      "normalized": false,
      "special": true
    },
    {
      "id": 179,
      "content": "<|reserved_167|>",
      "single_word": false,
      "lstrip": false,
      "rstrip": false,
      "normalized": false,
      "special": true
    },
    {
      "id": 180,
      "content": "<|reserved_168|>",
      "single_word": false,
      "lstrip": false,
      "rstrip": false,
      "normalized": false,
      "special": true
    },
    {
      "id": 181,
      "content": "<|reserved_169|>",
      "single_word": false,
      "lstrip": false,
      "rstrip": false,
      "normalized": false,
      "special": true
    },
    {
      "id": 182,
      "content": "<|reserved_170|>",
      "single_word": false,
      "lstrip": false,
      "rstrip": false,
      "normalized": false,
      "special": true
    },
    {
      "id": 183,
      "content": "<|reserved_171|>",
      "single_word": false,
      "lstrip": false,
      "rstrip": false,
      "normalized": false,
      "special": true
    },
    {
      "id": 184,
      "content": "<|reserved_172|>",
      "single_word": false,
      "lstrip": false,
      "rstrip": false,
      "normalized": false,
      "special": true
    },
    {
      "id": 185,
      "content": "<|reserved_173|>",
      "single_word": false,
      "lstrip": false,
      "rstrip": false,
      "normalized": false,
      "special": true
    },
    {
      "id": 186,
      "content": "<|reserved_174|>",
      "single_word": false,
      "lstrip": false,
      "rstrip": false,
      "normalized": false,
      "special": true
    },
    {
      "id": 187,
      "content": "<|reserved_175|>",
      "single_word": false,
      "lstrip": false,
      "rstrip": false,
      "normalized": false,
      "special": true
    },
    {
      "id": 188,
      "content": "<|reserved_176|>",
      "single_word": false,
      "lstrip": false,
      "rstrip": false,
      "normalized": false,
      "special": true
    },
    {
      "id": 189,
      "content": "<|reserved_177|>",
      "single_word": false,
      "lstrip": false,
      "rstrip": false,
      "normalized": false,
      "special": true
    },
    {
      "id": 190,
      "content": "<|reserved_178|>",
      "single_word": false,
      "lstrip": false,
      "rstrip": false,
      "normalized": false,
      "special": true
    },
    {
      "id": 191,
      "content": "<|reserved_179|>",
      "single_word": false,
      "lstrip": false,
      "rstrip": false,
      "normalized": false,
      "special": true
    },
    {
      "id": 192,
      "content": "<|reserved_180|>",
      "single_word": false,
      "lstrip": false,
      "rstrip": false,
      "normalized": false,
      "special": true
    },
    {
      "id": 193,
      "content": "<|reserved_181|>",
      "single_word": false,
      "lstrip": false,
      "rstrip": false,
      "normalized": false,
      "special": true
    },
    {
      "id": 194,
      "content": "<|reserved_182|>",
      "single_word": false,
      "lstrip": false,
      "rstrip": false,
      "normalized": false,
      "special": true
    },
    {
      "id": 195,
      "content": "<|reserved_183|>",
      "single_word": false,
      "lstrip": false,
      "rstrip": false,
      "normalized": false,
      "special": true
    },
    {
      "id": 196,
      "content": "<|reserved_184|>",
      "single_word": false,
      "lstrip": false,
      "rstrip": false,
      "normalized": false,
      "special": true
    },
    {
      "id": 197,
      "content": "<|reserved_185|>",
      "single_word": false,
      "lstrip": false,
      "rstrip": false,
      "normalized": false,
      "special": true
    },
    {
      "id": 198,
      "content": "<|reserved_186|>",
      "single_word": false,
      "lstrip": false,
      "rstrip": false,
      "normalized": false,
      "special": true
    },
    {
      "id": 199,
      "content": "<|reserved_187|>",
      "single_word": false,
      "lstrip": false,
      "rstrip": false,
      "normalized": false,
      "special": true
    },
    {
      "id": 200,
      "content": "<|reserved_188|>",
      "single_word": false,
      "lstrip": false,
      "rstrip": false,
      "normalized": false,
      "special": true
    },
    {
      "id": 201,
      "content": "<|reserved_189|>",
      "single_word": false,
      "lstrip": false,
      "rstrip": false,
      "normalized": false,
      "special": true
    },
    {
      "id": 202,
      "content": "<|reserved_190|>",
      "single_word": false,
      "lstrip": false,
      "rstrip": false,
      "normalized": false,
      "special": true
    },
    {
      "id": 203,
      "content": "<|reserved_191|>",
      "single_word": false,
      "lstrip": false,
      "rstrip": false,
      "normalized": false,
      "special": true
    },
    {
      "id": 204,
      "content": "<|reserved_192|>",
      "single_word": false,
      "lstrip": false,
      "rstrip": false,
      "normalized": false,
      "special": true
    },
    {
      "id": 205,
      "content": "<|reserved_193|>",
      "single_word": false,
      "lstrip": false,
      "rstrip": false,
      "normalized": false,
      "special": true
    },
    {
      "id": 206,
      "content": "<|reserved_194|>",
      "single_word": false,
      "lstrip": false,
      "rstrip": false,
      "normalized": false,
      "special": true
    },
    {
      "id": 207,
      "content": "<|reserved_195|>",
      "single_word": false,
      "lstrip": false,
      "rstrip": false,
      "normalized": false,
      "special": true
    },
    {
      "id": 208,
      "content": "<|reserved_196|>",
      "single_word": false,
      "lstrip": false,
      "rstrip": false,
      "normalized": false,
      "special": true
    },
    {
      "id": 209,
      "content": "<|reserved_197|>",
      "single_word": false,
      "lstrip": false,
      "rstrip": false,
      "normalized": false,
      "special": true
    },
    {
      "id": 210,
      "content": "<|reserved_198|>",
      "single_word": false,
      "lstrip": false,
      "rstrip": false,
      "normalized": false,
      "special": true
    },
    {
      "id": 211,
      "content": "<|reserved_199|>",
      "single_word": false,
      "lstrip": false,
      "rstrip": false,
      "normalized": false,
      "special": true
    },
    {
      "id": 212,
      "content": "<|reserved_200|>",
      "single_word": false,
      "lstrip": false,
      "rstrip": false,
      "normalized": false,
      "special": true
    },
    {
      "id": 213,
      "content": "<|reserved_201|>",
      "single_word": false,
      "lstrip": false,
      "rstrip": false,
      "normalized": false,
      "special": true
    },
    {
      "id": 214,
      "content": "<|reserved_202|>",
      "single_word": false,
      "lstrip": false,
      "rstrip": false,
      "normalized": false,
      "special": true
    },
    {
      "id": 215,
      "content": "<|reserved_203|>",
      "single_word": false,
      "lstrip": false,
      "rstrip": false,
      "normalized": false,
      "special": true
    },
    {
      "id": 216,
      "content": "<|reserved_204|>",
      "single_word": false,
      "lstrip": false,
      "rstrip": false,
      "normalized": false,
      "special": true
    },
    {
      "id": 217,
      "content": "<|reserved_205|>",
      "single_word": false,
      "lstrip": false,
      "rstrip": false,
      "normalized": false,
      "special": true
    },
    {
      "id": 218,
      "content": "<|reserved_206|>",
      "single_word": false,
      "lstrip": false,
      "rstrip": false,
      "normalized": false,
      "special": true
    },
    {
      "id": 219,
      "content": "<|reserved_207|>",
      "single_word": false,
      "lstrip": false,
      "rstrip": false,
      "normalized": false,
      "special": true
    },
    {
      "id": 220,
      "content": "<|reserved_208|>",
      "single_word": false,
      "lstrip": false,
      "rstrip": false,
      "normalized": false,
      "special": true
    },
    {
      "id": 221,
      "content": "<|reserved_209|>",
      "single_word": false,
      "lstrip": false,
      "rstrip": false,
      "normalized": false,
      "special": true
    },
    {
      "id": 222,
      "content": "<|reserved_210|>",
      "single_word": false,
      "lstrip": false,
      "rstrip": false,
      "normalized": false,
      "special": true
    },
    {
      "id": 223,
      "content": "<|reserved_211|>",
      "single_word": false,
      "lstrip": false,
      "rstrip": false,
      "normalized": false,
      "special": true
    },
    {
      "id": 224,
      "content": "<|reserved_212|>",
      "single_word": false,
      "lstrip": false,
      "rstrip": false,
      "normalized": false,
      "special": true
    },
    {
      "id": 225,
      "content": "<|reserved_213|>",
      "single_word": false,
      "lstrip": false,
      "rstrip": false,
      "normalized": false,
      "special": true
    },
    {
      "id": 226,
      "content": "<|reserved_214|>",
      "single_word": false,
      "lstrip": false,
      "rstrip": false,
      "normalized": false,
      "special": true
    },
    {
      "id": 227,
      "content": "<|reserved_215|>",
      "single_word": false,
      "lstrip": false,
      "rstrip": false,
      "normalized": false,
      "special": true
    },
    {
      "id": 228,
      "content": "<|reserved_216|>",
      "single_word": false,
      "lstrip": false,
      "rstrip": false,
      "normalized": false,
      "special": true
    },
    {
      "id": 229,
      "content": "<|reserved_217|>",
      "single_word": false,
      "lstrip": false,
      "rstrip": false,
      "normalized": false,
      "special": true
    },
    {
      "id": 230,
      "content": "<|reserved_218|>",
      "single_word": false,
      "lstrip": false,
      "rstrip": false,
      "normalized": false,
      "special": true
    },
    {
      "id": 231,
      "content": "<|reserved_219|>",
      "single_word": false,
      "lstrip": false,
      "rstrip": false,
      "normalized": false,
      "special": true
    },
    {
      "id": 232,
      "content": "<|reserved_220|>",
      "single_word": false,
      "lstrip": false,
      "rstrip": false,
      "normalized": false,
      "special": true
    },
    {
      "id": 233,
      "content": "<|reserved_221|>",
      "single_word": false,
      "lstrip": false,
      "rstrip": false,
      "normalized": false,
      "special": true
    },
    {
      "id": 234,
      "content": "<|reserved_222|>",
      "single_word": false,
      "lstrip": false,
      "rstrip": false,
      "normalized": false,
      "special": true
    },
    {
      "id": 235,
      "content": "<|reserved_223|>",
      "single_word": false,
      "lstrip": false,
      "rstrip": false,
      "normalized": false,
      "special": true
    },
    {
      "id": 236,
      "content": "<|reserved_224|>",
      "single_word": false,
      "lstrip": false,
      "rstrip": false,
      "normalized": false,
      "special": true
    },
    {
      "id": 237,
      "content": "<|reserved_225|>",
      "single_word": false,
      "lstrip": false,
      "rstrip": false,
      "normalized": false,
      "special": true
    },
    {
      "id": 238,
      "content": "<|reserved_226|>",
      "single_word": false,
      "lstrip": false,
      "rstrip": false,
      "normalized": false,
      "special": true
    },
    {
      "id": 239,
      "content": "<|reserved_227|>",
      "single_word": false,
      "lstrip": false,
      "rstrip": false,
      "normalized": false,
      "special": true
    },
    {
      "id": 240,
      "content": "<|reserved_228|>",
      "single_word": false,
      "lstrip": false,
      "rstrip": false,
      "normalized": false,
      "special": true
    },
    {
      "id": 241,
      "content": "<|reserved_229|>",
      "single_word": false,
      "lstrip": false,
      "rstrip": false,
      "normalized": false,
      "special": true
    },
    {
      "id": 242,
      "content": "<|reserved_230|>",
      "single_word": false,
      "lstrip": false,
      "rstrip": false,
      "normalized": false,
      "special": true
    },
    {
      "id": 243,
      "content": "<|reserved_231|>",
      "single_word": false,
      "lstrip": false,
      "rstrip": false,
      "normalized": false,
      "special": true
    },
    {
      "id": 244,
      "content": "<|reserved_232|>",
      "single_word": false,
      "lstrip": false,
      "rstrip": false,
      "normalized": false,
      "special": true
    },
    {
      "id": 245,
      "content": "<|reserved_233|>",
      "single_word": false,
      "lstrip": false,
      "rstrip": false,
      "normalized": false,
      "special": true
    },
    {
      "id": 246,
      "content": "<|reserved_234|>",
      "single_word": false,
      "lstrip": false,
      "rstrip": false,
      "normalized": false,
      "special": true
    },
    {
      "id": 247,
      "content": "<|reserved_235|>",
      "single_word": false,
      "lstrip": false,
      "rstrip": false,
      "normalized": false,
      "special": true
    },
    {
      "id": 248,
      "content": "<|reserved_236|>",
      "single_word": false,
      "lstrip": false,
      "rstrip": false,
      "normalized": false,
      "special": true
    },
    {
      "id": 249,
      "content": "<|reserved_237|>",
      "single_word": false,
      "lstrip": false,
      "rstrip": false,
      "normalized": false,
      "special": true
    },
    {
      "id": 250,
      "content": "<|reserved_238|>",
      "single_word": false,
      "lstrip": false,
      "rstrip": false,
      "normalized": false,
      "special": true
    },
    {
      "id": 251,
      "content": "<|reserved_239|>",
      "single_word": false,
      "lstrip": false,
      "rstrip": false,
      "normalized": false,
      "special": true
    },
    {
      "id": 252,
      "content": "<|reserved_240|>",
      "single_word": false,
      "lstrip": false,
      "rstrip": false,
      "normalized": false,
      "special": true
    },
    {
      "id": 253,
      "content": "<|reserved_241|>",
      "single_word": false,
      "lstrip": false,
      "rstrip": false,
      "normalized": false,
      "special": true
    },
    {
      "id": 254,
      "content": "<|reserved_242|>",
      "single_word": false,
      "lstrip": false,
      "rstrip": false,
      "normalized": false,
      "special": true
    },
    {
      "id": 255,
      "content": "<|reserved_243|>",
      "single_word": false,
      "lstrip": false,
      "rstrip": false,
      "normalized": false,
      "special": true
    },
    {
      "id": 256,
      "content": "<|reserved_244|>",
      "single_word": false,
      "lstrip": false,
      "rstrip": false,
      "normalized": false,
      "special": true
    },
    {
      "id": 257,
      "content": "<|reserved_245|>",
      "single_word": false,
      "lstrip": false,
      "rstrip": false,
      "normalized": false,
      "special": true
    },
    {
      "id": 258,
      "content": "<|reserved_246|>",
      "single_word": false,
      "lstrip": false,
      "rstrip": false,
      "normalized": false,
      "special": true
    },
    {
      "id": 259,
      "content": "<|reserved_247|>",
      "single_word": false,
      "lstrip": false,
      "rstrip": false,
      "normalized": false,
      "special": true
    },
    {
      "id": 260,
      "content": "<|reserved_248|>",
      "single_word": false,
      "lstrip": false,
      "rstrip": false,
      "normalized": false,
      "special": true
    },
    {
      "id": 261,
      "content": "<|reserved_249|>",
      "single_word": false,
      "lstrip": false,
      "rstrip": false,
      "normalized": false,
      "special": true
    },
    {
      "id": 262,
      "content": "<|reserved_250|>",
      "single_word": false,
      "lstrip": false,
      "rstrip": false,
      "normalized": false,
      "special": true
    },
    {
      "id": 263,
      "content": "<|reserved_251|>",
      "single_word": false,
      "lstrip": false,
      "rstrip": false,
      "normalized": false,
      "special": true
    },
    {
      "id": 264,
      "content": "<|reserved_252|>",
      "single_word": false,
      "lstrip": false,
      "rstrip": false,
      "normalized": false,
      "special": true
    },
    {
      "id": 265,
      "content": "<|reserved_253|>",
      "single_word": false,
      "lstrip": false,
      "rstrip": false,
      "normalized": false,
      "special": true
    },
    {
      "id": 266,
      "content": "<|reserved_254|>",
      "single_word": false,
      "lstrip": false,
      "rstrip": false,
      "normalized": false,
      "special": true
    },
    {
      "id": 267,
      "content": "<|reserved_255|>",
      "single_word": false,
      "lstrip": false,
      "rstrip": false,
      "normalized": false,
      "special": true
    }
  ],
  "normalizer": {
    "type": "NFC"
  },
  "pre_tokenizer": {
    "type": "ByteLevel",
    "add_prefix_space": false,
    "trim_offsets": true,
    "use_regex": true
  },
  "post_processor": null,
  "decoder": {
    "type": "ByteLevel",
    "add_prefix_space": true,
    "trim_offsets": true,
    "use_regex": true
  },
  "model": {
    "type": "BPE",
    "dropout": null,
    "unk_token": "<|unk|>",
    "continuing_subword_prefix": null,
    "end_of_word_suffix": null,
    "fuse_unk": false,
    "byte_fallback": false,
    "ignore_merges": false,
    "vocab": {
      "<|pad|>": 0,
      "<|bos|>": 1,
      "<|eos|>": 2,
      "<|unk|>": 3,
      "<|system|>": 4,
      "<|user|>": 5,
      "<|assistant|>": 6,
      "<|tool|>": 7,
      "<|end_of_turn|>": 8,
      "<|fim_prefix|>": 9,
      "<|fim_middle|>": 10,
      "<|fim_suffix|>": 11,
      "<|reserved_0|>": 12,
      "<|reserved_1|>": 13,
      "<|reserved_2|>": 14,
      "<|reserved_3|>": 15,
      "<|reserved_4|>": 16,
      "<|reserved_5|>": 17,
      "<|reserved_6|>": 18,
      "<|reserved_7|>": 19,
      "<|reserved_8|>": 20,
      "<|reserved_9|>": 21,
      "<|reserved_10|>": 22,
      "<|reserved_11|>": 23,
      "<|reserved_12|>": 24,
      "<|reserved_13|>": 25,
      "<|reserved_14|>": 26,
      "<|reserved_15|>": 27,
      "<|reserved_16|>": 28,
      "<|reserved_17|>": 29,
      "<|reserved_18|>": 30,
      "<|reserved_19|>": 31,
      "<|reserved_20|>": 32,
      "<|reserved_21|>": 33,
      "<|reserved_22|>": 34,
      "<|reserved_23|>": 35,
      "<|reserved_24|>": 36,
      "<|reserved_25|>": 37,
      "<|reserved_26|>": 38,
      "<|reserved_27|>": 39,
      "<|reserved_28|>": 40,
      "<|reserved_29|>": 41,
      "<|reserved_30|>": 42,
      "<|reserved_31|>": 43,
      "<|reserved_32|>": 44,
      "<|reserved_33|>": 45,
      "<|reserved_34|>": 46,
      "<|reserved_35|>": 47,
      "<|reserved_36|>": 48,
      "<|reserved_37|>": 49,
      "<|reserved_38|>": 50,
      "<|reserved_39|>": 51,
      "<|reserved_40|>": 52,
      "<|reserved_41|>": 53,
      "<|reserved_42|>": 54,
      "<|reserved_43|>": 55,
      "<|reserved_44|>": 56,
      "<|reserved_45|>": 57,
      "<|reserved_46|>": 58,
      "<|reserved_47|>": 59,
      "<|reserved_48|>": 60,
      "<|reserved_49|>": 61,
      "<|reserved_50|>": 62,
      "<|reserved_51|>": 63,
      "<|reserved_52|>": 64,
      "<|reserved_53|>": 65,
      "<|reserved_54|>": 66,
      "<|reserved_55|>": 67,
      "<|reserved_56|>": 68,
      "<|reserved_57|>": 69,
      "<|reserved_58|>": 70,
      "<|reserved_59|>": 71,
      "<|reserved_60|>": 72,
      "<|reserved_61|>": 73,
      "<|reserved_62|>": 74,
      "<|reserved_63|>": 75,
      "<|reserved_64|>": 76,
      "<|reserved_65|>": 77,
      "<|reserved_66|>": 78,
      "<|reserved_67|>": 79,
      "<|reserved_68|>": 80,
      "<|reserved_69|>": 81,
      "<|reserved_70|>": 82,
      "<|reserved_71|>": 83,
      "<|reserved_72|>": 84,
      "<|reserved_73|>": 85,
      "<|reserved_74|>": 86,
      "<|reserved_75|>": 87,
      "<|reserved_76|>": 88,
      "<|reserved_77|>": 89,
      "<|reserved_78|>": 90,
      "<|reserved_79|>": 91,
      "<|reserved_80|>": 92,
      "<|reserved_81|>": 93,
      "<|reserved_82|>": 94,
      "<|reserved_83|>": 95,
      "<|reserved_84|>": 96,
      "<|reserved_85|>": 97,
      "<|reserved_86|>": 98,
      "<|reserved_87|>": 99,
      "<|reserved_88|>": 100,
      "<|reserved_89|>": 101,
      "<|reserved_90|>": 102,
      "<|reserved_91|>": 103,
      "<|reserved_92|>": 104,
      "<|reserved_93|>": 105,
      "<|reserved_94|>": 106,
      "<|reserved_95|>": 107,
      "<|reserved_96|>": 108,
      "<|reserved_97|>": 109,
      "<|reserved_98|>": 110,
      "<|reserved_99|>": 111,
      "<|reserved_100|>": 112,
      "<|reserved_101|>": 113,
      "<|reserved_102|>": 114,
      "<|reserved_103|>": 115,
      "<|reserved_104|>": 116,
      "<|reserved_105|>": 117,
      "<|reserved_106|>": 118,
      "<|reserved_107|>": 119,
      "<|reserved_108|>": 120,
      "<|reserved_109|>": 121,
      "<|reserved_110|>": 122,
      "<|reserved_111|>": 123,
      "<|reserved_112|>": 124,
      "<|reserved_113|>": 125,
      "<|reserved_114|>": 126,
      "<|reserved_115|>": 127,
      "<|reserved_116|>": 128,
      "<|reserved_117|>": 129,
      "<|reserved_118|>": 130,
      "<|reserved_119|>": 131,
      "<|reserved_120|>": 132,
      "<|reserved_121|>": 133,
      "<|reserved_122|>": 134,
      "<|reserved_123|>": 135,
      "<|reserved_124|>": 136,
      "<|reserved_125|>": 137,
      "<|reserved_126|>": 138,
      "<|reserved_127|>": 139,
      "<|reserved_128|>": 140,
      "<|reserved_129|>": 141,
      "<|reserved_130|>": 142,
      "<|reserved_131|>": 143,
      "<|reserved_132|>": 144,
      "<|reserved_133|>": 145,
      "<|reserved_134|>": 146,
      "<|reserved_135|>": 147,
      "<|reserved_136|>": 148,
      "<|reserved_137|>": 149,
      "<|reserved_138|>": 150,
      "<|reserved_139|>": 151,
      "<|reserved_140|>": 152,
      "<|reserved_141|>": 153,
      "<|reserved_142|>": 154,
      "<|reserved_143|>": 155,
      "<|reserved_144|>": 156,
      "<|reserved_145|>": 157,
      "<|reserved_146|>": 158,
      "<|reserved_147|>": 159,
      "<|reserved_148|>": 160,
      "<|reserved_149|>": 161,
      "<|reserved_150|>": 162,
      "<|reserved_151|>": 163,
      "<|reserved_152|>": 164,
      "<|reserved_153|>": 165,
      "<|reserved_154|>": 166,
      "<|reserved_155|>": 167,
      "<|reserved_156|>": 168,
      "<|reserved_157|>": 169,
      "<|reserved_158|>": 170,
      "<|reserved_159|>": 171,
      "<|reserved_160|>": 172,
      "<|reserved_161|>": 173,
      "<|reserved_162|>": 174,
      "<|reserved_163|>": 175,
      "<|reserved_164|>": 176,
      "<|reserved_165|>": 177,
      "<|reserved_166|>": 178,
      "<|reserved_167|>": 179,
      "<|reserved_168|>": 180,
      "<|reserved_169|>": 181,
      "<|reserved_170|>": 182,
      "<|reserved_171|>": 183,
      "<|reserved_172|>": 184,
      "<|reserved_173|>": 185,
      "<|reserved_174|>": 186,
      "<|reserved_175|>": 187,
      "<|reserved_176|>": 188,
      "<|reserved_177|>": 189,
      "<|reserved_178|>": 190,
      "<|reserved_179|>": 191,
      "<|reserved_180|>": 192,
      "<|reserved_181|>": 193,
      "<|reserved_182|>": 194,
      "<|reserved_183|>": 195,
      "<|reserved_184|>": 196,
      "<|reserved_185|>": 197,
      "<|reserved_186|>": 198,
      "<|reserved_187|>": 199,
      "<|reserved_188|>": 200,
      "<|reserved_189|>": 201,
      "<|reserved_190|>": 202,
      "<|reserved_191|>": 203,
      "<|reserved_192|>": 204,
      "<|reserved_193|>": 205,
      "<|reserved_194|>": 206,
      "<|reserved_195|>": 207,
      "<|reserved_196|>": 208,
      "<|reserved_197|>": 209,
      "<|reserved_198|>": 210,
      "<|reserved_199|>": 211,
      "<|reserved_200|>": 212,
      "<|reserved_201|>": 213,
      "<|reserved_202|>": 214,
      "<|reserved_203|>": 215,
      "<|reserved_204|>": 216,
      "<|reserved_205|>": 217,
      "<|reserved_206|>": 218,
      "<|reserved_207|>": 219,
      "<|reserved_208|>": 220,
      "<|reserved_209|>": 221,
      "<|reserved_210|>": 222,
      "<|reserved_211|>": 223,
      "<|reserved_212|>": 224,
      "<|reserved_213|>": 225,
      "<|reserved_214|>": 226,
      "<|reserved_215|>": 227,
      "<|reserved_216|>": 228,
      "<|reserved_217|>": 229,
      "<|reserved_218|>": 230,
      "<|reserved_219|>": 231,
      "<|reserved_220|>": 232,
      "<|reserved_221|>": 233,
      "<|reserved_222|>": 234,
      "<|reserved_223|>": 235,
      "<|reserved_224|>": 236,
      "<|reserved_225|>": 237,
      "<|reserved_226|>": 238,
      "<|reserved_227|>": 239,
      "<|reserved_228|>": 240,
      "<|reserved_229|>": 241,
      "<|reserved_230|>": 242,
      "<|reserved_231|>": 243,
      "<|reserved_232|>": 244,
      "<|reserved_233|>": 245,
      "<|reserved_234|>": 246,
      "<|reserved_235|>": 247,
      "<|reserved_236|>": 248,
      "<|reserved_237|>": 249,
      "<|reserved_238|>": 250,
      "<|reserved_239|>": 251,
      "<|reserved_240|>": 252,
      "<|reserved_241|>": 253,
      "<|reserved_242|>": 254,
      "<|reserved_243|>": 255,
      "<|reserved_244|>": 256,
      "<|reserved_245|>": 257,
      "<|reserved_246|>": 258,
      "<|reserved_247|>": 259,
      "<|reserved_248|>": 260,
      "<|reserved_249|>": 261,
      "<|reserved_250|>": 262,
      "<|reserved_251|>": 263,
      "<|reserved_252|>": 264,
      "<|reserved_253|>": 265,
      "<|reserved_254|>": 266,
      "<|reserved_255|>": 267,
      "!": 268,
      "\"": 269,
      "#": 270,
      "$": 271,
      "%": 272,
      "&": 273,
      "'": 274,
      "(": 275,
      ")": 276,
      "*": 277,
      "+": 278,
      ",": 279,
      "-": 280,
      ".": 281,
      "/": 282,
      "0": 283,
      "1": 284,
      "2": 285,
      "3": 286,
      "4": 287,
      "5": 288,
      "6": 289,
      "7": 290,
      "8": 291,
      "9": 292,
      ":": 293,
      ";": 294,
      "<": 295,
      "=": 296,
      ">": 297,
      "?": 298,
      "@": 299,
      "A": 300,
      "B": 301,
      "C": 302,
      "D": 303,
      "E": 304,
      "F": 305,
      "G": 306,
      "H": 307,
      "I": 308,
      "J": 309,
      "K": 310,
      "L": 311,
      "M": 312,
      "N": 313,
      "O": 314,
      "P": 315,
      "Q": 316,
      "R": 317,
      "S": 318,
      "T": 319,
      "U": 320,
      "V": 321,
      "W": 322,
      "X": 323,
      "Y": 324,
      "Z": 325,
      "[": 326,
      "\\": 327,
      "]": 328,
      "^": 329,
      "_": 330,
      "`": 331,
      "a": 332,
      "b": 333,
      "c": 334,
      "d": 335,
      "e": 336,
      "f": 337,
      "g": 338,
      "h": 339,
      "i": 340,
      "j": 341,
      "k": 342,
      "l": 343,
      "m": 344,
      "n": 345,
      "o": 346,
      "p": 347,
      "q": 348,
      "r": 349,
      "s": 350,
      "t": 351,
      "u": 352,
      "v": 353,
      "w": 354,
      "x": 355,
      "y": 356,
      "z": 357,
      "{": 358,
      "|": 359,
      "}": 360,
      "~": 361,
      "¡": 362,
      "¢": 363,
      "£": 364,
      "¤": 365,
      "¥": 366,
      "¦": 367,
      "§": 368,
      "¨": 369,
      "©": 370,
      "ª": 371,
      "«": 372,
      "¬": 373,
      "®": 374,
      "¯": 375,
      "°": 376,
      "±": 377,
      "²": 378,
      "³": 379,
      "´": 380,
      "µ": 381,
      "¶": 382,
      "·": 383,
      "¸": 384,
      "¹": 385,
      "º": 386,
      "»": 387,
      "¼": 388,
      "½": 389,
      "¾": 390,
      "¿": 391,
      "À": 392,
      "Á": 393,
      "Â": 394,
      "Ã": 395,
      "Ä": 396,
      "Å": 397,
      "Æ": 398,
      "Ç": 399,
      "È": 400,
      "É": 401,
      "Ê": 402,
      "Ë": 403,
      "Ì": 404,
      "Í": 405,
      "Î": 406,
      "Ï": 407,
      "Ð": 408,
      "Ñ": 409,
      "Ò": 410,
      "Ó": 411,
      "Ô": 412,
      "Õ": 413,
      "Ö": 414,
      "×": 415,
      "Ø": 416,
      "Ù": 417,
      "Ú": 418,
      "Û": 419,
      "Ü": 420,
      "Ý": 421,
      "Þ": 422,
      "ß": 423,
      "à": 424,
      "á": 425,
      "â": 426,
      "ã": 427,
      "ä": 428,
      "å": 429,
      "æ": 430,
      "ç": 431,
      "è": 432,
      "é": 433,
      "ê": 434,
      "ë": 435,
      "ì": 436,
      "í": 437,
      "î": 438,
      "ï": 439,
      "ð": 440,
      "ñ": 441,
      "ò": 442,
      "ó": 443,
      "ô": 444,
      "õ": 445,
      "ö": 446,
      "÷": 447,
      "ø": 448,
      "ù": 449,
      "ú": 450,
      "û": 451,
      "ü": 452,
      "ý": 453,
      "þ": 454,
      "ÿ": 455,
      "Ā": 456,
      "ā": 457,
      "Ă": 458,
      "ă": 459,
      "Ą": 460,
      "ą": 461,
      "Ć": 462,
      "ć": 463,
      "Ĉ": 464,
      "ĉ": 465,
      "Ċ": 466,
      "ċ": 467,
      "Č": 468,
      "č": 469,
      "Ď": 470,
      "ď": 471,
      "Đ": 472,
      "đ": 473,
      "Ē": 474,
      "ē": 475,
      "Ĕ": 476,
      "ĕ": 477,
      "Ė": 478,
      "ė": 479,
      "Ę": 480,
      "ę": 481,
      "Ě": 482,
      "ě": 483,
      "Ĝ": 484,
      "ĝ": 485,
      "Ğ": 486,
      "ğ": 487,
      "Ġ": 488,
      "ġ": 489,
      "Ģ": 490,
      "ģ": 491,
      "Ĥ": 492,
      "ĥ": 493,
      "Ħ": 494,
      "ħ": 495,
      "Ĩ": 496,
      "ĩ": 497,
      "Ī": 498,
      "ī": 499,
      "Ĭ": 500,
      "ĭ": 501,
      "Į": 502,
      "į": 503,
      "İ": 504,
      "ı": 505,
      "Ĳ": 506,
      "ĳ": 507,
      "Ĵ": 508,
      "ĵ": 509,
      "Ķ": 510,
      "ķ": 511,
      "ĸ": 512,
      "Ĺ": 513,
      "ĺ": 514,
      "Ļ": 515,
      "ļ": 516,
      "Ľ": 517,
      "ľ": 518,
      "Ŀ": 519,
      "ŀ": 520,
      "Ł": 521,
      "ł": 522,
      "Ń": 523,
      "Ġt": 524,
      "Ġa": 525,
      "in": 526,
      "he": 527,
      "on": 528,
      "čĊ": 529,
      "re": 530,
      "er": 531,
      "at": 532,
      "Ġthe": 533,
      "es": 534,
      "Ġs": 535,
      "en": 536,
      "or": 537,
      "nd": 538,
      "Ġc": 539,
      "ti": 540,
      "Ġo": 541,
      "Ġp": 542,
      "al": 543,
      "is": 544,
      "ing": 545,
      "Ġf": 546,
      "ed": 547,
      "Ġw": 548,
      "Ġin": 549,
      "Ġof": 550,
      "Ġand": 551,
      "ar": 552,
      "ro": 553,
      "an": 554,
      "it": 555,
      "Ġto": 556,
      "Ġd": 557,
      "Ġm": 558,
      "ic": 559,
      "Ġb": 560,
      "ent": 561,
      "le": 562,
      "ou": 563,
      "tion": 564,
      "ion": 565,
      "as": 566,
      "Ġre": 567,
      "il": 568,
      "ac": 569,
      "ation": 570,
      "ve": 571,
      "Ġe": 572,
      "ĠT": 573,
      "id": 574,
      "st": 575,
      "Ġh": 576,
      "Ġth": 577,
      "ec": 578,
      "om": 579,
      "Ġis": 580,
      "ol": 581,
      "Ġl": 582,
      "Ġn": 583,
      "Ġfor": 584,
      "ĠS": 585,
      "ĠC": 586,
      "Ġst": 587,
      "se": 588,
      "ĠW": 589,
      "ra": 590,
      "et": 591,
      "Ġpro": 592,
      "ur": 593,
      "Ġg": 594,
      "ce": 595,
      "ns": 596,
      "ĠA": 597,
      "ow": 598,
      "ues": 599,
      "im": 600,
      "ment": 601,
      "uestion": 602,
      "ly": 603,
      "ig": 604,
      "wer": 605,
      "nswer": 606,
      "ir": 607,
      "Question": 608,
      "Ġu": 609,
      "Answer": 610,
      "ud": 611,
      "ate": 612,
      "ter": 613,
      "ts": 614,
      "Ġon": 615,
      "âĢ": 616,
      "ver": 617,
      "ĠP": 618,
      "el": 619,
      "am": 620,
      "ĠThe": 621,
      "ul": 622,
      "ith": 623,
      "ess": 624,
      "th": 625,
      "uc": 626,
      "Ġwith": 627,
      "ĠI": 628,
      "Ġas": 629,
      "her": 630,
      "Ġor": 631,
      "Ġcon": 632,
      "ĠWh": 633,
      "ge": 634,
      "Ġthat": 635,
      "ay": 636,
      "Ġbe": 637,
      "ab": 638,
      "ĠM": 639,
      "Ġ1": 640,
      "ad": 641,
      "Ġare": 642,
      "Ġ(": 643,
      "if": 644,
      "ers": 645,
      "ri": 646,
      "Ġy": 647,
      "ot": 648,
      "ut": 649,
      "ity": 650,
      "ĠF": 651,
      "Ġex": 652,
      "pp": 653,
      "Ġan": 654,
      "ch": 655,
      "Ġv": 656,
      "res": 657,
      "od": 658,
      "ĠH": 659,
      "Ġcom": 660,
      "em": 661,
      "ĠN": 662,
      "ĠR": 663,
      "ĠD": 664,
      "Ġac": 665,
      "ill": 666,
      "Ġ2": 667,
      "oc": 668,
      "op": 669,
      "ĠB": 670,
      "Ġhe": 671,
      "un": 672,
      "um": 673,
      "Ġwh": 674,
      "Ġal": 675,
      "ren": 676,
      "Ġch": 677,
      "ĠE": 678,
      "ort": 679,
      "Ġle": 680,
      "our": 681,
      "ist": 682,
      "Ġby": 683,
      "qu": 684,
      "and": 685,
      "ĠL": 686,
      "ore": 687,
      "Ġstud": 688,
      "ĠWhat": 689,
      "ild": 690,
      "rom": 691,
      "os": 692,
      "ure": 693,
      "Ġen": 694,
      "igh": 695,
      "Ġat": 696,
      "ain": 697,
      "Ġde": 698,
      "us": 699,
      "ents": 700,
      "ide": 701,
      "Ġinc": 702,
      "iti": 703,
      "ich": 704,
      "ke": 705,
      "Ġ\"": 706,
      "ated": 707,
      "ies": 708,
      "tic": 709,
      "Ġwe": 710,
      "Ġfrom": 711,
      "rou": 712,
      "ear": 713,
      "Ġr": 714,
      "Ġte": 715,
      "gra": 716,
      "ial": 717,
      "Ġwas": 718,
      "ĠG": 719,
      "ord": 720,
      "Ġsp": 721,
      "ary": 722,
      "ard": 723,
      "age": 724,
      "Ġsu": 725,
      "ew": 726,
      "ive": 727,
      "est": 728,
      "Ġit": 729,
      "Ġad": 730,
      "00": 731,
      "red": 732,
      "pl": 733,
      "Ġim": 734,
      "ld": 735,
      "all": 736,
      "ff": 737,
      "âĢĻ": 738,
      "ical": 739,
      "Ġres": 740,
      "Ġsh": 741,
      "vel": 742,
      "ater": 743,
      "per": 744,
      "ct": 745,
      "ans": 746,
      "Ġse": 747,
      "ĠO": 748,
      "Ġcan": 749,
      "Ġprov": 750,
      "ant": 751,
      "iv": 752,
      "gram": 753,
      "low": 754,
      "ĠSt": 755,
      "oun": 756,
      "art": 757,
      "ect": 758,
      "Ġha": 759,
      "ag": 760,
      "ple": 761,
      "orm": 762,
      "lud": 763,
      "ine": 764,
      "gh": 765,
      "are": 766,
      "ĠU": 767,
      "ib": 768,
      "ations": 769,
      "Ġpl": 770,
      "ork": 771,
      "ep": 772,
      "erv": 773,
      "ound": 774,
      "ĠIn": 775,
      "ip": 776,
      "end": 777,
      "enti": 778,
      "The": 779,
      "out": 780,
      "Ġinclud": 781,
      "ance": 782,
      "Ġus": 783,
      "Ġpr": 784,
      "Ġint": 785,
      "able": 786,
      "Ġtheir": 787,
      "Ġcont": 788,
      "'s": 789,
      "og": 790,
      "ities": 791,
      "ence": 792,
      "Ġstudents": 793,
      "ach": 794,
      "iz": 795,
      "tions": 796,
      "Ġnot": 797,
      "ose": 798,
      "duc": 799,
      "ost": 800,
      "Ġper": 801,
      "Ġab": 802,
      "xt": 803,
      "str": 804,
      "Ġsc": 805,
      "ĠJ": 806,
      "Ġdis": 807,
      "ool": 808,
      "Ġthis": 809,
      "Ġ20": 810,
      "ire": 811,
      "Ġinf": 812,
      "ight": 813,
      "ther": 814,
      "ap": 815,
      "enc": 816,
      "ong": 817,
      "ub": 818,
      "Ġwill": 819,
      "Ġcl": 820,
      "Ġcomm": 821,
      "Ġsy": 822,
      "ons": 823,
      "Ġhave": 824,
      "Ġwhe": 825,
      "Ġprogram": 826,
      "Ġchild": 827,
      "Ġtr": 828,
      "Ġpre": 829,
      "act": 830,
      "ome": 831,
      "chool": 832,
      "Ġyou": 833,
      "alth": 834,
      "ational": 835,
      "Ġacc": 836,
      "ak": 837,
      "ates": 838,
      "Ġapp": 839,
      "Ġman": 840,
      "Ġne": 841,
      "ust": 842,
      "ĠV": 843,
      "tiv": 844,
      "ack": 845,
      "ue": 846,
      "ould": 847,
      "ign": 848,
      "ous": 849,
      "ll": 850,
      "ors": 851,
      "ase": 852,
      "sion": 853,
      "Ġimp": 854,
      "ace": 855,
      "Ġ3": 856,
      "Ġwere": 857,
      "ount": 858,
      "fe": 859,
      "Ġdo": 860,
      "vi": 861,
      "Ġrec": 862,
      "ass": 863,
      "Ġmore": 864,
      "ven": 865,
      "Ġme": 866,
      "ĠâĢ": 867,
      "ia": 868,
      "ĠWhich": 869,
      "rough": 870,
      "ments": 871,
      "Ġyear": 872,
      "ual": 873,
      "Ġun": 874,
      "ition": 875,
      "pport": 876,
      "au": 877,
      "Ġpar": 878,
      "Ġro": 879,
      "Ġass": 880,
      "ata": 881,
      "ast": 882,
      "ric": 883,
      "ollow": 884,
      "Ġother": 885,
      "Ġwork": 886,
      "Ġprovid": 887,
      "mer": 888,
      "ake": 889,
      "Ġph": 890,
      "Ġyour": 891,
      "Ġtext": 892,
      "tive": 893,
      "ory": 894,
      "Ġcomp": 895,
      "lic": 896,
      "stem": 897,
      "uring": 898,
      "ber": 899,
      "Ġfollow": 900,
      "ens": 901,
      "fic": 902,
      "Ġthey": 903,
      "Ġrep": 904,
      "Ġag": 905,
      "Ġwhich": 906,
      "ail": 907,
      "Ġschool": 908,
      "ree": 909,
      "velop": 910,
      "ĠTh": 911,
      "nder": 912,
      "ative": 913,
      "âĢĿ": 914,
      "ame": 915,
      "acher": 916,
      "ood": 917,
      "Ġcare": 918,
      "ating": 919,
      "ning": 920,
      "ks": 921,
      "rent": 922,
      "Ġ19": 923,
      "ell": 924,
      "Ġcol": 925,
      "ervic": 926,
      "Ġhas": 927,
      "iver": 928,
      "Ġall": 929,
      "ĠK": 930,
      "ind": 931,
      "Ġinter": 932,
      "lp": 933,
      "pt": 934,
      "olog": 935,
      "Ġhealth": 936,
      "Ġk": 937,
      "Ġdata": 938,
      "ased": 939,
      "rib": 940,
      "ress": 941,
      "Ġout": 942,
      "Ġtim": 943,
      "Ġabout": 944,
      "Ġdes": 945,
      "Ġhelp": 946,
      "Ġspec": 947,
      "ys": 948,
      "Ġthrough": 949,
      "ish": 950,
      "Ġind": 951,
      "ormation": 952,
      "ĠPro": 953,
      "ces": 954,
      "Ġfu": 955,
      "ult": 956,
      "Ġwho": 957,
      "Ġreg": 958,
      "Ġover": 959,
      "Ġuse": 960,
      "Ġdevelop": 961,
      "Ġev": 962,
      "Ġactiv": 963,
      "te": 964,
      "Ġmain": 965,
      "uch": 966,
      "rad": 967,
      "omm": 968,
      "Ġone": 969,
      "Ġunder": 970,
      "over": 971,
      "yp": 972,
      "Ġj": 973,
      "ific": 974,
      "esson": 975,
      "ite": 976,
      "Ġbo": 977,
      "ile": 978,
      "Ġword": 979,
      "ĠTe": 980,
      "aterial": 981,
      "Ġsa": 982,
      "ok": 983,
      "Ġdec": 984,
      "Ġcommun": 985,
      "Ġnew": 986,
      "Ġstate": 987,
      "Ġsystem": 988,
      "Ġthan": 989,
      "Ġgu": 990,
      "Ġfollowing": 991,
      "Ġcons": 992,
      "irst": 993,
      "ang": 994,
      "so": 995,
      "ible": 996,
      "cess": 997,
      "ĠâĢľ": 998,
      "ph": 999,
      "we": 1000,
      "Ġsound": 1001,
      "Ġbet": 1002,
      "lect": 1003,
      "acc": 1004,
      "ife": 1005,
      "ond": 1006,
      "ĠY": 1007,
      "Ġpur": 1008,
      "ĠCh": 1009,
      "Ġhigh": 1010,
      "Ġlet": 1011,
      "Ġadd": 1012,
      "Ġ202": 1013,
      "Ġeff": 1014,
      "Ġhow": 1015,
      "Ġtra": 1016,
      "Ġinformation": 1017,
      "reat": 1018,
      "ublic": 1019,
      "Ġfirst": 1020,
      "ss": 1021,
      "Ġsec": 1022,
      "Ġmay": 1023,
      "ction": 1024,
      "Ġmaterial": 1025,
      "ency": 1026,
      "Ġalso": 1027,
      "Ġused": 1028,
      "Ġneed": 1029,
      "Ġwhen": 1030,
      "ting": 1031,
      "Ġdif": 1032,
      "eral": 1033,
      "Ġprovide": 1034,
      "Ġgrou": 1035,
      "ari": 1036,
      "Ġam": 1037,
      "Ġfe": 1038,
      "struc": 1039,
      "wo": 1040,
      "Ġ4": 1041,
      "Ġrequ": 1042,
      "ted": 1043,
      "ility": 1044,
      "sear": 1045,
      "identi": 1046,
      ").": 1047,
      "Ġqu": 1048,
      "Ġsk": 1049,
      "Ġup": 1050,
      "ike": 1051,
      "ĠThis": 1052,
      "Ġtime": 1053,
      "pose": 1054,
      "tice": 1055,
      "Ġstr": 1056,
      "Ġduring": 1057,
      "Ġexam": 1058,
      "Ġem": 1059,
      "eter": 1060,
      "Ġar": 1061,
      "ef": 1062,
      "Ġletter": 1063,
      "own": 1064,
      "Ġgo": 1065,
      "cent": 1066,
      "ech": 1067,
      "amil": 1068,
      "Ġlear": 1069,
      "Ġ-": 1070,
      "Ġresear": 1071,
      "les": 1072,
      "Ġprac": 1073,
      "Ġgen": 1074,
      "Ġthese": 1075,
      "Ġtrans": 1076,
      "Ġinto": 1077,
      "\":": 1078,
      "Ġloc": 1079,
      "Ġform": 1080,
      "Ġplan": 1081,
      "ov": 1082,
      "ove": 1083,
      "Ġbut": 1084,
      "Ġresp": 1085,
      "Ġrel": 1086,
      "Ġfl": 1087,
      "Ġchildren": 1088,
      "ween": 1089,
      "Ġcre": 1090,
      "als": 1091,
      "fter": 1092,
      "..": 1093,
      "one": 1094,
      "Ġob": 1095,
      "Ġsuch": 1096,
      "Ġpe": 1097,
      "ally": 1098,
      "Ġsupport": 1099,
      "ures": 1100,
      "ĠHow": 1101,
      "av": 1102,
      "ry": 1103,
      "ays": 1104,
      "Ġappro": 1105,
      "Ġeach": 1106,
      "Ġtwo": 1107,
      "ills": 1108,
      "Ġpurpose": 1109,
      "Ġsur": 1110,
      "Ġteacher": 1111,
      "Ġexp": 1112,
      "Ġidenti": 1113,
      "Ġservic": 1114,
      "ety": 1115,
      "Ġbetween": 1116,
      "Ġthem": 1117,
      "ited": 1118,
      "ĠUn": 1119,
      "Ġpers": 1120,
      "Ġprim": 1121,
      "Ġinclude": 1122,
      "ience": 1123,
      "Ġ5": 1124,
      "oin": 1125,
      "Ġed": 1126,
      "Ġso": 1127,
      "ark": 1128,
      "Ġmaterials": 1129,
      "Ġour": 1130,
      "ĠFor": 1131,
      "ission": 1132,
      "Ġwater": 1133,
      "Ġmet": 1134,
      "min": 1135,
      "oy": 1136,
      "Ġwhat": 1137,
      "Ġits": 1138,
      "Ġvacc": 1139,
      "Ġpartic": 1140,
      "ings": 1141,
      "Ġdist": 1142,
      "ĠHe": 1143,
      "hed": 1144,
      "In": 1145,
      "vir": 1146,
      "Ġinv": 1147,
      "Ġexpl": 1148,
      "ied": 1149,
      "ects": 1150,
      "tit": 1151,
      "Ġpublic": 1152,
      "OT": 1153,
      "Ġmod": 1154,
      "Ġshould": 1155,
      "tim": 1156,
      "ording": 1157,
      "Ġdiffe": 1158,
      "Ġris": 1159,
      "Ġmany": 1160,
      "Ġfamil": 1161,
      "ĠNational": 1162,
      "ources": 1163,
      "**": 1164,
      "ob": 1165,
      "Ġpres": 1166,
      "Ġsub": 1167,
      "get": 1168,
      "Ġif": 1169,
      "Ġgroup": 1170,
      "ont": 1171,
      "Ġread": 1172,
      "ice": 1173,
      "Ġstudy": 1174,
      "Ġdi": 1175,
      "Ġcomple": 1176,
      "gan": 1177,
      "ange": 1178,
      "viron": 1179,
      "king": 1180,
      "Ġmin": 1181,
      "hen": 1182,
      "Ġmen": 1183,
      "echn": 1184,
      "Ġyears": 1185,
      "orn": 1186,
      "ands": 1187,
      "meric": 1188,
      "Ġexper": 1189,
      "ten": 1190,
      "Ġeduc": 1191,
      "ject": 1192,
      "SA": 1193,
      "Ġactivities": 1194,
      "Ġdoes": 1195,
      "ople": 1196,
      "Ġ6": 1197,
      "Ġprimary": 1198,
      "tain": 1199,
      "anc": 1200,
      "ural": 1201,
      "ble": 1202,
      "Ġco": 1203,
      "Ġidentif": 1204,
      "Ġpart": 1205,
      "its": 1206,
      "Ġany": 1207,
      "Ġincre": 1208,
      "Ġnum": 1209,
      "Ġpercent": 1210,
      "ax": 1211,
      "Ġwords": 1212,
      "fer": 1213,
      "Ġop": 1214,
      "Ġbl": 1215,
      "Ġcur": 1216,
      "Ġrem": 1217,
      "Ġresearch": 1218,
      "view": 1219,
      "ĠEn": 1220,
      "),": 1221,
      "ection": 1222,
      "Ġskills": 1223,
      "ults": 1224,
      "Ġincluding": 1225,
      "ĠTr": 1226,
      "Ġdep": 1227,
      "eg": 1228,
      "Ġsome": 1229,
      "Ġstudent": 1230,
      "Ġpat": 1231,
      "ft": 1232,
      "ause": 1233,
      "aw": 1234,
      "ĠčĊ": 1235,
      "ĠNOT": 1236,
      "Ġdisc": 1237,
      "20": 1238,
      "Ġbeen": 1239,
      "ian": 1240,
      "very": 1241,
      "ĠRes": 1242,
      "Ġafter": 1243,
      "ĠAmeric": 1244,
      "Ġusing": 1245,
      "arly": 1246,
      "enter": 1247,
      "Ġdire": 1248,
      "ĠIt": 1249,
      "ature": 1250,
      "Ġlike": 1251,
      "Ġprocess": 1252,
      "aren": 1253,
      "ocus": 1254,
      "Ġra": 1255,
      "Ġmost": 1256,
      "Ġwhere": 1257,
      "ines": 1258,
      "Ġ201": 1259,
      "Ġno": 1260,
      "Ġinstruc": 1261,
      "Ġtyp": 1262,
      "Ġassess": 1263,
      "Ġkn": 1264,
      "ants": 1265,
      "ards": 1266,
      "Ġfund": 1267,
      "ĠTo": 1268,
      "Ġbu": 1269,
      ".\"": 1270,
      "vironment": 1271,
      "vention": 1272,
      "ision": 1273,
      "Ġ7": 1274,
      "Ġins": 1275,
      "Ġpeople": 1276,
      "cc": 1277,
      "hes": 1278,
      "ics": 1279,
      "Ġbec": 1280,
      "Ġsign": 1281,
      "ful": 1282,
      "Ġav": 1283,
      "old": 1284,
      "ĠSp": 1285,
      "ness": 1286,
      "Ġfocus": 1287,
      "Ġpos": 1288,
      "ination": 1289,
      "Ġmed": 1290,
      "ĠCO": 1291,
      "Ġsm": 1292,
      "ture": 1293,
      "row": 1294,
      "ower": 1295,
      "Ġ9": 1296,
      "orts": 1297,
      "Ġrisk": 1298,
      "ĠState": 1299,
      "Ġgrad": 1300,
      "ired": 1301,
      "ized": 1302,
      "ĠĠčĊ": 1303,
      "Ġparticip": 1304,
      "Ġmon": 1305,
      "Ġexample": 1306,
      "ES": 1307,
      "Ġreport": 1308,
      "ook": 1309,
      "tern": 1310,
      "round": 1311,
      ",\"": 1312,
      "ne": 1313,
      "ĠGu": 1314,
      "ounty": 1315,
      "Ġhis": 1316,
      "Ġvari": 1317,
      "Ġprot": 1318,
      "hip": 1319,
      "Ġhad": 1320,
      "Ġwithin": 1321,
      "gy": 1322,
      "ĠIs": 1323,
      "Ġprograms": 1324,
      "Ġpractice": 1325,
      "Ġwild": 1326,
      "Ġaccording": 1327,
      "ross": 1328,
      "ie": 1329,
      "Ġservices": 1330,
      "artment": 1331,
      "Ġtechn": 1332,
      "ug": 1333,
      "Ġimpro": 1334,
      "Ġcommunity": 1335,
      "Ġonly": 1336,
      "ining": 1337,
      "ms": 1338,
      "Ġke": 1339,
      "ĠPl": 1340,
      "ges": 1341,
      "ved": 1342,
      "ology": 1343,
      "ient": 1344,
      "ving": 1345,
      "Ġes": 1346,
      "io": 1347,
      "Ġday": 1348,
      "ivid": 1349,
      "Ġmeas": 1350,
      "Ġless": 1351,
      "agement": 1352,
      "Ġdesign": 1353,
      "ĠProgram": 1354,
      "Ġnumber": 1355,
      "IV": 1356,
      "Ġfound": 1357,
      "Ġmake": 1358,
      "ason": 1359,
      "iel": 1360,
      "Ġcor": 1361,
      "outh": 1362,
      "Ġthree": 1363,
      "ĠAn": 1364,
      "crib": 1365,
      "Ġfuel": 1366,
      "vent": 1367,
      "Ġair": 1368,
      "Ġpol": 1369,
      "ough": 1370,
      "ath": 1371,
      "ective": 1372,
      "Ġcar": 1373,
      "ibr": 1374,
      "pportun": 1375,
      "Ġguid": 1376,
      "Ġthere": 1377,
      "stand": 1378,
      "Ġvis": 1379,
      "Ġ200": 1380,
      "form": 1381,
      "Ġamong": 1382,
      "ases": 1383,
      "ected": 1384,
      "ha": 1385,
      "br": 1386,
      "Ġlesson": 1387,
      "ield": 1388,
      "life": 1389,
      "opul": 1390,
      "gin": 1391,
      "xas": 1392,
      "Ġdevelopment": 1393,
      "Ġperson": 1394,
      "led": 1395,
      "Ġwell": 1396,
      "Ġaw": 1397,
      "fore": 1398,
      "ienti": 1399,
      "Ġlevel": 1400,
      "Ġdid": 1401,
      "Ġproduc": 1402,
      "ives": 1403,
      "alu": 1404,
      "rol": 1405,
      "urn": 1406,
      "Ġve": 1407,
      "ĠAd": 1408,
      "ode": 1409,
      "rence": 1410,
      "ploy": 1411,
      "abor": 1412,
      "roduc": 1413,
      "Ġorgan": 1414,
      "Ġallow": 1415,
      "Ġdef": 1416,
      "Ġlearn": 1417,
      "Th": 1418,
      "oci": 1419,
      "Ġname": 1420,
      "ier": 1421,
      "Ġeng": 1422,
      "ick": 1423,
      "Ġ8": 1424,
      "Ġopportun": 1425,
      "ade": 1426,
      "Ġlong": 1427,
      "Ġcontin": 1428,
      "rip": 1429,
      "Ġser": 1430,
      "ages": 1431,
      "Ġoffic": 1432,
      "Ġsounds": 1433,
      "ividual": 1434,
      "Ġq": 1435,
      "Ġimport": 1436,
      "Ġtest": 1437,
      "ters": 1438,
      "ize": 1439,
      "Ġmodel": 1440,
      "land": 1441,
      "Ġcr": 1442,
      "Ġshow": 1443,
      "du": 1444,
      "alse": 1445,
      "Ġlar": 1446,
      "ER": 1447,
      "imate": 1448,
      "Ġavail": 1449,
      "ability": 1450,
      "Ġprovided": 1451,
      "ouse": 1452,
      "Ġdirect": 1453,
      "St": 1454,
      "ute": 1455,
      "000": 1456,
      "ĠTexas": 1457,
      "Ġlead": 1458,
      "ty": 1459,
      "atory": 1460,
      "ars": 1461,
      "ergy": 1462,
      "ĠWe": 1463,
      "alif": 1464,
      "ĠRe": 1465,
      "rop": 1466,
      "lection": 1467,
      "agn": 1468,
      "aking": 1469,
      "for": 1470,
      "ocial": 1471,
      "Ġsupp": 1472,
      "Ġpopul": 1473,
      "Ġanal": 1474,
      "ĠNo": 1475,
      "Ġdifferent": 1476,
      "Ġincludes": 1477,
      "Ġquestion": 1478,
      "ĠComm": 1479,
      "Ġche": 1480,
      "ality": 1481,
      "Ġphon": 1482,
      "ix": 1483,
      "Ġidentify": 1484,
      "ise": 1485,
      "ource": 1486,
      "Ġprovides": 1487,
      "Ġphys": 1488,
      "ommend": 1489,
      "ĠGuide": 1490,
      "ave": 1491,
      "ined": 1492,
      "ĠTeacher": 1493,
      "ON": 1494,
      "Ġfac": 1495,
      "Ġrece": 1496,
      "ivers": 1497,
      "Ġindividual": 1498,
      "EN": 1499,
      "Ġlife": 1500,
      "ĠThey": 1501,
      "Ġ10": 1502,
      "Ġmust": 1503,
      "graph": 1504,
      "Ġresources": 1505,
      "Ġfamily": 1506,
      "Ġthose": 1507,
      "Ġoper": 1508,
      "orld": 1509,
      "Ġregul": 1510,
      "ederal": 1511,
      "Ġbefore": 1512,
      "Ġdescrib": 1513,
      "hod": 1514,
      "ck": 1515,
      "up": 1516,
      "ution": 1517,
      "Ġwould": 1518,
      "ĠLe": 1519,
      "ID": 1520,
      "Ġ18": 1521,
      "sts": 1522,
      "ument": 1523,
      "âĢĵ": 1524,
      "Ġmention": 1525,
      "ird": 1526,
      "Ġcond": 1527,
      "IS": 1528,
      "ĠDep": 1529,
      "fety": 1530,
      "Ġmil": 1531,
      "ull": 1532,
      "Ġwhile": 1533,
      "ĠStates": 1534,
      "cer": 1535,
      "ock": 1536,
      "Ġhist": 1537,
      "19": 1538,
      "ological": 1539,
      "Ġactivity": 1540,
      "earch": 1541,
      "Ġscienti": 1542,
      "Ġrecommend": 1543,
      "omes": 1544,
      "Ġext": 1545,
      "Ġmentioned": 1546,
      "Ġdoc": 1547,
      "Ġenvironment": 1548,
      "ization": 1549,
      "pos": 1550,
      "ather": 1551,
      "Ġgoal": 1552,
      "Ġcap": 1553,
      "ateg": 1554,
      "uth": 1555,
      "Ġavailable": 1556,
      "Ġben": 1557,
      "Ġaddition": 1558,
      "ever": 1559,
      "ĠAr": 1560,
      "Ġunderstand": 1561,
      "Ġset": 1562,
      "Ġdise": 1563,
      "ĠHIV": 1564,
      "osp": 1565,
      "allen": 1566,
      "ential": 1567,
      "Ġbuild": 1568,
      "itions": 1569,
      "ĠSc": 1570,
      "AT": 1571,
      "ison": 1572,
      "ĠServic": 1573,
      "itor": 1574,
      "duce": 1575,
      "istr": 1576,
      "ically": 1577,
      "Ġrequired": 1578,
      "Ġinstruction": 1579,
      "Ġdel": 1580,
      "ĠHealth": 1581,
      "iss": 1582,
      "Ġdet": 1583,
      "Ġfact": 1584,
      "Ġget": 1585,
      "Ġcall": 1586,
      "emic": 1587,
      "Ġmem": 1588,
      "Ġmethod": 1589,
      "iting": 1590,
      "Ġfind": 1591,
      "Ġteam": 1592,
      "port": 1593,
      "Ġspecies": 1594,
      "ling": 1595,
      "par": 1596,
      "Ġdeter": 1597,
      "ĠCl": 1598,
      "Ġcurrent": 1599,
      "Ġ/": 1600,
      "Ġ=": 1601,
      "Ġ$": 1602,
      "Ġbased": 1603,
      "Ġrespons": 1604,
      "ex": 1605,
      "Ġsim": 1606,
      "Ġec": 1607,
      "ĠWild": 1608,
      "abit": 1609,
      "Ġaccess": 1610,
      "Ġimprove": 1611,
      "Ġconduc": 1612,
      "Ġenc": 1613,
      "arm": 1614,
      "ĠCol": 1615,
      "Ġanim": 1616,
      "ĠPh": 1617,
      "Ġend": 1618,
      "ĠDepartment": 1619,
      "Ġvir": 1620,
      "Ġens": 1621,
      "Ġlearning": 1622,
      "ĠUnited": 1623,
      "Ġlocal": 1624,
      "Ġsam": 1625,
      "Ġcould": 1626,
      "aff": 1627,
      "Ġaddress": 1628,
      "Ġcer": 1629,
      "Ġelect": 1630,
      "Ġarea": 1631,
      "Ġeducation": 1632,
      "overn": 1633,
      "Ġboth": 1634,
      "RE": 1635,
      "Ġtem": 1636,
      "istic": 1637,
      "resent": 1638,
      "illion": 1639,
      "Ġrequire": 1640,
      "ink": 1641,
      "ĠCounty": 1642,
      "orth": 1643,
      "Ġfore": 1644,
      "ĠAs": 1645,
      "ties": 1646,
      "Ġfire": 1647,
      "ators": 1648,
      "Ġknow": 1649,
      "Ġsmall": 1650,
      "Ġpa": 1651,
      "atural": 1652,
      "Ġproject": 1653,
      "plement": 1654,
      "ek": 1655,
      "Ġatt": 1656,
      "Ġfun": 1657,
      "Ġfood": 1658,
      "Ġacross": 1659,
      "ĠAmerican": 1660,
      "This": 1661,
      "Ġimportant": 1662,
      "ograph": 1663,
      "aliforn": 1664,
      "IN": 1665,
      "abitat": 1666,
      "wn": 1667,
      "inal": 1668,
      "ator": 1669,
      "ilities": 1670,
      "Ġchallen": 1671,
      "havi": 1672,
      "Ġbegin": 1673,
      "Ġstruc": 1674,
      "Ġsignific": 1675,
      "ĠSe": 1676,
      "ĠPark": 1677,
      "uman": 1678,
      "Ġspecific": 1679,
      "Ġadults": 1680,
      "ASA": 1681,
      "Ġiniti": 1682,
      "akes": 1683,
      "ared": 1684,
      "ank": 1685,
      "ident": 1686,
      "alifornia": 1687,
      "ves": 1688,
      "ĠTrue": 1689,
      "ital": 1690,
      "Ġbeing": 1691,
      "Ġhig": 1692,
      "oint": 1693,
      ".âĢĿ": 1694,
      "ript": 1695,
      "Ġgr": 1696,
      "ĠThese": 1697,
      "Ġter": 1698,
      "Ġocc": 1699,
      "jects": 1700,
      "Ġadv": 1701,
      "lu": 1702,
      "pec": 1703,
      "Ġpri": 1704,
      "Ġproper": 1705,
      ":**": 1706,
      "Ġcam": 1707,
      "ium": 1708,
      "Ġcost": 1709,
      "ists": 1710,
      "vey": 1711,
      "Ġstep": 1712,
      "Ġoff": 1713,
      "Ġbel": 1714,
      "Ġlist": 1715,
      "ĠRiver": 1716,
      "ĠStud": 1717,
      "Ġvaccine": 1718,
      "line": 1719,
      "reen": 1720,
      "Ġland": 1721,
      "ession": 1722,
      "Ġreview": 1723,
      "Ġlaw": 1724,
      "ĠCenter": 1725,
      "Ġstart": 1726,
      "Ġtreat": 1727,
      "Ġpot": 1728,
      "Ġway": 1729,
      "ets": 1730,
      "Ġconn": 1731,
      "iving": 1732,
      "based": 1733,
      "Ġbr": 1734,
      "ĠCalifornia": 1735,
      "Ġgrade": 1736,
      "val": 1737,
      "Ġthen": 1738,
      "Ġfish": 1739,
      "ences": 1740,
      "isc": 1741,
      "ression": 1742,
      "Ġchar": 1743,
      "Ġopportunities": 1744,
      "ner": 1745,
      "ished": 1746,
      "Ġclass": 1747,
      "ĠFalse": 1748,
      "ibrary": 1749,
      "serv": 1750,
      "idence": 1751,
      "Ġtraining": 1752,
      "Ġstand": 1753,
      "uthor": 1754,
      "Wh": 1755,
      "Ġdri": 1756,
      "ĠInd": 1757,
      ",âĢĿ": 1758,
      "Ġareas": 1759,
      "Ġhome": 1760,
      "read": 1761,
      "raft": 1762,
      "Ġproble": 1763,
      "Ġimplement": 1764,
      "Ġemploy": 1765,
      "gency": 1766,
      "Ġback": 1767,
      "Ġvi": 1768,
      "Ġcommon": 1769,
      "rict": 1770,
      "Ġsafety": 1771,
      "ĠMich": 1772,
      "ires": 1773,
      "the": 1774,
      "Ġwal": 1775,
      "Ġfunding": 1776,
      "ins": 1777,
      "ash": 1778,
      "Ġconf": 1779,
      "Ġpresent": 1780,
      "Ġdisease": 1781,
      "ĠTH": 1782,
      "Ġintroduc": 1783,
      "Ġevalu": 1784,
      "Ġkey": 1785,
      "Ġchange": 1786,
      "cher": 1787,
      "ular": 1788,
      "10": 1789,
      "Ġtake": 1790,
      "tle": 1791,
      "Ġest": 1792,
      "Ġprevent": 1793,
      "bers": 1794,
      "Ġsol": 1795,
      "Ġphysical": 1796,
      "to": 1797,
      "Ġearly": 1798,
      "ody": 1799,
      "Ġtool": 1800,
      "Ġbehavi": 1801,
      "Ġmanagement": 1802,
      "nel": 1803,
      "Ġregion": 1804,
      "rest": 1805,
      "por": 1806,
      "Ġsignificant": 1807,
      "tal": 1808,
      "uture": 1809,
      "ĠUS": 1810,
      "Ġindic": 1811,
      "Ġdr": 1812,
      "Ġstat": 1813,
      "igan": 1814,
      "Ġperform": 1815,
      "Ġinvol": 1816,
      "ĠAl": 1817,
      "Ġcontrol": 1818,
      "Ġevent": 1819,
      "Ġsocial": 1820,
      "ale": 1821,
      "air": 1822,
      "Ġsee": 1823,
      "Ġplace": 1824,
      "Ġsaid": 1825,
      "Ġtype": 1826,
      "uary": 1827,
      "atch": 1828,
      "ED": 1829,
      "Ġret": 1830,
      "Ġbenef": 1831,
      "ST": 1832,
      "Ġaff": 1833,
      "ĠTra": 1834,
      "ains": 1835,
      "Ġlessons": 1836,
      "use": 1837,
      "Ġlow": 1838,
      "ĠIf": 1839,
      "FK": 1840,
      "inc": 1841,
      "Ġrele": 1842,
      "Ġwr": 1843,
      "Ġsent": 1844,
      "Ġevery": 1845,
      "Ġchang": 1846,
      "Ġbi": 1847,
      "oms": 1848,
      "ION": 1849,
      "Ġcle": 1850,
      "ulti": 1851,
      "der": 1852,
      "ĠSchool": 1853,
      "Ġplay": 1854,
      "onom": 1855,
      "Ġcount": 1856,
      "Ġassoci": 1857,
      "areness": 1858,
      "ĠMichigan": 1859,
      "EL": 1860,
      "Lesson": 1861,
      "Ġage": 1862,
      "Ġnear": 1863,
      "Ġstaff": 1864,
      "ope": 1865,
      "Ġleg": 1866,
      "Ġenergy": 1867,
      "Ġtotal": 1868,
      "Ġhabitat": 1869,
      "omen": 1870,
      "yc": 1871,
      "Ġtre": 1872,
      "Ġdem": 1873,
      "Ġdown": 1874,
      "ĠMar": 1875,
      "arents": 1876,
      "ĠLevel": 1877,
      "ystem": 1878,
      "Ġher": 1879,
      "Ġmeans": 1880,
      "Ġsection": 1881,
      "Ġcreate": 1882,
      "Ġposs": 1883,
      "Ġmeasure": 1884,
      "Ġfederal": 1885,
      "Ġsecond": 1886,
      "ps": 1887,
      "Ġgrow": 1888,
      "Ġguide": 1889,
      "angu": 1890,
      "ĠYes": 1891,
      "Ġrelated": 1892,
      "gest": 1893,
      "und": 1894,
      "reg": 1895,
      "ote": 1896,
      "Ġreading": 1897,
      "til": 1898,
      "itive": 1899,
      "Ġsyll": 1900,
      "me": 1901,
      "Ġ{": 1902,
      "Ġsame": 1903,
      "other": 1904,
      "Ġcorre": 1905,
      "Ġcomb": 1906,
      "ples": 1907,
      "Ġscript": 1908,
      "pr": 1909,
      "Ġequ": 1910,
      "Ġ&": 1911,
      "Ġbecause": 1912,
      "Ġel": 1913,
      "ids": 1914,
      "ĠNASA": 1915,
      "ĠBo": 1916,
      "Ġcommunities": 1917,
      "Ġmedical": 1918,
      "Ġprom": 1919,
      "gress": 1920,
      "Ġ30": 1921,
      "cept": 1922,
      "vious": 1923,
      "Ġteachers": 1924,
      "Ġconditions": 1925,
      "Ġtemper": 1926,
      "ton": 1927,
      "ĠLesson": 1928,
      "ward": 1929,
      "Ġfield": 1930,
      "Ġnatural": 1931,
      "Ġann": 1932,
      "50": 1933,
      "day": 1934,
      "Ġpractic": 1935,
      "Ġown": 1936,
      "ĠAss": 1937,
      "ables": 1938,
      "Ġrepresent": 1939,
      "||": 1940,
      "Ġmade": 1941,
      "Ġvol": 1942,
      "aj": 1943,
      "Ġtop": 1944,
      "Ġ12": 1945,
      "Ġdiscus": 1946,
      "face": 1947,
      "oh": 1948,
      "Ġoccur": 1949,
      "acy": 1950,
      "ministr": 1951,
      "Ġestim": 1952,
      "reak": 1953,
      "iter": 1954,
      "Ġiss": 1955,
      "sel": 1956,
      "ĠWhen": 1957,
      "Ġstates": 1958,
      "Ġquestions": 1959,
      "Ġauthor": 1960,
      "Ġfuture": 1961,
      "icro": 1962,
      "ley": 1963,
      "Ġref": 1964,
      "ĠPre": 1965,
      "ths": 1966,
      "Ġ199": 1967,
      "abl": 1968,
      "ND": 1969,
      "Ġer": 1970,
      "ember": 1971,
      "augh": 1972,
      "Ġobserv": 1973,
      "Ġopen": 1974,
      "anguage": 1975,
      "ered": 1976,
      "med": 1977,
      "ron": 1978,
      "Ġfour": 1979,
      "imum": 1980,
      "ĠEx": 1981,
      "ored": 1982,
      "AR": 1983,
      "oad": 1984,
      "Ġold": 1985,
      "Ġlarge": 1986,
      "acter": 1987,
      "Ġsug": 1988,
      "Ġimpact": 1989,
      "Ġincrease": 1990,
      "ites": 1991,
      "Ġsuc": 1992,
      "Ġsum": 1993,
      "Ġmission": 1994,
      "Ġisol": 1995,
      "Ġval": 1996,
      "mit": 1997,
      "ĠQ": 1998,
      "Ġcent": 1999,
      "ental": 2000,
      "ĠCom": 2001,
      "Ġrate": 2002,
      "OR": 2003,
      ".,": 2004,
      "ĠNew": 2005,
      "Ġresult": 2006,
      "Ġseg": 2007,
      "sh": 2008,
      "Ġreduc": 2009,
      "Ġgl": 2010,
      "ĠOff": 2011,
      "iqu": 2012,
      "arth": 2013,
      "Ġschools": 2014,
      "atic": 2015,
      "Ġcour": 2016,
      "Ġworld": 2017,
      "roll": 2018,
      "Ġinte": 2019,
      "Ġprotect": 2020,
      "ext": 2021,
      "ners": 2022,
      "any": 2023,
      "utes": 2024,
      "Ġcontrib": 2025,
      "Ġ2024": 2026,
      "ĠResearch": 2027,
      "Ġemer": 2028,
      "Ġnon": 2029,
      "ually": 2030,
      "iversity": 2031,
      "Ġpotential": 2032,
      "Ġpass": 2033,
      "Ġlim": 2034,
      "Ġdecod": 2035,
      "Ġmo": 2036,
      "Ġbas": 2037,
      "force": 2038,
      "21": 2039,
      "Ġbody": 2040,
      "rap": 2041,
      "ounds": 2042,
      "Ġincluded": 2043,
      "Ġworking": 2044,
      "Ġletters": 2045,
      "aus": 2046,
      "Ġ0": 2047,
      "Ġanswer": 2048,
      "Ġimage": 2049,
      "Ġplant": 2050,
      "Ġassist": 2051,
      "Ġstructure": 2052,
      "int": 2053,
      "âĢľ": 2054,
      "Ġguidance": 2055,
      "ict": 2056,
      "cep": 2057,
      "ĠJFK": 2058,
      "Ġsafe": 2059,
      "Ġadditional": 2060,
      "Ġmillion": 2061,
      "Ġfamilies": 2062,
      "Ġtreatment": 2063,
      "ogn": 2064,
      "Ġpercentage": 2065,
      "bon": 2066,
      "Ġhour": 2067,
      "Ġanalys": 2068,
      "ĠST": 2069,
      "Ġalong": 2070,
      "encies": 2071,
      "Ġmeet": 2072,
      "way": 2073,
      "eng": 2074,
      "Ġmulti": 2075,
      "ily": 2076,
      "Ġsym": 2077,
      "ĠTHE": 2078,
      "ah": 2079,
      "ced": 2080,
      "work": 2081,
      "ories": 2082,
      "Ġhuman": 2083,
      "ĠWho": 2084,
      "Ġbehavior": 2085,
      "Ġhistory": 2086,
      "Ġ11": 2087,
      "osed": 2088,
      "IC": 2089,
      "icit": 2090,
      "ĠWildlife": 2091,
      "ots": 2092,
      "Ġcoll": 2093,
      "Ġreason": 2094,
      "Ġscience": 2095,
      "Ġrole": 2096,
      "Ġneeds": 2097,
      "Ġlevels": 2098,
      "Ġwalking": 2099,
      "tig": 2100,
      "Ġstrateg": 2101,
      "aught": 2102,
      "lec": 2103,
      "ĠCon": 2104,
      "Ġdocument": 2105,
      "iod": 2106,
      "Ġprevious": 2107,
      "Ġservice": 2108,
      "Ġensure": 2109,
      "here": 2110,
      "atures": 2111,
      "Ġprof": 2112,
      "Ġhigher": 2113,
      "Ġaround": 2114,
      "ense": 2115,
      "tific": 2116,
      "Ġleast": 2117,
      "ricts": 2118,
      "Ġvirus": 2119,
      "atives": 2120,
      "irc": 2121,
      "tical": 2122,
      "aging": 2123,
      "Ġlight": 2124,
      "Ġapproach": 2125,
      "Ġcover": 2126,
      "ĠWar": 2127,
      "Ġrest": 2128,
      "une": 2129,
      "Ġawareness": 2130,
      "now": 2131,
      "iven": 2132,
      "ĠâĢĵ": 2133,
      "ĠChild": 2134,
      "\",": 2135,
      "AL": 2136,
      "light": 2137,
      "Ġparents": 2138,
      "ĠVeter": 2139,
      "IT": 2140,
      "ider": 2141,
      "hern": 2142,
      "ights": 2143,
      "ĠPlan": 2144,
      "erc": 2145,
      "aches": 2146,
      "24": 2147,
      "30": 2148,
      "VID": 2149,
      "ging": 2150,
      "ils": 2151,
      "ĠPar": 2152,
      "ĠBl": 2153,
      "Ġvisit": 2154,
      "Ġmove": 2155,
      "Ġspecial": 2156,
      "Ġcomplete": 2157,
      "Ġdescribed": 2158,
      "Ġnational": 2159,
      "ĠFA": 2160,
      "Ġcompon": 2161,
      "cap": 2162,
      "ral": 2163,
      "Ġshe": 2164,
      "Ġpost": 2165,
      "Ġlower": 2166,
      "ĠDist": 2167,
      "Ch": 2168,
      "app": 2169,
      "Ġwomen": 2170,
      "ĠDe": 2171,
      "man": 2172,
      "oura": 2173,
      "elf": 2174,
      "Ġrover": 2175,
      "Ġcollect": 2176,
      "ype": 2177,
      "ledge": 2178,
      "Ġassociated": 2179,
      "gen": 2180,
      "Ġserv": 2181,
      "Ġmicro": 2182,
      "Ġproviding": 2183,
      "Ġcalled": 2184,
      "Ġsuccess": 2185,
      "do": 2186,
      "Ġsens": 2187,
      "Ġcoun": 2188,
      "ived": 2189,
      "Ġdecision": 2190,
      "Ġmiles": 2191,
      "esc": 2192,
      "âĢĶ": 2193,
      "ĠEduc": 2194,
      "Ġyouth": 2195,
      "Ġestabl": 2196,
      "enn": 2197,
      "Ġprojects": 2198,
      "ending": 2199,
      "Ġperiod": 2200,
      "Ġparticipants": 2201,
      "ways": 2202,
      "Ġcaus": 2203,
      "Ġoften": 2204,
      "Ġreduce": 2205,
      "ĠAt": 2206,
      "Ġrecord": 2207,
      "Ġsystems": 2208,
      "Ġeffective": 2209,
      "Ġplants": 2210,
      "mon": 2211,
      "Ġvery": 2212,
      "Ġfive": 2213,
      "Ġwithout": 2214,
      "Ġ15": 2215,
      "Ġweek": 2216,
      "Ġexplicit": 2217,
      "ince": 2218,
      "ane": 2219,
      "ently": 2220,
      "ĠDr": 2221,
      "Ġagain": 2222,
      "Ġquality": 2223,
      "Ġpopulation": 2224,
      "ients": 2225,
      "ring": 2226,
      "ĠIN": 2227,
      "Ġapplic": 2228,
      "aces": 2229,
      "Ġflu": 2230,
      "Ġcomplex": 2231,
      "Ġindividuals": 2232,
      "Ġprior": 2233,
      "25": 2234,
      "ger": 2235,
      "Ġver": 2236,
      "ication": 2237,
      "asing": 2238,
      "Ġdeath": 2239,
      "ĠGen": 2240,
      "Ġsever": 2241,
      "OP": 2242,
      "Ġill": 2243,
      "Ġdue": 2244,
      "Ġmat": 2245,
      "ĠCons": 2246,
      "Ġgovern": 2247,
      "overy": 2248,
      "Ġreported": 2249,
      "ĠService": 2250,
      "Ġstrategies": 2251,
      "lor": 2252,
      "less": 2253,
      "pro": 2254,
      "ĠAct": 2255,
      "Ġ24": 2256,
      "Ġteach": 2257,
      "ended": 2258,
      "Ġtaught": 2259,
      "arri": 2260,
      "Ġorder": 2261,
      "ĠMon": 2262,
      "Ġinflu": 2263,
      "requ": 2264,
      "Ġpower": 2265,
      "Ġground": 2266,
      "DC": 2267,
      "gl": 2268,
      "inated": 2269,
      "erve": 2270,
      "ĠSh": 2271,
      "ĠCont": 2272,
      "Ġassessment": 2273,
      "lated": 2274,
      "Ġcause": 2275,
      "ĠBe": 2276,
      "Ġsequ": 2277,
      "Ġtrust": 2278,
      "Ġnext": 2279,
      "ulture": 2280,
      "Ġchem": 2281,
      "Ġunderstanding": 2282,
      "ris": 2283,
      "Ġfree": 2284,
      "Ġoffer": 2285,
      "ĠSens": 2286,
      "ĠSouth": 2287,
      "Ġresponsible": 2288,
      "chers": 2289,
      "Ġinterest": 2290,
      "care": 2291,
      "Ġmaking": 2292,
      "Ġright": 2293,
      "stract": 2294,
      "rade": 2295,
      "Ġtransport": 2296,
      "Ġgroups": 2297,
      "ĠCOVID": 2298,
      "yd": 2299,
      "alax": 2300,
      "Ġdays": 2301,
      "omet": 2302,
      "Ġstre": 2303,
      "riate": 2304,
      "oss": 2305,
      "ajor": 2306,
      "},": 2307,
      "Ġprogress": 2308,
      "urity": 2309,
      "ervation": 2310,
      "Ġexperience": 2311,
      "Ġwildlife": 2312,
      "Ġdesigned": 2313,
      "Ġtesting": 2314,
      "ques": 2315,
      "ĠIm": 2316,
      "ĠEL": 2317,
      "Ġmonitor": 2318,
      "Ġbest": 2319,
      "ĠHowever": 2320,
      "Ġsurface": 2321,
      "ĠScience": 2322,
      "ism": 2323,
      "utri": 2324,
      "AS": 2325,
      "Ġeven": 2326,
      "Ġfactors": 2327,
      "Ġbird": 2328,
      "chie": 2329,
      "Ġvaccination": 2330,
      "itary": 2331,
      "ĠThere": 2332,
      "Ġhaz": 2333,
      "Ġsurvey": 2334,
      "Ġdistricts": 2335,
      "mosp": 2336,
      "Ġaccount": 2337,
      "Ġcolor": 2338,
      "Ġ2025": 2339,
      "Ġvarious": 2340,
      "Ġsympt": 2341,
      "__": 2342,
      "iness": 2343,
      "Ġagencies": 2344,
      "Ġjust": 2345,
      "Ġsample": 2346,
      "12": 2347,
      "ler": 2348,
      "Ġinterac": 2349,
      "Ġsay": 2350,
      "Ġexperi": 2351,
      "Ġcontinu": 2352,
      "Ġpossible": 2353,
      "ask": 2354,
      "Ġla": 2355,
      "ĠCV": 2356,
      "ĠVA": 2357,
      "Ġthroughout": 2358,
      "Ġefforts": 2359,
      "ying": 2360,
      "tional": 2361,
      "Ġstudies": 2362,
      "Ġbook": 2363,
      "Ġbetter": 2364,
      "Ġfeed": 2365,
      "hold": 2366,
      "ides": 2367,
      "Ġgreat": 2368,
      "ĠAc": 2369,
      "ĠAre": 2370,
      "irth": 2371,
      "Ġdiagn": 2372,
      "aboratory": 2373,
      "oid": 2374,
      "Ġoutc": 2375,
      "....": 2376,
      "Ġknowledge": 2377,
      "AC": 2378,
      "Ġcases": 2379,
      "Ġspace": 2380,
      "Ġincreased": 2381,
      "Ġproperty": 2382,
      "ĠEducation": 2383,
      "back": 2384,
      "etic": 2385,
      "inter": 2386,
      "ames": 2387,
      "ference": 2388,
      "Ġcarbon": 2389,
      "ee": 2390,
      "ĠSu": 2391,
      "Ġ16": 2392,
      "Ġresults": 2393,
      "ivil": 2394,
      "Ġgeneral": 2395,
      "Ġlikely": 2396,
      "Ġknown": 2397,
      "Ġhours": 2398,
      "Ġseveral": 2399,
      "sy": 2400,
      "unity": 2401,
      "ĠInf": 2402,
      "Ġpark": 2403,
      "Ġagency": 2404,
      "cl": 2405,
      "till": 2406,
      "Ġmajor": 2407,
      "Ġweb": 2408,
      "Ġintervention": 2409,
      "ĠAir": 2410,
      "Ġneeded": 2411,
      "Ġgener": 2412,
      "Ġremain": 2413,
      "Ġwildf": 2414,
      "Ġenvironmental": 2415,
      "Ġconducted": 2416,
      "Ġsteps": 2417,
      "fric": 2418,
      "ious": 2419,
      "Ġachie": 2420,
      "Ġele": 2421,
      "Ġgiven": 2422,
      "Ġ14": 2423,
      "Ġcrew": 2424,
      "Ġseries": 2425,
      "TS": 2426,
      "Ġwant": 2427,
      "Ġbro": 2428,
      "idents": 2429,
      "Ġlands": 2430,
      "ury": 2431,
      "ĠReg": 2432,
      "Ġscientists": 2433,
      "ique": 2434,
      "ustr": 2435,
      "Ġsal": 2436,
      "Ġlanguage": 2437,
      "ime": 2438,
      "Ġyoun": 2439,
      "ĠNorth": 2440,
      "Ġlocated": 2441,
      "Ġengine": 2442,
      "Ġreceive": 2443,
      "Ġrecommended": 2444,
      "Ġlast": 2445,
      "ĠCity": 2446,
      "ĠWork": 2447,
      "Ġevidence": 2448,
      "Ġemergency": 2449,
      "ming": 2450,
      "mine": 2451,
      "Ġpress": 2452,
      "Ġgas": 2453,
      "overed": 2454,
      "ĠOffice": 2455,
      "Ġtoget": 2456,
      "Ġnec": 2457,
      "Ġgame": 2458,
      "ĠMan": 2459,
      "Ġcontact": 2460,
      "Ġprevention": 2461,
      "ĠSensible": 2462,
      "Ġtogether": 2463,
      "ox": 2464,
      "Ġz": 2465,
      "vers": 2466,
      "verage": 2467,
      "Ġquan": 2468,
      "oud": 2469,
      "ĠRec": 2470,
      "ially": 2471,
      "ibility": 2472,
      "Ġclimate": 2473,
      "elling": 2474,
      "Ġpolic": 2475,
      "Ġsl": 2476,
      "Ġgra": 2477,
      "umb": 2478,
      "Ġenh": 2479,
      "Ġdiscuss": 2480,
      "nal": 2481,
      "uts": 2482,
      "Ġlibrary": 2483,
      "Ġpartners": 2484,
      "Ġdetermin": 2485,
      "Ġbelow": 2486,
      "14": 2487,
      "EC": 2488,
      "Ġbra": 2489,
      "ilar": 2490,
      "Ġheat": 2491,
      "Ġguard": 2492,
      "Ġanimals": 2493,
      "onstr": 2494,
      "Ġpred": 2495,
      "acts": 2496,
      "Ġnull": 2497,
      "idered": 2498,
      "epend": 2499,
      "Ġtimes": 2500,
      "15": 2501,
      "Ġtax": 2502,
      "Ġcat": 2503,
      "Ġcal": 2504,
      "cean": 2505,
      "Ġ17": 2506,
      "Ġphot": 2507,
      "tity": 2508,
      "Ġidentified": 2509,
      "Ġchanges": 2510,
      "18": 2511,
      "ximate": 2512,
      "ĠOn": 2513,
      "Ġinteg": 2514,
      "ĠServices": 2515,
      "Ġchallenges": 2516,
      "Ġrun": 2517,
      "Ġsepar": 2518,
      "Ġcontain": 2519,
      "EM": 2520,
      "lease": 2521,
      "Ġreal": 2522,
      "Ġlook": 2523,
      "Ġexist": 2524,
      "ffic": 2525,
      "Ġconsidered": 2526,
      "Ġrespond": 2527,
      "Ġrequirements": 2528,
      "ĠDistrict": 2529,
      "of": 2530,
      "ret": 2531,
      "Ġgalax": 2532,
      "ormal": 2533,
      "Ġdetermine": 2534,
      "sp": 2535,
      "vis": 2536,
      "Ġmuch": 2537,
      "Ġeas": 2538,
      "ĠOF": 2539,
      "Ġresearchers": 2540,
      "Ġcharacter": 2541,
      "Ġcollabor": 2542,
      "ract": 2543,
      "ĠSounds": 2544,
      "Ġstar": 2545,
      "ĠBy": 2546,
      "ubble": 2547,
      "Ġtrack": 2548,
      "Ġregard": 2549,
      "Ġamount": 2550,
      "Ġkeep": 2551,
      "FSA": 2552,
      "water": 2553,
      "Ġsing": 2554,
      "Ġmid": 2555,
      "idge": 2556,
      "ecu": 2557,
      "ately": 2558,
      "Ġ100": 2559,
      "Ġvide": 2560,
      "Ġ25": 2561,
      "Ġmembers": 2562,
      "craft": 2563,
      "ĠAfric": 2564,
      "ationship": 2565,
      "Ġtypes": 2566,
      "Ġvariety": 2567,
      "Ġaircraft": 2568,
      "ING": 2569,
      "As": 2570,
      "eed": 2571,
      "sc": 2572,
      "tif": 2573,
      "isl": 2574,
      "Ġbus": 2575,
      "lege": 2576,
      "Ġnow": 2577,
      "owel": 2578,
      "Ġact": 2579,
      "ume": 2580,
      "ĠGe": 2581,
      "ubl": 2582,
      "Ġtravel": 2583,
      "Ġinves": 2584,
      "Pro": 2585,
      "RO": 2586,
      "related": 2587,
      "ĠCo": 2588,
      "Ġconcer": 2589,
      "ĠDec": 2590,
      "Ġproviders": 2591,
      "ministration": 2592,
      "ma": 2593,
      "alf": 2594,
      "rences": 2595,
      "ĠEarth": 2596,
      "Ġatmosp": 2597,
      "izing": 2598,
      "Ġdeveloped": 2599,
      "Ġjob": 2600,
      "ĠEnvironment": 2601,
      "Ġproblems": 2602,
      "Ġview": 2603,
      "Ġinvestig": 2604,
      "Re": 2605,
      "We": 2606,
      "year": 2607,
      "Ġmagn": 2608,
      "oming": 2609,
      "ĠAll": 2610,
      "Ġsymptoms": 2611,
      "ests": 2612,
      "Ġinst": 2613,
      "ances": 2614,
      "Ġtechnology": 2615,
      "ĠFAFSA": 2616,
      "wide": 2617,
      "Ġinj": 2618,
      "raw": 2619,
      "roup": 2620,
      "Ġsyllables": 2621,
      "Ġcorrect": 2622,
      "Ġhand": 2623,
      "Ġanother": 2624,
      "struction": 2625,
      "Ġanimal": 2626,
      "Ġfunction": 2627,
      "ĠStudents": 2628,
      "EP": 2629,
      "mission": 2630,
      "onse": 2631,
      "Ġsite": 2632,
      "Ġsource": 2633,
      "annel": 2634,
      "ectiv": 2635,
      "abet": 2636,
      "aries": 2637,
      "Ġbur": 2638,
      "aster": 2639,
      "Ġshort": 2640,
      "ĠJoh": 2641,
      "Ġrecogn": 2642,
      "ĠVeterans": 2643,
      "Ġmight": 2644,
      "ĠCan": 2645,
      "ĠYou": 2646,
      "Ġ40": 2647,
      "Ġexpand": 2648,
      "time": 2649,
      "ĠTrans": 2650,
      "ĠSpace": 2651,
      "ĠRead": 2652,
      "Ġanalysis": 2653,
      "17": 2654,
      "uge": 2655,
      "ĠSec": 2656,
      "ĠHist": 2657,
      "Ġflight": 2658,
      "Ġexpos": 2659,
      "Ġpopulations": 2660,
      "Ġtools": 2661,
      "Ġep": 2662,
      "Ġnutri": 2663,
      "Ġge": 2664,
      "ĠAcc": 2665,
      "Ġscientific": 2666,
      "AP": 2667,
      "ering": 2668,
      "Ġdig": 2669,
      "Ġhapp": 2670,
      "Ġanaly": 2671,
      "Ġcosts": 2672,
      "What": 2673,
      "An": 2674,
      "rehe": 2675,
      "Ġhouse": 2676,
      "ified": 2677,
      "ĠBut": 2678,
      "Ġrange": 2679,
      "Ġadj": 2680,
      "ĠInc": 2681,
      "izations": 2682,
      "Ġneg": 2683,
      "Ġsimilar": 2684,
      "Ġdrug": 2685,
      "ule": 2686,
      "Ġsize": 2687,
      "Ġmy": 2688,
      "Ġmus": 2689,
      "ĠInter": 2690,
      "Ġothers": 2691,
      "Ġprofession": 2692,
      "22": 2693,
      "book": 2694,
      "...": 2695,
      "Ġdiet": 2696,
      "Ġcamp": 2697,
      "Ġtemperature": 2698,
      "AN": 2699,
      "ele": 2700,
      "za": 2701,
      "Ġrad": 2702,
      "oration": 2703,
      "ĠChe": 2704,
      "ram": 2705,
      "Ġclient": 2706,
      "Ġphonics": 2707,
      "ashing": 2708,
      "Ġdemonstr": 2709,
      "Ġnecess": 2710,
      "bo": 2711,
      "Ġcenter": 2712,
      "aring": 2713,
      "Ġ2023": 2714,
      "Ġcheck": 2715,
      "Ġisolation": 2716,
      "iles": 2717,
      "ump": 2718,
      "ĠLear": 2719,
      "itiz": 2720,
      "aged": 2721,
      "ĠJan": 2722,
      "Ġ198": 2723,
      "Ġstandards": 2724,
      "rehens": 2725,
      "ged": 2726,
      "hood": 2727,
      "Ġstill": 2728,
      "Ġcounty": 2729,
      "Ġcyc": 2730,
      "Ġhard": 2731,
      "Ġenti": 2732,
      "Ġresource": 2733,
      "aken": 2734,
      "Ġmaintain": 2735,
      "Ġcontinue": 2736,
      "Ġparent": 2737,
      "60": 2738,
      "uly": 2739,
      "yl": 2740,
      "aters": 2741,
      "Ġpractices": 2742,
      "Ġchemical": 2743,
      "Ġcity": 2744,
      "Ġwind": 2745,
      "ĠFore": 2746,
      "iverse": 2747,
      "istics": 2748,
      "ĠAssess": 2749,
      "Ġyoung": 2750,
      "by": 2751,
      "Ġmag": 2752,
      "Ġabove": 2753,
      "Ġrelationship": 2754,
      "Ġpersons": 2755,
      "23": 2756,
      "rac": 2757,
      "Ġcop": 2758,
      "Ġhaving": 2759,
      "aps": 2760,
      "aily": 2761,
      "Ġcollection": 2762,
      "Ġintegr": 2763,
      "ats": 2764,
      "Ġfin": 2765,
      "ĠAND": 2766,
      "Ġscreen": 2767,
      "Ġuntil": 2768,
      "Ġassessments": 2769,
      "Ġmethods": 2770,
      "Ġforest": 2771,
      "Ġagainst": 2772,
      "pat": 2773,
      "Ġwar": 2774,
      "arget": 2775,
      "Ġpropos": 2776,
      "Ġgoals": 2777,
      "Ġbenefits": 2778,
      "Ġelection": 2779,
      "Ġliving": 2780,
      "ĠHubble": 2781,
      "ultural": 2782,
      "ĠUniversity": 2783,
      "Ġfunds": 2784,
      "Ġdetail": 2785,
      "Ġencoura": 2786,
      "OL": 2787,
      "Ġself": 2788,
      "Ġprote": 2789,
      "ĠPer": 2790,
      "Ġchannel": 2791,
      "Ġselect": 2792,
      "oved": 2793,
      "Ġobj": 2794,
      "\"?": 2795,
      "IL": 2796,
      "ior": 2797,
      "Ġcirc": 2798,
      "asc": 2799,
      "ĠBu": 2800,
      "Ġshall": 2801,
      "Ġevents": 2802,
      "Ġbecome": 2803,
      "Ġofficial": 2804,
      "ecutive": 2805,
      "ashington": 2806,
      "orpor": 2807,
      "Ġcase": 2808,
      "igns": 2809,
      "ĠHigh": 2810,
      "ĠRep": 2811,
      "ancy": 2812,
      "Ġsegment": 2813,
      "Ġguardian": 2814,
      "11": 2815,
      "ĠPart": 2816,
      "Ġdeg": 2817,
      "Ġapprop": 2818,
      "obal": 2819,
      "Ġdepartment": 2820,
      "ximately": 2821,
      "If": 2822,
      "ians": 2823,
      "Ġrein": 2824,
      "Ġet": 2825,
      "etwork": 2826,
      "ellow": 2827,
      "ĠEl": 2828,
      "Ġhelps": 2829,
      "Ġeffects": 2830,
      "Ġdiffic": 2831,
      "arian": 2832,
      "Ġdefin": 2833,
      "Ġproblem": 2834,
      "Ġintroduced": 2835,
      "Ġsentence": 2836,
      "be": 2837,
      "lands": 2838,
      "uter": 2839,
      "uments": 2840,
      "ert": 2841,
      "Ġmental": 2842,
      "Ġrates": 2843,
      "ĠStep": 2844,
      "Ġminutes": 2845,
      "Ġmonths": 2846,
      "Ġorig": 2847,
      "resp": 2848,
      "Ġsummer": 2849,
      "Ġaverage": 2850,
      "ĠSa": 2851,
      "ĠCar": 2852,
      "Ġprec": 2853,
      "Ġaccur": 2854,
      "Ġdeveloping": 2855,
      "Ġsingle": 2856,
      "ĠEnvironmental": 2857,
      "Ab": 2858,
      "Ġsince": 2859,
      "Ġbirth": 2860,
      "anced": 2861,
      "ĠCVD": 2862,
      "dition": 2863,
      "hy": 2864,
      "utions": 2865,
      "Ġ[": 2866,
      "Ġcell": 2867,
      "itation": 2868,
      "Ġconsider": 2869,
      "Ġsoil": 2870,
      "Ġcoord": 2871,
      "lam": 2872,
      "Ġcri": 2873,
      "ections": 2874,
      "ĠDay": 2875,
      "Ġimm": 2876,
      "Ġindepend": 2877,
      "Ġfeet": 2878,
      "Ġveget": 2879,
      "Ġbuilding": 2880,
      "Ġbenefit": 2881,
      "Ġgovernment": 2882,
      "ik": 2883,
      "oks": 2884,
      "Ġent": 2885,
      "oric": 2886,
      "Ġpage": 2887,
      "Ġvowel": 2888,
      "ems": 2889,
      "ĠBr": 2890,
      "ĠVir": 2891,
      "gov": 2892,
      "Ġcard": 2893,
      "isode": 2894,
      "icide": 2895,
      "ĠPublic": 2896,
      "though": 2897,
      "rial": 2898,
      "ends": 2899,
      "ographic": 2900,
      "erm": 2901,
      "ĠFe": 2902,
      "order": 2903,
      "Ġprep": 2904,
      "Ġboard": 2905,
      "Ġ50": 2906,
      "Ġinsp": 2907,
      "Ġproducts": 2908,
      "Ġsuggest": 2909,
      "Ġappropriate": 2910,
      "Ġsources": 2911,
      "ications": 2912,
      "ĠCoun": 2913,
      "ĠMed": 2914,
      "ĠMay": 2915,
      "ĠOr": 2916,
      "Ġresponse": 2917,
      "Ġobtain": 2918,
      "ober": 2919,
      "Ġturn": 2920,
      "ening": 2921,
      "Ġpor": 2922,
      "anch": 2923,
      "ĠWorld": 2924,
      "Ġ21": 2925,
      "usion": 2926,
      "place": 2927,
      "ĠOver": 2928,
      "ĠOne": 2929,
      "Ġunit": 2930,
      "Ġcreated": 2931,
      "Stud": 2932,
      "ĠCommunity": 2933,
      "Ex": 2934,
      "For": 2935,
      "uven": 2936,
      "Ġri": 2937,
      "Ġlit": 2938,
      "ĠSystem": 2939,
      "ĠCent": 2940,
      "osystem": 2941,
      "ĠUs": 2942,
      "Ġable": 2943,
      "Ġtransportation": 2944,
      "Ġnecessary": 2945,
      "HS": 2946,
      "ores": 2947,
      "Ġpubl": 2948,
      "ray": 2949,
      "elt": 2950,
      "Ġcho": 2951,
      "ĠLibrary": 2952,
      "Ġsuper": 2953,
      "Ġcomprehens": 2954,
      "Ġreports": 2955,
      "Ġpersonal": 2956,
      "Ġcertain": 2957,
      "ĠBlack": 2958,
      "67": 2959,
      "Ġbison": 2960,
      "ulation": 2961,
      "Ġ13": 2962,
      "Ġacad": 2963,
      "Ġroad": 2964,
      "Ġexplore": 2965,
      "Ġeducational": 2966,
      "Ġallowed": 2967,
      "Ġeconom": 2968,
      "Ġevaluation": 2969,
      "Ġstream": 2970,
      "To": 2971,
      "gression": 2972,
      "inary": 2973,
      "Ġsix": 2974,
      "acing": 2975,
      "Ġlater": 2976,
      "ĠWashington": 2977,
      "terns": 2978,
      "ĠMars": 2979,
      "Ġcontext": 2980,
      "Ġeffect": 2981,
      "Ġpatients": 2982,
      "ENT": 2983,
      "pecially": 2984,
      "Ġperformance": 2985,
      "Ġdecodable": 2986,
      "Ġassistance": 2987,
      "Ġmonitoring": 2988,
      "HO": 2989,
      "ground": 2990,
      "Ġ'": 2991,
      "anic": 2992,
      "ida": 2993,
      "Ġlic": 2994,
      "erson": 2995,
      "ĠEc": 2996,
      "Ġinform": 2997,
      "Ġdifference": 2998,
      "Ġcapture": 2999,
      "Ġaut": 3000,
      "oring": 3001,
      "arily": 3002,
      "ster": 3003,
      "Ġthreat": 3004,
      "udget": 3005,
      "ĠMe": 3006,
      "Ġcommunication": 3007,
      "Ġplanning": 3008,
      "ĠAmerica": 3009,
      "Ġcondition": 3010,
      "Ġmilitary": 3011,
      "ronic": 3012,
      "Ġquantity": 3013,
      "bol": 3014,
      "break": 3015,
      "hic": 3016,
      "enced": 3017,
      "Ġunique": 3018,
      "Ġveter": 3019,
      "Ġorganizations": 3020,
      "Ġvideo": 3021,
      "reed": 3022,
      "Ġsw": 3023,
      "Ġmark": 3024,
      "Ġmakes": 3025,
      "Ġactive": 3026,
      "ept": 3027,
      "Ġconsist": 3028,
      "Ġ2021": 3029,
      "Ġexperim": 3030,
      "Ġtechnical": 3031,
      "ĠPrevention": 3032,
      "ĠComp": 3033,
      "ĠELOP": 3034,
      "elebr": 3035,
      "Ge": 3036,
      "hing": 3037,
      "ware": 3038,
      "Ġtarget": 3039,
      "ift": 3040,
      "ipment": 3041,
      "Ġtrue": 3042,
      "Ġopportunity": 3043,
      "Ġfacilities": 3044,
      "Ġannual": 3045,
      "requency": 3046,
      "oth": 3047,
      "ĠAS": 3048,
      "Ġhead": 3049,
      "Ġapply": 3050,
      "Ġinterven": 3051,
      "Ġfeel": 3052,
      "Ġsoft": 3053,
      "Ġserve": 3054,
      "Ġbeginning": 3055,
      "Ġlimited": 3056,
      "cing": 3057,
      "lies": 3058,
      "Ġess": 3059,
      "esium": 3060,
      "Ġsnow": 3061,
      "ĠSur": 3062,
      "Ġask": 3063,
      "oding": 3064,
      "itis": 3065,
      "Ġupd": 3066,
      "Ġoutcomes": 3067,
      "dle": 3068,
      "ees": 3069,
      "Ġtests": 3070,
      "ĠPres": 3071,
      "ĠJune": 3072,
      "Ġtransition": 3073,
      "Ġminimum": 3074,
      "Ġcertific": 3075,
      "Ġachieve": 3076,
      "ĠAfrican": 3077,
      "oot": 3078,
      "Ġtit": 3079,
      "Ġtherap": 3080,
      "Ġfall": 3081,
      "Ġreach": 3082,
      "Ġline": 3083,
      "irect": 3084,
      "Ġoverall": 3085,
      "Ġpositive": 3086,
      "Ġmodels": 3087,
      "Ġclear": 3088,
      "Ġissues": 3089,
      "Ġdifficult": 3090,
      "Ġtaken": 3091,
      "urb": 3092,
      "ĠDes": 3093,
      "ops": 3094,
      "Ġenroll": 3095,
      "ĠGr": 3096,
      "Ġviol": 3097,
      "Ġcritical": 3098,
      "56": 3099,
      "hib": 3100,
      "oma": 3101,
      "ĠApp": 3102,
      "Ġspread": 3103,
      "Ġcompared": 3104,
      "Ġdistrib": 3105,
      "ription": 3106,
      "Ġserved": 3107,
      "eti": 3108,
      "not": 3109,
      "uit": 3110,
      "Ġflow": 3111,
      "Ġways": 3112,
      "Ġear": 3113,
      "ĠIns": 3114,
      "ries": 3115,
      "pper": 3116,
      "ĠLaboratory": 3117,
      "Ġ197": 3118,
      "avig": 3119,
      "Ġespecially": 3120,
      "Ġidentifying": 3121,
      "Ġdeliver": 3122,
      "exic": 3123,
      "Ġelig": 3124,
      "ĠParks": 3125,
      "ĠAccording": 3126,
      "vate": 3127,
      "Ġste": 3128,
      "Ġweather": 3129,
      "ĠAmericans": 3130,
      "Ġinstructions": 3131,
      "Ġdefined": 3132,
      "Ġattend": 3133,
      "ĠBoard": 3134,
      "Ġbasic": 3135,
      "Ġteaching": 3136,
      "Ġfeedback": 3137,
      "reme": 3138,
      "let": 3139,
      "lex": 3140,
      "lement": 3141,
      "etter": 3142,
      "amp": 3143,
      "ada": 3144,
      "Ġcommit": 3145,
      "Ġwhether": 3146,
      "Ġsecurity": 3147,
      "Ġartic": 3148,
      "Ġsetting": 3149,
      "Ġcurrently": 3150,
      "pril": 3151,
      "Ġatmosphere": 3152,
      "fall": 3153,
      "nov": 3154,
      "Ġdaily": 3155,
      "lear": 3156,
      "Ġled": 3157,
      "ĠWest": 3158,
      "Ġvo": 3159,
      "ager": 3160,
      "ĠEnergy": 3161,
      "bruary": 3162,
      "Ġecosystem": 3163,
      "Ġreturn": 3164,
      "Ġvolun": 3165,
      "Ġillness": 3166,
      "Ġexposure": 3167,
      "ief": 3168,
      "yn": 3169,
      "ina": 3170,
      "ĠSan": 3171,
      "ĠCur": 3172,
      "ured": 3173,
      "Ġprinc": 3174,
      "Ġoutdo": 3175,
      "ification": 3176,
      "Ġupon": 3177,
      "Ġsurve": 3178,
      "Ġpatterns": 3179,
      "Ġbirds": 3180,
      "ey": 3181,
      "ĠWhile": 3182,
      "Ġleft": 3183,
      "ivision": 3184,
      "Ġclose": 3185,
      "Ġ--": 3186,
      "||||": 3187,
      "Ġerr": 3188,
      "abetes": 3189,
      "DA": 3190,
      "ctions": 3191,
      "ĠShe": 3192,
      "Ġonline": 3193,
      "abilities": 3194,
      "otor": 3195,
      "ĠRef": 3196,
      "Ġhealthy": 3197,
      "ĠYork": 3198,
      "Ġlocation": 3199,
      "Ġincreasing": 3200,
      "Ġcountry": 3201,
      "ĠMarch": 3202,
      "Ġgalaxies": 3203,
      "Ġanalyz": 3204,
      "13": 3205,
      "RT": 3206,
      "go": 3207,
      "hest": 3208,
      "enza": 3209,
      "ĠTier": 3210,
      "olution": 3211,
      "ĠHar": 3212,
      "unch": 3213,
      "Ġwhy": 3214,
      "Ġpreval": 3215,
      "Ġhelped": 3216,
      "Ġstrong": 3217,
      "title": 3218,
      "Ġblood": 3219,
      "Ġmeasures": 3220,
      "Ġenhance": 3221,
      "Ġinterventions": 3222,
      "az": 3223,
      "de": 3224,
      "ned": 3225,
      "ruc": 3226,
      "uation": 3227,
      "Ġpay": 3228,
      "Ġmax": 3229,
      "Ġhyd": 3230,
      "Ġthough": 3231,
      "Ġgre": 3232,
      "Ġgood": 3233,
      "ĠAb": 3234,
      "Ġsust": 3235,
      "Ġpath": 3236,
      "Ġprocesses": 3237,
      "Ġinitial": 3238,
      "ĠForest": 3239,
      "26": 3240,
      "40": 3241,
      "OS": 3242,
      "den": 3243,
      "omp": 3244,
      "Ġlink": 3245,
      "Ġkind": 3246,
      "Ġshows": 3247,
      "Ġimplementation": 3248,
      "Ġmultiple": 3249,
      "ĠDevelop": 3250,
      "respond": 3251,
      "oke": 3252,
      "alk": 3253,
      "ister": 3254,
      "Ġdon": 3255,
      "Ġdam": 3256,
      "vere": 3257,
      "amed": 3258,
      "ĠWhy": 3259,
      "Ġspr": 3260,
      "Ġshare": 3261,
      "Ġrare": 3262,
      "Ġallows": 3263,
      "Ġstatus": 3264,
      "Ġsustain": 3265,
      "ios": 3266,
      "Ġpal": 3267,
      "Ġfew": 3268,
      "urther": 3269,
      "Ġasp": 3270,
      "ĠLake": 3271,
      "Ġsea": 3272,
      "Ġappear": 3273,
      "Ġaged": 3274,
      "Ġwhole": 3275,
      "Ġaway": 3276,
      "Ġrecommendations": 3277,
      "ATION": 3278,
      "Ġcamer": 3279,
      "Ġlegal": 3280,
      "Ġcourse": 3281,
      "mber": 3282,
      "Ġouts": 3283,
      "ither": 3284,
      "igr": 3285,
      "ĠRout": 3286,
      "orthern": 3287,
      "Ġseason": 3288,
      "Ġcancer": 3289,
      "Ġinfection": 3290,
      "Ġsupports": 3291,
      "Ġcomponent": 3292,
      "Ġsequence": 3293,
      "Ġentire": 3294,
      "Ġlicens": 3295,
      "Ġbreak": 3296,
      "ĠWith": 3297,
      "ĠAnd": 3298,
      "ĠAug": 3299,
      "ules": 3300,
      "ĠII": 3301,
      "pping": 3302,
      "oper": 3303,
      "Ġwhite": 3304,
      "tics": 3305,
      "ĠGrade": 3306,
      "Ġsubst": 3307,
      "Ġavoid": 3308,
      "Ġvehic": 3309,
      "Ġgrass": 3310,
      "ĠTrail": 3311,
      "35": 3312,
      "orical": 3313,
      "Ġbarri": 3314,
      "Ġlo": 3315,
      "Ġnetwork": 3316,
      "ĠCare": 3317,
      "ĠCivil": 3318,
      "ĠAg": 3319,
      "ĠMat": 3320,
      "Ġdecre": 3321,
      "Ġtransfer": 3322,
      "oving": 3323,
      "titution": 3324,
      "Ġpo": 3325,
      "Ġpoint": 3326,
      "eline": 3327,
      "ework": 3328,
      "Ġcompleted": 3329,
      "Ġopio": 3330,
      "ĠCommission": 3331,
      "Ġconduct": 3332,
      "Ġsamples": 3333,
      "Ġobservations": 3334,
      "Ġdecoding": 3335,
      "Ġmicrob": 3336,
      "glish": 3337,
      "cil": 3338,
      "ched": 3339,
      "vity": 3340,
      "Ġaim": 3341,
      "Ġcateg": 3342,
      "ĠApril": 3343,
      "ado": 3344,
      "ĠFederal": 3345,
      "ĠHouse": 3346,
      "reng": 3347,
      "ecting": 3348,
      "ĠJuly": 3349,
      "ricul": 3350,
      "Ġintern": 3351,
      "Ġstatement": 3352,
      "Ġrequires": 3353,
      "Ġwriting": 3354,
      "Ġsyllable": 3355,
      "ĠJohn": 3356,
      "mb": 3357,
      "west": 3358,
      "enous": 3359,
      "Ġcelebr": 3360,
      "icated": 3361,
      "ĠSal": 3362,
      "Ġheart": 3363,
      "Ġdev": 3364,
      "Ġclin": 3365,
      "acco": 3366,
      "Ġfeatures": 3367,
      "Ġexpected": 3368,
      "Ġdistrict": 3369,
      "Ġmonth": 3370,
      "Ġdirector": 3371,
      "Abstract": 3372,
      "LM": 3373,
      "NA": 3374,
      "cal": 3375,
      "Ġ#": 3376,
      "ĠZ": 3377,
      "Ġdate": 3378,
      "iding": 3379,
      "Ġhim": 3380,
      "ĠSk": 3381,
      "ĠFr": 3382,
      "Ġspac": 3383,
      "Ġjuven": 3384,
      "Ġestablished": 3385,
      "Ġportion": 3386,
      "Ġcomprehensive": 3387,
      "Ġacademic": 3388,
      "16": 3389,
      "rast": 3390,
      "Ġtask": 3391,
      "Ġsession": 3392,
      "Ġpast": 3393,
      "Ġfail": 3394,
      "ided": 3395,
      "Ġhold": 3396,
      "oll": 3397,
      "igenous": 3398,
      "Ġincorpor": 3399,
      "Ġ196": 3400,
      "Ġapproximately": 3401,
      "Ġsubject": 3402,
      "Ġreceived": 3403,
      "Ġtrees": 3404,
      "ĠChildren": 3405,
      "ĠInformation": 3406,
      "US": 3407,
      "Ġice": 3408,
      "ino": 3409,
      "ones": 3410,
      "Ġfull": 3411,
      "ilt": 3412,
      "Ġhalf": 3413,
      "ĠMexic": 3414,
      "ĠFamil": 3415,
      "outhern": 3416,
      "Ġscen": 3417,
      "Ġgenetic": 3418,
      "Ġplanet": 3419,
      "ĠJanuary": 3420,
      "Ph": 3421,
      "ii": 3422,
      "isher": 3423,
      "room": 3424,
      "Ġnative": 3425,
      "ĠCor": 3426,
      "Ġhere": 3427,
      "osis": 3428,
      "ĠStar": 3429,
      "Ġworkers": 3430,
      "Ġ2020": 3431,
      "Ġestimated": 3432,
      "Ġglobal": 3433,
      "lorida": 3434,
      "'t": 3435,
      "Ġenter": 3436,
      "head": 3437,
      "erk": 3438,
      "Ġsites": 3439,
      "Ġocean": 3440,
      "Ġfinal": 3441,
      "ices": 3442,
      "Ġhun": 3443,
      "ĠWr": 3444,
      "ĠDo": 3445,
      "Ġ22": 3446,
      "Ġheld": 3447,
      "umul": 3448,
      "ovember": 3449,
      "Ġdirectly": 3450,
      "Ġterm": 3451,
      "ready": 3452,
      "Ġoutside": 3453,
      "Ad": 3454,
      "Im": 3455,
      "Ã©": 3456,
      "Ġide": 3457,
      "Ġred": 3458,
      "ecause": 3459,
      "Ġlive": 3460,
      "ĠSome": 3461,
      "set": 3462,
      "ĠFrom": 3463,
      "ĠGroup": 3464,
      "Ġresidents": 3465,
      "Ġuses": 3466,
      "Ġcollege": 3467,
      "Ġoffice": 3468,
      "Ġleaders": 3469,
      "ĠSeason": 3470,
      "Ġolder": 3471,
      "Ġexisting": 3472,
      "Ġeligible": 3473,
      "Ġfalse": 3474,
      "Ġnormal": 3475,
      "term": 3476,
      "ĠMiss": 3477,
      "Ġexerc": 3478,
      "Ġcareer": 3479,
      "Ġapproaches": 3480,
      "Ġlisted": 3481,
      "ĠIndian": 3482,
      "Ġinvolved": 3483,
      "forcement": 3484,
      "Ġcomponents": 3485,
      "riculum": 3486,
      "iency": 3487,
      "Ġside": 3488,
      "Ġliter": 3489,
      "sequ": 3490,
      "ĠEach": 3491,
      "ustice": 3492,
      "Ġimages": 3493,
      "Ġsevere": 3494,
      "Ġrock": 3495,
      "Ġoutbreak": 3496,
      "Ġvaccines": 3497,
      "ĠSpec": 3498,
      "ney": 3499,
      "Ġdetermined": 3500,
      "Ġadjust": 3501,
      "Ġcycle": 3502,
      "ĠVirgin": 3503,
      "Ġsearch": 3504,
      "Ġhomes": 3505,
      "ĠMount": 3506,
      "ĠDuring": 3507,
      "ticip": 3508,
      "Ġrout": 3509,
      "ĠYouth": 3510,
      "oints": 3511,
      "Ġcorrespond": 3512,
      "Ġpaper": 3513,
      "ĠIndigenous": 3514,
      "Ġpromote": 3515,
      "Ġpreviously": 3516,
      "Ġdecisions": 3517,
      "ĠGeneral": 3518,
      "Ġhazard": 3519,
      "Ġregarding": 3520,
      "Ġspacec": 3521,
      "%)": 3522,
      "33": 3523,
      "57": 3524,
      "90": 3525,
      "When": 3526,
      "type": 3527,
      "Ġrefer": 3528,
      "Ġstreng": 3529,
      "ĠRock": 3530,
      "ilding": 3531,
      "Ġskill": 3532,
      "Ġrelative": 3533,
      "titute": 3534,
      "ĠResources": 3535,
      "Ġdirection": 3536,
      "Ġhighest": 3537,
      "Ġreducing": 3538,
      "Ġmagnesium": 3539,
      "met": 3540,
      "pre": 3541,
      "Ġfr": 3542,
      "Ġnuc": 3543,
      "ĠSat": 3544,
      "ĠAfter": 3545,
      "ĠFlorida": 3546,
      "ĠGovern": 3547,
      "ĠIntern": 3548,
      "encing": 3549,
      "Ġrepe": 3550,
      "ishing": 3551,
      "Ġeffic": 3552,
      "Ġorganization": 3553,
      "Ġoffers": 3554,
      "Ġcaused": 3555,
      "En": 3556,
      "ls": 3557,
      "Ġsure": 3558,
      "Ġfile": 3559,
      "âĢĭ": 3560,
      "Ġspe": 3561,
      "Ġshown": 3562,
      "oster": 3563,
      "ĠâĢĶ": 3564,
      "rought": 3565,
      "fication": 3566,
      "anger": 3567,
      "tention": 3568,
      "ĠEnglish": 3569,
      "Ġpatient": 3570,
      "Ġchallenge": 3571,
      "Ġterms": 3572,
      "Ġspacecraft": 3573,
      "af": 3574,
      "my": 3575,
      "Ġfri": 3576,
      "Ġalready": 3577,
      "Ġadop": 3578,
      "Ġjour": 3579,
      "Ġblack": 3580,
      "ĠCON": 3581,
      "ĠAdministration": 3582,
      "Ġgrowth": 3583,
      "Ġtemperatures": 3584,
      "mary": 3585,
      "ole": 3586,
      "Ġinstr": 3587,
      "Ġmotor": 3588,
      "ĠSept": 3589,
      "Ġgau": 3590,
      "ĠMore": 3591,
      "Ġaction": 3592,
      "Ġdispl": 3593,
      "ube": 3594,
      "igned": 3595,
      "Ġmean": 3596,
      "aterials": 3597,
      "Ġsupported": 3598,
      "ĠSpan": 3599,
      "ĠArea": 3600,
      "Ġsoftware": 3601,
      "ĠRefuge": 3602,
      "Ġmaximum": 3603,
      "ĠVirginia": 3604,
      "200": 3605,
      "cul": 3606,
      "Ġastr": 3607,
      "alle": 3608,
      "Ġlack": 3609,
      "Ġnavig": 3610,
      "Ġproduce": 3611,
      "url": 3612,
      "Ġability": 3613,
      "Ġcurriculum": 3614,
      "Ġsentences": 3615,
      "Ġcharacteristics": 3616,
      "Ġnegative": 3617,
      "Ġdefinition": 3618,
      "Ġsun": 3619,
      "ension": 3620,
      "Ġnature": 3621,
      "ulf": 3622,
      "Ġadap": 3623,
      "Ġprimarily": 3624,
      "Ġ90": 3625,
      "ĠIsland": 3626,
      "Ġleading": 3627,
      "Ġvalue": 3628,
      "Ġbusiness": 3629,
      "Ġprevalence": 3630,
      "ĠSpanish": 3631,
      "80": 3632,
      "iety": 3633,
      "ern": 3634,
      "estern": 3635,
      "ĠMin": 3636,
      "uted": 3637,
      "Ġcome": 3638,
      "Ġacqu": 3639,
      "Ġages": 3640,
      "Ġprotection": 3641,
      "Ġclean": 3642,
      "Ġfil": 3643,
      "ille": 3644,
      "Ġgive": 3645,
      "ceed": 3646,
      "Ġacres": 3647,
      "Ġactions": 3648,
      "Ġaltern": 3649,
      "Ġ194": 3650,
      "avy": 3651,
      "ĠEng": 3652,
      "Ġrain": 3653,
      "Ġequipment": 3654,
      "sych": 3655,
      "Sc": 3656,
      "Ġsit": 3657,
      "isp": 3658,
      "itten": 3659,
      "Ġball": 3660,
      "acific": 3661,
      "ols": 3662,
      "ulner": 3663,
      "ĠRed": 3664,
      "Ġgoing": 3665,
      "Ġcrim": 3666,
      "Ġcollected": 3667,
      "Ġmatter": 3668,
      "Ġnutrition": 3669,
      "It": 3670,
      "bur": 3671,
      "Ġfurther": 3672,
      "Ġhands": 3673,
      "Ġlives": 3674,
      "Ġnorth": 3675,
      "ĠSen": 3676,
      "ĠCong": 3677,
      "elines": 3678,
      "Ġrather": 3679,
      "Ġplans": 3680,
      "Ġclick": 3681,
      "Ġworksh": 3682,
      "ĠProject": 3683,
      "Ġfeature": 3684,
      "Ġ66": 3685,
      "mitted": 3686,
      "ĠSTEM": 3687,
      "ĠAugust": 3688,
      "AM": 3689,
      "oe": 3690,
      "then": 3691,
      "ye": 3692,
      "ilit": 3693,
      "Ġlay": 3694,
      "Ġloss": 3695,
      "Ġproced": 3696,
      "oting": 3697,
      "illing": 3698,
      "ips": 3699,
      "Ġcomputer": 3700,
      "forcing": 3701,
      "Ġphonological": 3702,
      "Ġlegisl": 3703,
      "Ġhabitats": 3704,
      "medi": 3705,
      "ĠReading": 3706,
      "36": 3707,
      "Con": 3708,
      "IR": 3709,
      "ipp": 3710,
      "Ġtank": 3711,
      "erness": 3712,
      "Ġcross": 3713,
      "asks": 3714,
      "ĠPr": 3715,
      "otyp": 3716,
      "Ġexc": 3717,
      "Ġcompl": 3718,
      "Ġ28": 3719,
      "Ġspecif": 3720,
      "Ġexplain": 3721,
      "Ġlearned": 3722,
      "Ġfactor": 3723,
      "Ġcenters": 3724,
      "Ġrecords": 3725,
      "Ġpressure": 3726,
      "ramework": 3727,
      "29": 3728,
      "CS": 3729,
      "DR": 3730,
      "GS": 3731,
      "How": 3732,
      "ead": 3733,
      "frequency": 3734,
      "Ġtur": 3735,
      "inking": 3736,
      "Ġpain": 3737,
      "ĠSum": 3738,
      "ĠBay": 3739,
      "Ġagric": 3740,
      "Ġmineral": 3741,
      "Ġprivate": 3742,
      "useum": 3743,
      "Ġlittle": 3744,
      "Ġpublished": 3745,
      "ault": 3746,
      "draw": 3747,
      "yond": 3748,
      "Ġwide": 3749,
      "aced": 3750,
      "atell": 3751,
      "elesc": 3752,
      "andid": 3753,
      "ĠUnit": 3754,
      "Ġparticipate": 3755,
      "Ġoperations": 3756,
      "Ġdocuments": 3757,
      "Ġfindings": 3758,
      "Ġstarting": 3759,
      "cepts": 3760,
      "Ġwebs": 3761,
      "arent": 3762,
      "pid": 3763,
      "Ġtrib": 3764,
      "ona": 3765,
      "Ġcool": 3766,
      "Ġlab": 3767,
      "Ġutil": 3768,
      "ĠData": 3769,
      "Ġsex": 3770,
      "ĠOur": 3771,
      "ape": 3772,
      "ĠVis": 3773,
      "reek": 3774,
      "Ġhealthcare": 3775,
      "Ġemo": 3776,
      "Int": 3777,
      "Ġproduction": 3778,
      "ength": 3779,
      "Ġexperiences": 3780,
      "joy": 3781,
      "Ġbat": 3782,
      "ĠTechn": 3783,
      "ĠWas": 3784,
      "urance": 3785,
      "Ġgreen": 3786,
      "âĢĳ": 3787,
      "rie": 3788,
      "ĠGreat": 3789,
      "Ġcreating": 3790,
      "Ġdescribes": 3791,
      "Ġstatistic": 3792,
      "Ġrelev": 3793,
      "Ġinfluenza": 3794,
      "/.": 3795,
      "EA": 3796,
      "Un": 3797,
      "che": 3798,
      "iers": 3799,
      "Ġi": 3800,
      "Ġfing": 3801,
      "Ġfar": 3802,
      "Ġreve": 3803,
      "Ġhost": 3804,
      "ĠWater": 3805,
      "rain": 3806,
      "ĠAm": 3807,
      "Ġexecutive": 3808,
      "Ġvoc": 3809,
      "resh": 3810,
      "ologies": 3811,
      "Ġhelping": 3812,
      "ĠProv": 3813,
      "oking": 3814,
      "Ġstruct": 3815,
      "Ġemployment": 3816,
      "Ġhazards": 3817,
      "ĠManagement": 3818,
      "Ġvolunte": 3819,
      "load": 3820,
      "Ġded": 3821,
      "ĠSm": 3822,
      "ĠCDC": 3823,
      "owa": 3824,
      "ĠPR": 3825,
      "Ġbeyond": 3826,
      "Ġvulner": 3827,
      "Ġadult": 3828,
      "ansas": 3829,
      "stric": 3830,
      "Ġimpacts": 3831,
      "Ġidentification": 3832,
      "Ġminor": 3833,
      "ancial": 3834,
      "ripts": 3835,
      "self": 3836,
      "Ġsuccessful": 3837,
      ".)": 3838,
      "CV": 3839,
      "Ġtaking": 3840,
      "Ġcitiz": 3841,
      "Ġmar": 3842,
      "olume": 3843,
      "Ġnation": 3844,
      "Ġstay": 3845,
      "ĠHuman": 3846,
      "ĠEarly": 3847,
      "ĠLess": 3848,
      "Ġcloud": 3849,
      "ĠVal": 3850,
      "Ġemission": 3851,
      "Ġdiabetes": 3852,
      "Ġcoast": 3853,
      "Ġprocessing": 3854,
      "netic": 3855,
      "ĠAng": 3856,
      "ĠAddition": 3857,
      "Ġlargest": 3858,
      "cape": 3859,
      "Ġsprite": 3860,
      "ĠSeptember": 3861,
      "CC": 3862,
      "NGe": 3863,
      "ae": 3864,
      "la": 3865,
      "valu": 3866,
      "Ġeither": 3867,
      "Ġhum": 3868,
      "ĠPacific": 3869,
      "els": 3870,
      "ĠFood": 3871,
      "ĠGl": 3872,
      "Ġadmin": 3873,
      "ctober": 3874,
      "Ġabs": 3875,
      "Ġrecent": 3876,
      "ĠKenn": 3877,
      "tee": 3878,
      "Ġdifferences": 3879,
      "Ġregular": 3880,
      "istration": 3881,
      "Ġgrant": 3882,
      "Ġsugges": 3883,
      "ectives": 3884,
      "Ġcoordin": 3885,
      "alleNGe": 3886,
      "88": 3887,
      "CL": 3888,
      "On": 3889,
      "PE": 3890,
      "UL": 3891,
      "gn": 3892,
      "ales": 3893,
      "edy": 3894,
      "rogen": 3895,
      "Ġdiverse": 3896,
      "ouis": 3897,
      "Ġchance": 3898,
      "redit": 3899,
      "ounts": 3900,
      "Ġprepar": 3901,
      "ommod": 3902,
      "aving": 3903,
      "Ġoptions": 3904,
      "ĠStudent": 3905,
      "tified": 3906,
      "ĠDevelopment": 3907,
      "ez": 3908,
      "fort": 3909,
      "house": 3910,
      "iques": 3911,
      "ued": 3912,
      "anes": 3913,
      "Ġbudget": 3914,
      "Ġreques": 3915,
      "Ġstory": 3916,
      "rand": 3917,
      "Ġconstruction": 3918,
      "ĠBecause": 3919,
      "Ġenough": 3920,
      "Ġcontent": 3921,
      "ensive": 3922,
      "Ġconservation": 3923,
      "Ġsubs": 3924,
      "vironments": 3925,
      "Ġeducators": 3926,
      "Ġphonem": 3927,
      "Ġdiscussion": 3928,
      "umulative": 3929,
      "05": 3930,
      "You": 3931,
      "like": 3932,
      "Ġphen": 3933,
      "Ġtoday": 3934,
      "Ġhom": 3935,
      "ĠCour": 3936,
      "Ġbegan": 3937,
      "riz": 3938,
      "ĠLab": 3939,
      "ogs": 3940,
      "Ġsystematic": 3941,
      "Ġtransmission": 3942,
      "Ġfocused": 3943,
      "Ġproduced": 3944,
      "ospital": 3945,
      "ĠColor": 3946,
      "Ġcoverage": 3947,
      "Ġapplication": 3948,
      "Ġphotograph": 3949,
      "ĠAssessment": 3950,
      "Ġessential": 3951,
      "ĠSurvey": 3952,
      "Ġcertificate": 3953,
      "no": 3954,
      "tor": 3955,
      "xiety": 3956,
      "aled": 3957,
      "ising": 3958,
      "Ġframework": 3959,
      "Ġitems": 3960,
      "Ġsched": 3961,
      "fered": 3962,
      "Ġjoin": 3963,
      "awa": 3964,
      "Ġdesignated": 3965,
      "Ġpoll": 3966,
      "Ġaffect": 3967,
      "Ġmeasurements": 3968,
      "ustry": 3969,
      "Ġnuclear": 3970,
      "ĠKennedy": 3971,
      ")?": 3972,
      "27": 3973,
      "AB": 3974,
      "put": 3975,
      "ises": 3976,
      "Ġmass": 3977,
      "ude": 3978,
      "pped": 3979,
      "opl": 3980,
      "Ġalways": 3981,
      "tices": 3982,
      "antum": 3983,
      "Ġprin": 3984,
      "Ġkids": 3985,
      "Ġlarger": 3986,
      "Ġensuring": 3987,
      "REC": 3988,
      "Ġstandard": 3989,
      "Ġdrive": 3990,
      "Ġtrend": 3991,
      "Ġcontribute": 3992,
      "Ġwildfire": 3993,
      "Ġdigital": 3994,
      "ĠCouncil": 3995,
      "Ġriver": 3996,
      "gs": 3997,
      "iation": 3998,
      "ony": 3999,
      "rees": 4000,
      "isms": 4001,
      "Ġoffered": 4002,
      "ania": 4003,
      "Ġhy": 4004,
      "Ġlot": 4005,
      "ĠSocial": 4006,
      "Ġonce": 4007,
      "ularly": 4008,
      "uck": 4009,
      "ĠMEL": 4010,
      "Ġ23": 4011,
      "ĠLeg": 4012,
      "Ġenvironments": 4013,
      "tivity": 4014,
      "Ġsupporting": 4015,
      "Ġ2007": 4016,
      "Ġregulation": 4017,
      "Ġinstructional": 4018,
      "Ġsimple": 4019,
      "Ġlaws": 4020,
      "ĠAlthough": 4021,
      "Ġcombination": 4022,
      "Ġcourt": 4023,
      "Ġprofessional": 4024,
      "Ġobjectives": 4025,
      "ĠPresident": 4026,
      "Ġdelivery": 4027,
      "Ġjuvenile": 4028,
      "ĠInternational": 4029,
      "44": 4030,
      "Cl": 4031,
      "Cont": 4032,
      "Ġaqu": 4033,
      "herence": 4034,
      "orage": 4035,
      "Ġcode": 4036,
      "Ġwet": 4037,
      "Ġbill": 4038,
      "ĠSol": 4039,
      "Ġprob": 4040,
      "uration": 4041,
      "ĠMo": 4042,
      "uty": 4043,
      "Ġhear": 4044,
      "oses": 4045,
      "Ġworks": 4046,
      "Ġcareg": 4047,
      "ysical": 4048,
      "Ġconsum": 4049,
      "Ġengage": 4050,
      "Ġcrime": 4051,
      "Ġfacility": 4052,
      "Ġfacilit": 4053,
      "Ġextreme": 4054,
      "Ġdiseases": 4055,
      "atching": 4056,
      "Ġsegreg": 4057,
      "Ġviruses": 4058,
      "Ġmovement": 4059,
      "TSD": 4060,
      "Ġbroad": 4061,
      "Ġbarriers": 4062,
      "31": 4063,
      "39": 4064,
      "65": 4065,
      "ET": 4066,
      "Ġtasks": 4067,
      "Ġson": 4068,
      "ene": 4069,
      "ĠTO": 4070,
      "Ġhon": 4071,
      "ĠIowa": 4072,
      "ĠBer": 4073,
      "Ġenjoy": 4074,
      "Ġ31": 4075,
      "Ġrecovery": 4076,
      "Ġindustry": 4077,
      "Ġforms": 4078,
      "Ġfocuses": 4079,
      "Ġparticipation": 4080,
      "Ġbegins": 4081,
      "Ġevaluate": 4082,
      "ĠQu": 4083,
      "Ġestablish": 4084,
      "Ġpolicy": 4085,
      "Ġconcerns": 4086,
      "Ġrelationships": 4087,
      "Ġprinci": 4088,
      "iec": 4089,
      "ery": 4090,
      "Ġtoo": 4091,
      "Ġbillion": 4092,
      "ĠDis": 4093,
      "umber": 4094,
      "ĠLouis": 4095,
      "Ġweight": 4096,
      "Ġseen": 4097,
      "Ġphone": 4098,
      "Ġoverd": 4099,
      "Ġdescribe": 4100,
      "Ġpresented": 4101,
      "Ġrelease": 4102,
      "Ġnearly": 4103,
      "Ġobserved": 4104,
      "ĠCanada": 4105,
      "Ġhousehold": 4106,
      "ĠIncre": 4107,
      "oom": 4108,
      "Ġtable": 4109,
      "Ġtrad": 4110,
      "atial": 4111,
      "Ġsn": 4112,
      "Ġtow": 4113,
      "level": 4114,
      "Ġlibr": 4115,
      "ĠWill": 4116,
      "amm": 4117,
      "abil": 4118,
      "ĠFish": 4119,
      "ĠDisc": 4120,
      "keley": 4121,
      "Ġparts": 4122,
      "Ġagree": 4123,
      "Ġbox": 4124,
      "Ġeffort": 4125,
      "idential": 4126,
      "Ġapproved": 4127,
      "Ġdepend": 4128,
      "ociety": 4129,
      "Ġfishing": 4130,
      "ĠMonth": 4131,
      "ĠControl": 4132,
      "Ġmiddle": 4133,
      "bola": 4134,
      "drawal": 4135,
      "34": 4136,
      "eks": 4137,
      "urop": 4138,
      "Ġinnov": 4139,
      "Ġdark": 4140,
      "ĠCreek": 4141,
      "ably": 4142,
      "uting": 4143,
      "ĠFire": 4144,
      "ĠNe": 4145,
      "ĠNovember": 4146,
      "ĠLand": 4147,
      "Ġenforcement": 4148,
      "ush": 4149,
      "izes": 4150,
      "Ġscripts": 4151,
      "Ġoutl": 4152,
      "Ġflag": 4153,
      "Ġ2016": 4154,
      "Ġtypically": 4155,
      "Ġtechniques": 4156,
      "Step": 4157,
      "Ġelectric": 4158,
      "ĠTrails": 4159,
      "Ġlimit": 4160,
      "ĠFebruary": 4161,
      "fish": 4162,
      "Ġir": 4163,
      "Ġpoints": 4164,
      "Ġdat": 4165,
      "Ġdest": 4166,
      "iction": 4167,
      "icate": 4168,
      "Ġhot": 4169,
      "Ġthird": 4170,
      "Ġthink": 4171,
      "Ġstress": 4172,
      "see": 4173,
      "urs": 4174,
      "ĠPe": 4175,
      "Ġorb": 4176,
      "Ġbeh": 4177,
      "ĠMod": 4178,
      "ĠBLM": 4179,
      "ĠEbola": 4180,
      "itig": 4181,
      "Ġaccommod": 4182,
      "ensity": 4183,
      "Ġbuilt": 4184,
      "Ġgradu": 4185,
      "Ġofficers": 4186,
      "Ġregulatory": 4187,
      "Ġimplemented": 4188,
      "Ġissue": 4189,
      "Ġanalyses": 4190,
      "Ġcauses": 4191,
      "ĠASES": 4192,
      "Ġinternational": 4193,
      "DF": 4194,
      "Pl": 4195,
      "iance": 4196,
      "Ġmigr": 4197,
      "asive": 4198,
      "oles": 4199,
      "ĠAI": 4200,
      "ategy": 4201,
      "ĠLetter": 4202,
      "Ġspring": 4203,
      "Ġexamples": 4204,
      "Ġflood": 4205,
      "Ġposition": 4206,
      "Ġlonger": 4207,
      "Ġserious": 4208,
      "Ġbehavioral": 4209,
      "Ġcontinuous": 4210,
      "Ġexpanded": 4211,
      "Ġhappen": 4212,
      "Ġreinforce": 4213,
      "Ġgreater": 4214,
      "Ġdisplay": 4215,
      "Ġspecifically": 4216,
      "BE": 4217,
      "MM": 4218,
      "OD": 4219,
      "Ġaid": 4220,
      "Ġpack": 4221,
      "Ġdrought": 4222,
      "Ġmor": 4223,
      "Ġbound": 4224,
      "Ġnamed": 4225,
      "lying": 4226,
      "ĠPRO": 4227,
      "Ġconc": 4228,
      "illance": 4229,
      "Ġcannot": 4230,
      "Ġcontains": 4231,
      "Ġaccident": 4232,
      "Ġprovider": 4233,
      "Ġhowever": 4234,
      "Ġtrail": 4235,
      "Ġoperation": 4236,
      "Ġdetect": 4237,
      "Ġregions": 4238,
      "Ġanswers": 4239,
      "omething": 4240,
      "ĠSafety": 4241,
      "elescope": 4242,
      "38": 4243,
      "Al": 4244,
      "PS": 4245,
      "most": 4246,
      "off": 4247,
      "ville": 4248,
      "Ġsatell": 4249,
      "tial": 4250,
      "Ġpan": 4251,
      "aling": 4252,
      "Ġfresh": 4253,
      "Ġwaters": 4254,
      "oul": 4255,
      "Ġharm": 4256,
      "Ġlas": 4257,
      "Ġstorage": 4258,
      "ĠPTSD": 4259,
      "otype": 4260,
      "ĠFund": 4261,
      "Ġdead": 4262,
      "Ġpregn": 4263,
      "Ġmanage": 4264,
      "Ġlocations": 4265,
      "ESS": 4266,
      "Ġtopic": 4267,
      "Ġpartnership": 4268,
      "board": 4269,
      "Ġviolence": 4270,
      "ĠColorado": 4271,
      "ini": 4272,
      "Ġlate": 4273,
      "Ġload": 4274,
      "ĠCI": 4275,
      "ĠCamp": 4276,
      "Ġstop": 4277,
      "ĠPol": 4278,
      "Ġconcepts": 4279,
      "ĠMid": 4280,
      "ĠRanch": 4281,
      "istance": 4282,
      "ears": 4283,
      "ĠInt": 4284,
      "akehold": 4285,
      "Ġkil": 4286,
      "Ġ2017": 4287,
      "Ġ2018": 4288,
      "Ġsmoke": 4289,
      "Ġ2006": 4290,
      "Ġcontinues": 4291,
      "Ġimportance": 4292,
      "Ġreceiving": 4293,
      "Ġcountries": 4294,
      "umbia": 4295,
      "ĠGeor": 4296,
      "ĠValley": 4297,
      "ĠAdditionally": 4298,
      "TION": 4299,
      "Ġsib": 4300,
      "Ġsouth": 4301,
      "Ġculture": 4302,
      "Ġtook": 4303,
      "ĠCr": 4304,
      "Ġstars": 4305,
      "igure": 4306,
      "Ġweeks": 4307,
      "Ġrat": 4308,
      "esting": 4309,
      "ĠVacc": 4310,
      "Ġunits": 4311,
      "Ġroll": 4312,
      "phas": 4313,
      "Ġquantum": 4314,
      "centr": 4315,
      "Ġpresident": 4316,
      "standing": 4317,
      "Ġbene": 4318,
      "issipp": 4319,
      "Ġbrain": 4320,
      "ĠHistoric": 4321,
      "Ġindependent": 4322,
      "elta": 4323,
      "olstice": 4324,
      "Ġrelevant": 4325,
      "Ġemissions": 4326,
      "issippi": 4327,
      "Ġsus": 4328,
      "Ġput": 4329,
      "Ġrestric": 4330,
      "ido": 4331,
      "Ġstorm": 4332,
      "semb": 4333,
      "ĠWord": 4334,
      "iring": 4335,
      "amin": 4336,
      "Ġdisorder": 4337,
      "ĠProt": 4338,
      "Ġformation": 4339,
      "Ġparticularly": 4340,
      "tenance": 4341,
      "Ġtherapy": 4342,
      "ĠRoute": 4343,
      "ĠWright": 4344,
      "ĠCourt": 4345,
      "97": 4346,
      "Â·": 4347,
      "erate": 4348,
      "Ġmix": 4349,
      "state": 4350,
      "Ġnorthern": 4351,
      "ĠSo": 4352,
      "ĠAgency": 4353,
      "emeter": 4354,
      "ĠEm": 4355,
      "ĠUp": 4356,
      "ipal": 4357,
      "Ġcontroll": 4358,
      "Ġworker": 4359,
      "Ġsections": 4360,
      "aves": 4361,
      "Ġrisks": 4362,
      "Ġ2019": 4363,
      "Ġguided": 4364,
      "ployment": 4365,
      "ĠPhase": 4366,
      "Ġbring": 4367,
      "ĠUSGS": 4368,
      "Ġwritten": 4369,
      "Ġwildfires": 4370,
      "ĠInstitute": 4371,
      "ructure": 4372,
      "MP": 4373,
      "kl": 4374,
      "inqu": 4375,
      "eness": 4376,
      "Ġface": 4377,
      "Ġmis": 4378,
      "Ġmind": 4379,
      "ĠSim": 4380,
      "ĠThen": 4381,
      "abul": 4382,
      "ĠMil": 4383,
      "Ġhepat": 4384,
      "ĠStr": 4385,
      "Ġscore": 4386,
      "Ġ95": 4387,
      "Ġguides": 4388,
      "Ġphonemic": 4389,
      "Ġhistorical": 4390,
      "ĠClimate": 4391,
      "Ġconnected": 4392,
      "Ġfields": 4393,
      "Ġinteractive": 4394,
      "OLST": 4395,
      "operative": 4396,
      "ĠAngel": 4397,
      "Res": 4398,
      "ean": 4399,
      "lied": 4400,
      "pisode": 4401,
      "tr": 4402,
      "uf": 4403,
      "ĠÂ": 4404,
      "Ġsomething": 4405,
      "Ġwarm": 4406,
      "Ġmap": 4407,
      "Ġeight": 4408,
      "ĠMass": 4409,
      "ĠMont": 4410,
      "Ġanc": 4411,
      "ĠDirect": 4412,
      "Ġ29": 4413,
      "ender": 4414,
      "There": 4415,
      "Ġdoing": 4416,
      "Ġinterview": 4417,
      "Ġvaccinated": 4418,
      "IST": 4419,
      "Ġgetting": 4420,
      "Ġforests": 4421,
      "Ġpolicies": 4422,
      "ĠLearning": 4423,
      "Students": 4424,
      "Ġupdated": 4425,
      "Ġdedicated": 4426,
      "RC": 4427,
      "iet": 4428,
      "spec": 4429,
      "tual": 4430,
      "Ġcivil": 4431,
      "Ġcandid": 4432,
      "Ġtoward": 4433,
      "Ġgain": 4434,
      "thing": 4435,
      "Ġconcentr": 4436,
      "ĠMend": 4437,
      "Ġ26": 4438,
      "ĠList": 4439,
      "Ġimmedi": 4440,
      "Ġarr": 4441,
      "Ġrapid": 4442,
      "Ġengagement": 4443,
      "Ġconfidence": 4444,
      "Ġinvolve": 4445,
      "Ġreleased": 4446,
      "Ġestimates": 4447,
      "Ġvalues": 4448,
      "ĠDecember": 4449,
      "ĠCheck": 4450,
      "Ġfinancial": 4451,
      "Ġscreening": 4452,
      "Ġdetailed": 4453,
      "Ġtitle": 4454,
      "Ġhepatitis": 4455,
      "ĠMendez": 4456,
      "BT": 4457,
      "with": 4458,
      "Ġtw": 4459,
      "Ġtrip": 4460,
      "Ġaud": 4461,
      "ero": 4462,
      "Ġpsych": 4463,
      "active": 4464,
      "olved": 4465,
      "irus": 4466,
      "heric": 4467,
      "ĠMost": 4468,
      "osition": 4469,
      "Ġdeep": 4470,
      "ĠOp": 4471,
      "ĠUnder": 4472,
      "apter": 4473,
      "ousing": 4474,
      "ĠPlant": 4475,
      "Ġaddressing": 4476,
      "Ġresulting": 4477,
      "ceptions": 4478,
      "Ġfluid": 4479,
      "Ġprepared": 4480,
      "Ġprocedures": 4481,
      "Ġtrends": 4482,
      "Ġoverdose": 4483,
      "KS": 4484,
      "ipl": 4485,
      "Ġox": 4486,
      "Ġwood": 4487,
      "imin": 4488,
      "Ġyet": 4489,
      "Ġanxiety": 4490,
      "ĠRoad": 4491,
      "oph": 4492,
      "ĠBill": 4493,
      "entially": 4494,
      "Ġappoint": 4495,
      "venue": 4496,
      "Ġrepat": 4497,
      "Ġhighlight": 4498,
      "echan": 4499,
      "Ġgenes": 4500,
      "Ġmining": 4501,
      "Ġoption": 4502,
      "Ġdepart": 4503,
      "ĠColumbia": 4504,
      "Ġinitiative": 4505,
      "Ġbelie": 4506,
      "Ġstarted": 4507,
      "Ġdrivers": 4508,
      "Ġrestoration": 4509,
      "Ġvisitors": 4510,
      "Ġproposed": 4511,
      "Ġencourage": 4512,
      "ĠCarol": 4513,
      "iosity": 4514,
      "Ġinstrument": 4515,
      "rizona": 4516,
      "klah": 4517,
      "CE": 4518,
      "FC": 4519,
      "iam": 4520,
      "ym": 4521,
      "ĠX": 4522,
      "inning": 4523,
      "alys": 4524,
      "Ġfoster": 4525,
      "itage": 4526,
      "Ġtox": 4527,
      "Ġmiss": 4528,
      "Ġretain": 4529,
      "Ġlength": 4530,
      "Ġstakehold": 4531,
      "rair": 4532,
      "ully": 4533,
      "ify": 4534,
      "ĠUse": 4535,
      "Ġusers": 4536,
      "Ġsyn": 4537,
      "Ġnever": 4538,
      "Ġletra": 4539,
      "Ġdiscovered": 4540,
      "Ġimproving": 4541,
      "Ġcarri": 4542,
      "ĠPhon": 4543,
      "Ġsignificantly": 4544,
      "Ġretrie": 4545,
      "Ġestimate": 4546,
      "Ġdiagnosed": 4547,
      "ĠLearn": 4548,
      "Ġmagnetic": 4549,
      "Ġsettings": 4550,
      "ĠFamily": 4551,
      "Ġworkshop": 4552,
      "ĠLessons": 4553,
      "Ġcaregivers": 4554,
      "Cons": 4555,
      "He": 4556,
      "UN": 4557,
      "try": 4558,
      "word": 4559,
      "Ġdu": 4560,
      "Ġund": 4561,
      "oto": 4562,
      "Ġintended": 4563,
      "Ġindex": 4564,
      "Ġmaintenance": 4565,
      "anging": 4566,
      "ĠYour": 4567,
      "Ġ2022": 4568,
      "Ġqualif": 4569,
      "Ġcapac": 4570,
      "Ġimprovement": 4571,
      "Ġgrowing": 4572,
      "Ġcombined": 4573,
      "Ġexperienced": 4574,
      "Ġremaining": 4575,
      "ĠBuilding": 4576,
      "ĠUsing": 4577,
      "Ġautom": 4578,
      "Ġwebsite": 4579,
      "28": 4580,
      "bacco": 4581,
      "field": 4582,
      "mm": 4583,
      "ogram": 4584,
      "tts": 4585,
      "Ġtobacco": 4586,
      "Ġthings": 4587,
      "Ġlog": 4588,
      "Ġwithdrawal": 4589,
      "ĠId": 4590,
      "ĠMc": 4591,
      "achuse": 4592,
      "ferences": 4593,
      "ologists": 4594,
      "Ġemphas": 4595,
      "tension": 4596,
      "Ġdiscover": 4597,
      "Ġ2015": 4598,
      "Ġbecame": 4599,
      "Ġmeasuring": 4600,
      "Ġaward": 4601,
      "Ġmember": 4602,
      "Ġrequirement": 4603,
      "Ġemployer": 4604,
      "Ġconfir": 4605,
      "Ġinvolves": 4606,
      "Ġweekly": 4607,
      "syll": 4608,
      "Ġcollaboration": 4609,
      "Ġexperiment": 4610,
      "ĠCongress": 4611,
      "ĠBerkeley": 4612,
      "achusetts": 4613,
      "RS": 4614,
      "part": 4615,
      "Ġaer": 4616,
      "onau": 4617,
      "tis": 4618,
      "alt": 4619,
      "ĠTest": 4620,
      "ĠTREC": 4621,
      "ĠAw": 4622,
      "imer": 4623,
      "Ġincl": 4624,
      "Ġrights": 4625,
      "ĠGo": 4626,
      "Ġfollowed": 4627,
      "Ġpurpos": 4628,
      "Ġmedia": 4629,
      "Ġproduct": 4630,
      "Ġoperating": 4631,
      "Ġencoding": 4632,
      "Ġdeaths": 4633,
      "ometers": 4634,
      "Ġcontinued": 4635,
      "ispanic": 4636,
      "Ġfinger": 4637,
      "ĠLegisl": 4638,
      "Ġsonido": 4639,
      "klahoma": 4640,
      "Ar": 4641,
      "Grade": 4642,
      "PI": 4643,
      "UT": 4644,
      "eff": 4645,
      "ÃŃ": 4646,
      "Ġtree": 4647,
      "rec": 4648,
      "Ġsouthern": 4649,
      "Ġcra": 4650,
      "Ġpic": 4651,
      "Ġfem": 4652,
      "Ġfarm": 4653,
      "Ġwest": 4654,
      "ano": 4655,
      "Ġmoving": 4656,
      "Ġbacter": 4657,
      "omic": 4658,
      "rag": 4659,
      "Ġvalu": 4660,
      "istered": 4661,
      "ureau": 4662,
      "uss": 4663,
      "Ġspeed": 4664,
      "ĠOut": 4665,
      "Ġrot": 4666,
      "Ġcompeti": 4667,
      "Ġjud": 4668,
      "Ġemp": 4669,
      "Ġarch": 4670,
      "Ġ2009": 4671,
      "Ġconnections": 4672,
      "Ġoccurred": 4673,
      "Ġcentral": 4674,
      "caption": 4675,
      "Ġcounties": 4676,
      "ĠConservation": 4677,
      "Ġcalcul": 4678,
      "Ġseparate": 4679,
      "Ġepisode": 4680,
      "ascular": 4681,
      "Ġopioid": 4682,
      "Ġroutine": 4683,
      "ĠSaturn": 4684,
      "07": 4685,
      "DS": 4686,
      "LI": 4687,
      "RI": 4688,
      "bor": 4689,
      "Ġcultural": 4690,
      "Ġpul": 4691,
      "Ġpiec": 4692,
      "ana": 4693,
      "olving": 4694,
      "Ġlaboratory": 4695,
      "Ġstories": 4696,
      "uries": 4697,
      "ĠArizona": 4698,
      "ĠPen": 4699,
      "Ġvic": 4700,
      "ĠNatural": 4701,
      "ĠRem": 4702,
      "Ġrhy": 4703,
      "Ġsuicide": 4704,
      "entive": 4705,
      "assini": 4706,
      "Ġunc": 4707,
      "Ġrod": 4708,
      "Ġjustice": 4709,
      "Ġdistance": 4710,
      "IDS": 4711,
      "ĠArmy": 4712,
      "ĠClass": 4713,
      "Ġregional": 4714,
      "Ġauthorized": 4715,
      "Ġreduced": 4716,
      "risk": 4717,
      "Ġelements": 4718,
      "Ġdiscussed": 4719,
      "Ġdietary": 4720,
      "Ġproteins": 4721,
      "Ġdegrees": 4722,
      "Ġeconomic": 4723,
      "Ġcitizens": 4724,
      "Ġsuggests": 4725,
      "ufact": 4726,
      "Ġpurposes": 4727,
      "BS": 4728,
      "Le": 4729,
      "ches": 4730,
      "Ġ<": 4731,
      "rests": 4732,
      "Ġcovered": 4733,
      "anks": 4734,
      "Ġmort": 4735,
      "Ġborn": 4736,
      "Ġnames": 4737,
      "ades": 4738,
      "ĠDivision": 4739,
      "Ġru": 4740,
      "Ġseed": 4741,
      "ĠOb": 4742,
      "ĠOld": 4743,
      "Ġdesc": 4744,
      "Ġskun": 4745,
      "Ġexpect": 4746,
      "Ġexplan": 4747,
      "Ġvisual": 4748,
      "ERS": 4749,
      "Ġconnection": 4750,
      "Ġinteractions": 4751,
      "Ġprotein": 4752,
      "Ġoutdoors": 4753,
      "rastructure": 4754,
      "Ġscenari": 4755,
      "--": 4756,
      "95": 4757,
      "Post": 4758,
      "bed": 4759,
      "fil": 4760,
      "yt": 4761,
      "inst": 4762,
      "reation": 4763,
      "Ġplease": 4764,
      "Ġwinter": 4765,
      "roduce": 4766,
      "Ġhospital": 4767,
      "ĠRel": 4768,
      "Ġalph": 4769,
      "ĠEd": 4770,
      "Ġinches": 4771,
      "alls": 4772,
      "alled": 4773,
      "ĠOther": 4774,
      "Ġinfected": 4775,
      "Ġclust": 4776,
      "ignment": 4777,
      "Ġoverview": 4778,
      "ĠChalleNGe": 4779,
      "oval": 4780,
      "Ġsurround": 4781,
      "ĠAdvis": 4782,
      "Ġadvanced": 4783,
      "Ġsolar": 4784,
      "Ġepid": 4785,
      "Ġprofessionals": 4786,
      "Ġoriginal": 4787,
      "Ġchoose": 4788,
      "Ġstructures": 4789,
      "Ġpreparation": 4790,
      "rairie": 4791,
      "Comm": 4792,
      "Mar": 4793,
      "PA": 4794,
      "inct": 4795,
      "Ġdom": 4796,
      "Ġmess": 4797,
      "Ġeye": 4798,
      "ĠSub": 4799,
      "verse": 4800,
      "ĠIS": 4801,
      "ador": 4802,
      "Ġleave": 4803,
      "Ġadministration": 4804,
      "Ġcontract": 4805,
      "ĠJr": 4806,
      "Ġaggression": 4807,
      "Ġevac": 4808,
      "Ġtrails": 4809,
      "Ġquick": 4810,
      "Ġstrategy": 4811,
      "ganization": 4812,
      "ancing": 4813,
      "Ġnumbers": 4814,
      "Ġinsurance": 4815,
      "Ġparticipated": 4816,
      "Ġconnect": 4817,
      "Ġcentury": 4818,
      "ictation": 4819,
      "Ġapplications": 4820,
      "scale": 4821,
      "being": 4822,
      "Ġcorresponding": 4823,
      "Ġemotional": 4824,
      "Ġphonemes": 4825,
      "ĠMassachusetts": 4826,
      "Ġcapacity": 4827,
      "GI": 4828,
      "Materials": 4829,
      "Sh": 4830,
      "co": 4831,
      "con": 4832,
      "equ": 4833,
      "iology": 4834,
      "kn": 4835,
      "oor": 4836,
      "rep": 4837,
      "Ġsense": 4838,
      "ename": 4839,
      "asure": 4840,
      "Ġhar": 4841,
      "omb": 4842,
      "raph": 4843,
      "nsyl": 4844,
      "Ġconcept": 4845,
      "Ġexhib": 4846,
      "Ġtele": 4847,
      "Ġprovision": 4848,
      "Ġcommand": 4849,
      "Ġmanaging": 4850,
      "Ġarri": 4851,
      "ĠUnion": 4852,
      "Ġdepth": 4853,
      "media": 4854,
      "Ġmolec": 4855,
      "escription": 4856,
      "Ġvegetation": 4857,
      "Ġvehicle": 4858,
      "ĠSalmon": 4859,
      "ĠCorps": 4860,
      "Ġfriends": 4861,
      "ĠTechnology": 4862,
      "Ġtradition": 4863,
      "nsylv": 4864,
      "EKS": 4865,
      "Solstice": 4866,
      "isure": 4867,
      "Ġfires": 4868,
      "Ġment": 4869,
      "Ġmitig": 4870,
      "Ġbed": 4871,
      "asons": 4872,
      "Ġreac": 4873,
      "ows": 4874,
      "Ġconst": 4875,
      "ĠRest": 4876,
      "ĠLa": 4877,
      "orders": 4878,
      "ewable": 4879,
      "ogen": 4880,
      "Ġcold": 4881,
      "Ġdiscovery": 4882,
      "Ġinside": 4883,
      "ĠPrograms": 4884,
      "Ġguidelines": 4885,
      "Ġbuildings": 4886,
      "Ġadvance": 4887,
      "Ġdriving": 4888,
      "Ġwrite": 4889,
      "ectiveness": 4890,
      "Ġproposal": 4891,
      "Ġobjective": 4892,
      "Ġaccurate": 4893,
      "Ġenrolled": 4894,
      "going": 4895,
      "Ġcameras": 4896,
      "ĠMississippi": 4897,
      "Ġspeak": 4898,
      "Ġjourney": 4899,
      "Ġhumans": 4900,
      "ĠProtection": 4901,
      "37": 4902,
      "64": 4903,
      "App": 4904,
      "After": 4905,
      "NASA": 4906,
      "OE": 4907,
      "cr": 4908,
      "come": 4909,
      "data": 4910,
      "na": 4911,
      "Ã±": 4912,
      "Ġ__": 4913,
      "Ġtri": 4914,
      "Ġtail": 4915,
      "Ġtakes": 4916,
      "Ġfav": 4917,
      "Ġfrequ": 4918,
      "Ġever": 4919,
      "Ġgard": 4920,
      "Ġgives": 4921,
      "ĠAM": 4922,
      "ĠPM": 4923,
      "emy": 4924,
      "istry": 4925,
      "Ġadministr": 4926,
      "Ġseat": 4927,
      "ĠOctober": 4928,
      "ĠOklahoma": 4929,
      "ĠJU": 4930,
      "Ġdisp": 4931,
      "Ġdecode": 4932,
      "Ġart": 4933,
      "Ġdepression": 4934,
      "ugg": 4935,
      "ĠArch": 4936,
      "ography": 4937,
      "Ġclassroom": 4938,
      "Ġchanged": 4939,
      "onomers": 4940,
      "Ġtopics": 4941,
      "ĠTransfer": 4942,
      "Ġsurveillance": 4943,
      "Ġfailure": 4944,
      "valuation": 4945,
      "66": 4946,
      "rig": 4947,
      "atically": 4948,
      "Ġpages": 4949,
      "roke": 4950,
      "itable": 4951,
      "Ġtown": 4952,
      "acial": 4953,
      "ĠCassini": 4954,
      "eth": 4955,
      "Ġupper": 4956,
      "ĠRE": 4957,
      "ocal": 4958,
      "Ġdisabilities": 4959,
      "Ġclosed": 4960,
      "Ġchildhood": 4961,
      "Ġworked": 4962,
      "Ġphase": 4963,
      "Ġinteract": 4964,
      "Ġadded": 4965,
      "Ġamounts": 4966,
      "ĠForce": 4967,
      "Ġremoved": 4968,
      "Ġmedications": 4969,
      "Ġtechnologies": 4970,
      "Ġpolice": 4971,
      "Ġviral": 4972,
      "Ġelected": 4973,
      "iscal": 4974,
      "Ġreflect": 4975,
      "Ġstructured": 4976,
      "Ġrecognized": 4977,
      "Ġchemicals": 4978,
      "Ġaccuracy": 4979,
      "Ġsuggested": 4980,
      "Ġecosystems": 4981,
      "Ġsurveys": 4982,
      "ĠMexico": 4983,
      "ĠGovernor": 4984,
      "UC": 4985,
      "card": 4986,
      "iov": 4987,
      "rm": 4988,
      "tt": 4989,
      "uel": 4990,
      "vision": 4991,
      "inook": 4992,
      "Ġcards": 4993,
      "Ġcumulative": 4994,
      "Ġfair": 4995,
      "Ġfully": 4996,
      "arge": 4997,
      "Ġbig": 4998,
      "ions": 4999,
      "Ġren": 5000,
      "Ġearth": 5001,
      "ĠART": 5002,
      "uto": 5003,
      "ĠFOR": 5004,
      "ocks": 5005,
      "Ġheavy": 5006,
      "Ġshift": 5007,
      "iber": 5008,
      "Ġscale": 5009,
      "tives": 5010,
      "acebook": 5011,
      "ĠThat": 5012,
      "Ġhighly": 5013,
      "Ġsurv": 5014,
      "Ġallowing": 5015,
      "Ġcriter": 5016,
      "Ġintroducing": 5017,
      "Ġequal": 5018,
      "Ġauthority": 5019,
      "Ġerup": 5020,
      "Ġisolated": 5021,
      "ĠVeteran": 5022,
      "Child": 5023,
      "Ġpredic": 5024,
      "spelling": 5025,
      "Ġcells": 5026,
      "Ġasked": 5027,
      "Ġclinical": 5028,
      "Ġhunting": 5029,
      "Ġliteracy": 5030,
      "Ġbenefic": 5031,
      "Ġvaluable": 5032,
      "During": 5033,
      "PM": 5034,
      "flow": 5035,
      "pul": 5036,
      "sec": 5037,
      "wh": 5038,
      "Ġ+": 5039,
      "inf": 5040,
      "hem": 5041,
      "Ġcul": 5042,
      "ised": 5043,
      "Ġforward": 5044,
      "ĠAction": 5045,
      "ĠFork": 5046,
      "Ġvia": 5047,
      "ĠNative": 5048,
      "ĠDav": 5049,
      "Ġrural": 5050,
      "ĠGrand": 5051,
      "Ġplaces": 5052,
      "ĠJack": 5053,
      "Ġcommerc": 5054,
      "Ġmanufact": 5055,
      "Ġneigh": 5056,
      "Ġtimer": 5057,
      "Ġparticipating": 5058,
      "Ġbehaviors": 5059,
      "selves": 5060,
      "apping": 5061,
      "Ġsensitive": 5062,
      "month": 5063,
      "clusion": 5064,
      "ĠAssessments": 5065,
      "Ġorigin": 5066,
      "ĠCenters": 5067,
      "Ġroads": 5068,
      "Ġconsistent": 5069,
      "Ġlicensed": 5070,
      "Ġsegregation": 5071,
      "Ġsatellite": 5072,
      "55": 5073,
      "75": 5074,
      "Do": 5075,
      "National": 5076,
      "QA": 5077,
      "RA": 5078,
      "cont": 5079,
      "nic": 5080,
      "Ġtell": 5081,
      "esity": 5082,
      "Ġsigns": 5083,
      "Ġliqu": 5084,
      "seling": 5085,
      "ĠField": 5086,
      "ĠBureau": 5087,
      "andemic": 5088,
      "ĠLanguage": 5089,
      "itivity": 5090,
      "Ġsecure": 5091,
      "oves": 5092,
      "Ġpeer": 5093,
      "ĠHead": 5094,
      "Ġinvasive": 5095,
      "Ġnumer": 5096,
      "cribed": 5097,
      "Ġoperate": 5098,
      "Ġdetection": 5099,
      "Ġfinding": 5100,
      "Ġbridge": 5101,
      "Ġindicates": 5102,
      "Ġvolc": 5103,
      "Ġvalid": 5104,
      "ĠParticip": 5105,
      "ennes": 5106,
      "Ġdegree": 5107,
      "Ġprepare": 5108,
      "ĠCuriosity": 5109,
      "Ġexercise": 5110,
      "ĠSenate": 5111,
      "ĠLegislature": 5112,
      "Ġmortality": 5113,
      "ĠAdvisory": 5114,
      "CA": 5115,
      "PL": 5116,
      "QU": 5117,
      "aim": 5118,
      "col": 5119,
      "eep": 5120,
      "pite": 5121,
      "ru": 5122,
      "Ġtube": 5123,
      "Ġsed": 5124,
      "Ġmechan": 5125,
      "ician": 5126,
      "omas": 5127,
      "ĠSn": 5128,
      "ĠSociety": 5129,
      "ĠCH": 5130,
      "Ġstra": 5131,
      "Ġstock": 5132,
      "owl": 5133,
      "Ġupt": 5134,
      "terf": 5135,
      "Ġoral": 5136,
      "ĠDem": 5137,
      "usive": 5138,
      "Ġspell": 5139,
      "luding": 5140,
      "ipse": 5141,
      "ipul": 5142,
      "ipitation": 5143,
      "Ġapplied": 5144,
      "ousands": 5145,
      "Ġsave": 5146,
      "Ġformed": 5147,
      "avirus": 5148,
      "Ġinvest": 5149,
      "Ġ60": 5150,
      "Ġpersonnel": 5151,
      "ropical": 5152,
      "Ġsupplies": 5153,
      "irds": 5154,
      "Ġelectronic": 5155,
      "Ġsmaller": 5156,
      "porary": 5157,
      "Ġindicate": 5158,
      "Ġeffectively": 5159,
      "Ġexplicitly": 5160,
      "retary": 5161,
      "Ġeasy": 5162,
      "ĠBridge": 5163,
      "ĠDesert": 5164,
      "Ġsessions": 5165,
      "Ġfront": 5166,
      "Ġclicked": 5167,
      "Ġtoxic": 5168,
      "Ġuptake": 5169,
      "87": 5170,
      "Fe": 5171,
      "dd": 5172,
      "lier": 5173,
      "heast": 5174,
      "Ġfill": 5175,
      "Ġwa": 5176,
      "rost": 5177,
      "asters": 5178,
      "Ġreally": 5179,
      "Ġthousands": 5180,
      "ĠMuseum": 5181,
      "ocated": 5182,
      "Ġalg": 5183,
      "Ġleisure": 5184,
      "Ġwaste": 5185,
      "These": 5186,
      "rently": 5187,
      "Ġpeat": 5188,
      "Ġstudying": 5189,
      "ancer": 5190,
      "Ġ70": 5191,
      "Ġimproved": 5192,
      "Ġcruc": 5193,
      "Ġshowed": 5194,
      "isease": 5195,
      "Ġresponsibility": 5196,
      "Ġelectro": 5197,
      "Ġimplementing": 5198,
      "ĠSchools": 5199,
      "Ġmeasured": 5200,
      "extra": 5201,
      "ourage": 5202,
      "Ġselected": 5203,
      "Ġoutdoor": 5204,
      "Ġerror": 5205,
      "Image": 5206,
      "Ġsitu": 5207,
      "Ġagricultural": 5208,
      "emetery": 5209,
      "ĠPennsylv": 5210,
      "Ġvictim": 5211,
      "filename": 5212,
      "ennessee": 5213,
      "GBT": 5214,
      "Su": 5215,
      "TC": 5216,
      "cast": 5217,
      "coming": 5218,
      "list": 5219,
      "rison": 5220,
      "Ġrib": 5221,
      "erg": 5222,
      "orre": 5223,
      "ĠTrib": 5224,
      "ĠPost": 5225,
      "ĠIll": 5226,
      "ĠFort": 5227,
      "ĠFair": 5228,
      "Ġ27": 5229,
      "ocide": 5230,
      "Ġchronic": 5231,
      "ĠEff": 5232,
      "Ġrich": 5233,
      "Ġresil": 5234,
      "agers": 5235,
      "Ġclos": 5236,
      "Ġago": 5237,
      "Ġcollec": 5238,
      "Ġblock": 5239,
      "Ġnotice": 5240,
      "Ġdevelopmental": 5241,
      "Ġofficer": 5242,
      "ospatial": 5243,
      "ĠSequ": 5244,
      "Ġcommonly": 5245,
      "Ġmoon": 5246,
      "Ġmeeting": 5247,
      "ĠEco": 5248,
      "Ġmicrobial": 5249,
      "ĠSpecial": 5250,
      "Ġvocational": 5251,
      "Ġelectricity": 5252,
      "oultry": 5253,
      "Ġsusp": 5254,
      "ĠCarolina": 5255,
      "Ġstakeholders": 5256,
      "instance": 5257,
      "500": 5258,
      "Rep": 5259,
      "Sum": 5260,
      "iary": 5261,
      "mar": 5262,
      "pective": 5263,
      "wr": 5264,
      "Ã¡": 5265,
      "ream": 5266,
      "Ġsold": 5267,
      "Ġfault": 5268,
      "road": 5269,
      "ito": 5270,
      "Ġrepl": 5271,
      "omal": 5272,
      "ĠCave": 5273,
      "urally": 5274,
      "celer": 5275,
      "ĠARE": 5276,
      "ĠHol": 5277,
      "ĠHear": 5278,
      "Ġshared": 5279,
      "orms": 5280,
      "ĠJoe": 5281,
      "Ġcompar": 5282,
      "Ġstrugg": 5283,
      "Ġemail": 5284,
      "Ġtransl": 5285,
      "Ġobesity": 5286,
      "Ġreaders": 5287,
      "Ġpoliti": 5288,
      "Ġmodeling": 5289,
      "Ġshowing": 5290,
      "Ġsupplement": 5291,
      "Ġpotentially": 5292,
      "Ġpracticing": 5293,
      "ĠQA": 5294,
      "Ġinteraction": 5295,
      "Ġdiagnosis": 5296,
      "ĠSupport": 5297,
      "Ġrunning": 5298,
      "Ġintegrated": 5299,
      "othing": 5300,
      "Ġgauges": 5301,
      "Ġmeaning": 5302,
      "Ġnavigation": 5303,
      "Ġphotographs": 5304,
      "Ġhonor": 5305,
      "pulsion": 5306,
      "Ġcrucial": 5307,
      "06": 5308,
      "WS": 5309,
      "ses": 5310,
      "inforcing": 5311,
      "Ġdone": 5312,
      "ĠTwo": 5313,
      "Ġlines": 5314,
      "Ġforce": 5315,
      "cell": 5316,
      "Ġvary": 5317,
      "ĠHer": 5318,
      "ĠDan": 5319,
      "Ġheight": 5320,
      "unction": 5321,
      "ounced": 5322,
      "ibilities": 5323,
      "Ġregistration": 5324,
      "Ġdecl": 5325,
      "Ġconson": 5326,
      "Ġready": 5327,
      "Ġincreases": 5328,
      "Ġblue": 5329,
      "ĠTrack": 5330,
      "Ġpattern": 5331,
      "ĠResp": 5332,
      "Ġ856": 5333,
      "Ġsupply": 5334,
      "Ġaffected": 5335,
      "ĠAssoci": 5336,
      "ĠSTS": 5337,
      "tificial": 5338,
      "Ġoutcome": 5339,
      "Ġpredict": 5340,
      "fficient": 5341,
      "Ġarticle": 5342,
      "Ġcamera": 5343,
      "Ġmicrobes": 5344,
      "oplas": 5345,
      "ĠAwareness": 5346,
      "iovascular": 5347,
      "49": 5348,
      "Our": 5349,
      "UD": 5350,
      "date": 5351,
      "eing": 5352,
      "nes": 5353,
      "oo": 5354,
      "su": 5355,
      "Ġ.": 5356,
      "Ġsem": 5357,
      "ann": 5358,
      "ĠTEKS": 5359,
      "Ġnight": 5360,
      "Ġproceed": 5361,
      "ĠPrac": 5362,
      "Ġconver": 5363,
      "ĠBas": 5364,
      "ivered": 5365,
      "Ġinfrastructure": 5366,
      "auth": 5367,
      "Ġparks": 5368,
      "Ġcompany": 5369,
      "Ġexamined": 5370,
      "Ġplanned": 5371,
      "Ġperspective": 5372,
      "Ġdepos": 5373,
      "Ġsmoking": 5374,
      "ĠCommon": 5375,
      "omestic": 5376,
      "ĠCloud": 5377,
      "Ġsolid": 5378,
      "Ġdemand": 5379,
      "Ġsales": 5380,
      "raction": 5381,
      "urban": 5382,
      "||||||||": 5383,
      "erkel": 5384,
      "Ġphenotyp": 5385,
      "Ġtowards": 5386,
      "Ġdatas": 5387,
      "Ġarrange": 5388,
      "Ġdepartments": 5389,
      "alysis": 5390,
      "Ġquickly": 5391,
      "Ġfavor": 5392,
      "54": 5393,
      "Join": 5394,
      "rin": 5395,
      "ras": 5396,
      "atform": 5397,
      "Ġfellow": 5398,
      "Ġflex": 5399,
      "Ġdivid": 5400,
      "Ġmob": 5401,
      "Ġbase": 5402,
      "astern": 5403,
      "Ġeth": 5404,
      "imension": 5405,
      "abol": 5406,
      "ĠMany": 5407,
      "ota": 5408,
      "ott": 5409,
      "Ġvibr": 5410,
      "Ġaccept": 5411,
      "Ġalmost": 5412,
      "ĠStation": 5413,
      "ĠStart": 5414,
      "Ġplaced": 5415,
      "Ġpermit": 5416,
      "Ġroles": 5417,
      "Ġexperts": 5418,
      "Ġnovel": 5419,
      "ĠWilderness": 5420,
      "Ġaccessible": 5421,
      "Ġcertified": 5422,
      "regon": 5423,
      "ĠImpro": 5424,
      "Ġelement": 5425,
      "Ġgalaxy": 5426,
      "Ġstatistically": 5427,
      "known": 5428,
      "%.": 5429,
      "01": 5430,
      "Ac": 5431,
      "CH": 5432,
      "PP": 5433,
      "Se": 5434,
      "UND": 5435,
      "eu": 5436,
      "iences": 5437,
      "sound": 5438,
      "wood": 5439,
      "worn": 5440,
      "atom": 5441,
      "Ġcore": 5442,
      "Ġmach": 5443,
      "ilab": 5444,
      "ĠTennessee": 5445,
      "ĠPort": 5446,
      "Ġanti": 5447,
      "oday": 5448,
      "Ġtex": 5449,
      "plore": 5450,
      "ĠOcean": 5451,
      "Ġusually": 5452,
      "Ġinfod": 5453,
      "Ġ33": 5454,
      "Ġ38": 5455,
      "Ġuniverse": 5456,
      "Ġinternal": 5457,
      "Ġbooks": 5458,
      "ĠTeam": 5459,
      "oney": 5460,
      "ryst": 5461,
      "Ġparticular": 5462,
      "Ġpartner": 5463,
      "Ġcurve": 5464,
      "ĠReserve": 5465,
      "Ġcarry": 5466,
      "Ġtested": 5467,
      "certain": 5468,
      "Ġcapital": 5469,
      "Ġclasses": 5470,
      "While": 5471,
      "Ġeveryone": 5472,
      "Ġoccurs": 5473,
      "____": 5474,
      "........": 5475,
      "Ġlooking": 5476,
      "Ġinjuries": 5477,
      "Ġhappens": 5478,
      "lamation": 5479,
      "ĠMedical": 5480,
      "ĠGrant": 5481,
      "Ġdistribution": 5482,
      "Ġaspen": 5483,
      "Ġvehicles": 5484,
      "ĠMountain": 5485,
      "Ġalternative": 5486,
      "ĠWilliam": 5487,
      "Ġkilometers": 5488,
      "ĠGeorge": 5489,
      "Ġpicture": 5490,
      "()": 5491,
      ");": 5492,
      "02": 5493,
      "42": 5494,
      "46": 5495,
      "52": 5496,
      "53": 5497,
      "Qu": 5498,
      "from": 5499,
      "person": 5500,
      "rated": 5501,
      "vents": 5502,
      "ygen": 5503,
      "Ġten": 5504,
      "inations": 5505,
      "Ġsen": 5506,
      "Ġstic": 5507,
      "Ġduration": 5508,
      "Ġbal": 5509,
      "lements": 5510,
      "Ġthing": 5511,
      "Ġlin": 5512,
      "Ġprogression": 5513,
      "urning": 5514,
      "nson": 5515,
      "rief": 5516,
      "Ġyield": 5517,
      "Ġvision": 5518,
      "ĠHawa": 5519,
      "ĠNI": 5520,
      "ĠLakes": 5521,
      "Ġran": 5522,
      "Ġspect": 5523,
      "Ġtry": 5524,
      "Ġcomposition": 5525,
      "Ġuseful": 5526,
      "Ġboat": 5527,
      "Ġmeta": 5528,
      "Ġremind": 5529,
      "Ġsomeone": 5530,
      "venture": 5531,
      "athy": 5532,
      "Ġvect": 5533,
      "Ġavailability": 5534,
      "Ġchallenging": 5535,
      "Ġproperties": 5536,
      "Ġ1996": 5537,
      "Ġserving": 5538,
      "Ġcounseling": 5539,
      "Ġconcern": 5540,
      "Ġeconomy": 5541,
      "ĠAbout": 5542,
      "Ġcriteria": 5543,
      "Ġcommercial": 5544,
      "Ġribos": 5545,
      "04": 5546,
      "MC": 5547,
      "Op": 5548,
      "TED": 5549,
      "ded": 5550,
      "hio": 5551,
      "ky": 5552,
      "waters": 5553,
      "Ġtall": 5554,
      "Ġtrial": 5555,
      "Ġtalk": 5556,
      "inu": 5557,
      "Ġpandemic": 5558,
      "Ġfoot": 5559,
      "enty": 5560,
      "âĢ¦": 5561,
      "ĠPad": 5562,
      "ĠPass": 5563,
      "ĠPBS": 5564,
      "ĠFin": 5565,
      "umes": 5566,
      "Ġspaces": 5567,
      "ĠOhio": 5568,
      "Ġmanner": 5569,
      "ĠThrough": 5570,
      "Ġfever": 5571,
      "efore": 5572,
      "Ġsubsequ": 5573,
      "Ġbecoming": 5574,
      "Ġreporting": 5575,
      "ought": 5576,
      "Ġorganized": 5577,
      "Ġsuppression": 5578,
      "ĠCommit": 5579,
      "ĠTeachers": 5580,
      "ĠAsk": 5581,
      "Ġplacement": 5582,
      "Ġreduction": 5583,
      "ictures": 5584,
      "Ġelev": 5585,
      "Ġinjured": 5586,
      "ĠHistory": 5587,
      "Ġmusc": 5588,
      "Ġcelebrate": 5589,
      "Ġcriminal": 5590,
      "Ġrapidly": 5591,
      "ĠPennsylvania": 5592,
      "Over": 5593,
      "lin": 5594,
      "lings": 5595,
      "mas": 5596,
      "pm": 5597,
      "rist": 5598,
      "rich": 5599,
      "Ġur": 5600,
      "real": 5601,
      "Ġslow": 5602,
      "Ġsays": 5603,
      "ndom": 5604,
      "tian": 5605,
      "Ġfat": 5606,
      "Ġdoll": 5607,
      "leep": 5608,
      "Ġreact": 5609,
      "Ġhor": 5610,
      "Ġlat": 5611,
      "ĠCS": 5612,
      "ĠCirc": 5613,
      "Ġgot": 5614,
      "ĠAC": 5615,
      "ĠPat": 5616,
      "rior": 5617,
      "Ġspent": 5618,
      "Ġscope": 5619,
      "ĠJoin": 5620,
      "Ġmanaged": 5621,
      "tivities": 5622,
      "ĠâĢĺ": 5623,
      "ĠThree": 5624,
      "tingu": 5625,
      "ointed": 5626,
      "Ġcompleting": 5627,
      "Ġrandom": 5628,
      "Ġ767": 5629,
      "ternal": 5630,
      "ĠPluto": 5631,
      "Ġresponses": 5632,
      "Ġsampl": 5633,
      "Ġfoods": 5634,
      "Ġinitiatives": 5635,
      "Ġwalk": 5636,
      "undred": 5637,
      "Ġdemonstrate": 5638,
      "Ġprecipitation": 5639,
      "Ġentry": 5640,
      "Ġcaptured": 5641,
      "Ġenrollment": 5642,
      "Ġdamage": 5643,
      "Ġsustainable": 5644,
      "Ġpoor": 5645,
      "Ġcategories": 5646,
      "Ġlegislation": 5647,
      "Ġhyper": 5648,
      "ĠAngeles": 5649,
      "Each": 5650,
      "MS": 5651,
      "POD": 5652,
      "Ġfra": 5653,
      "Ġdrop": 5654,
      "Ġmom": 5655,
      "Ġbreat": 5656,
      "Ġberkel": 5657,
      "Ġhousing": 5658,
      "olesc": 5659,
      "ĠCode": 5660,
      "eta": 5661,
      "Ġgaps": 5662,
      "ĠPath": 5663,
      "odd": 5664,
      "ĠHel": 5665,
      "opes": 5666,
      "ĠEvery": 5667,
      "urer": 5668,
      "Ġseven": 5669,
      "arten": 5670,
      "Ġintent": 5671,
      "Ġintroduce": 5672,
      "Ġcolle": 5673,
      "Ġkm": 5674,
      "Ġapproval": 5675,
      "Ġbugs": 5676,
      "ectively": 5677,
      "Ġextent": 5678,
      "Ġimprovements": 5679,
      "ĠCollege": 5680,
      "Ġfung": 5681,
      "Ġdriver": 5682,
      "airs": 5683,
      "Ġlowest": 5684,
      "ĠMonitor": 5685,
      "Ġengineering": 5686,
      "Ġinstead": 5687,
      "Ġcircum": 5688,
      "ĠSafe": 5689,
      "ĠCentral": 5690,
      "ĠEngland": 5691,
      "Ġfacilitate": 5692,
      "Ġtraditional": 5693,
      "ergarten": 5694,
      "ĠEcoPOD": 5695,
      "Ġtexts": 5696,
      "'re": 5697,
      "Americ": 5698,
      "From": 5699,
      "Volume": 5700,
      "cks": 5701,
      "mark": 5702,
      "oose": 5703,
      "rim": 5704,
      "Ġauth": 5705,
      "Ġcou": 5706,
      "Ġpil": 5707,
      "Ġport": 5708,
      "Ġfiles": 5709,
      "Ġwon": 5710,
      "itz": 5711,
      "Ġdro": 5712,
      "Ġdou": 5713,
      "Ġmount": 5714,
      "icine": 5715,
      "Ġburn": 5716,
      "acent": 5717,
      "Ġhike": 5718,
      "olve": 5719,
      "Ġlif": 5720,
      "ĠCancer": 5721,
      "Ġstage": 5722,
      "ĠWhite": 5723,
      "ĠMap": 5724,
      "Ġextingu": 5725,
      "ĠNature": 5726,
      "ĠRay": 5727,
      "ĠDNA": 5728,
      "ĠEmer": 5729,
      "Ġattention": 5730,
      "Ġsho": 5731,
      "Ġshot": 5732,
      "ctl": 5733,
      "ĠOregon": 5734,
      "Ġplatform": 5735,
      "Ġprison": 5736,
      "Ġdisorders": 5737,
      "Ġprogramming": 5738,
      "Ġ39": 5739,
      "Ġparties": 5740,
      "ĠChinook": 5741,
      "Ġeffectiveness": 5742,
      "Ġtraffic": 5743,
      "Ġgenome": 5744,
      "Ġthemselves": 5745,
      "ferred": 5746,
      "Ġfunded": 5747,
      "Ġsignal": 5748,
      "fulness": 5749,
      "Ġ80": 5750,
      "Ġsupplements": 5751,
      "Ġdelay": 5752,
      "Ġvirtual": 5753,
      "Ġconflic": 5754,
      "Ġchanging": 5755,
      "Ġrepresentative": 5756,
      "glers": 5757,
      "ĠAcad": 5758,
      "Ġmajority": 5759,
      "Ġdecreased": 5760,
      "Ġprinciples": 5761,
      "Ġscenarios": 5762,
      "Ġliquid": 5763,
      "ĠSequence": 5764,
      "Ġphenotypic": 5765,
      "->": 5766,
      "32": 5767,
      "Episode": 5768,
      "LO": 5769,
      "LS": 5770,
      "More": 5771,
      "New": 5772,
      "Us": 5773,
      "bl": 5774,
      "case": 5775,
      "foot": 5776,
      "vest": 5777,
      "Ä«": 5778,
      "inity": 5779,
      "report": 5780,
      "Ġcust": 5781,
      "isd": 5782,
      "ingu": 5783,
      "edia": 5784,
      "Ġdraw": 5785,
      "Ġdanger": 5786,
      "Ġbod": 5787,
      "Ġgiving": 5788,
      "ĠMaster": 5789,
      "ading": 5790,
      "uttle": 5791,
      "ĠForm": 5792,
      "unic": 5793,
      "uma": 5794,
      "osqu": 5795,
      "ĠStand": 5796,
      "aching": 5797,
      "Ġker": 5798,
      "Ġindust": 5799,
      "Ġ2013": 5800,
      "Ġprotected": 5801,
      "Ġvisits": 5802,
      "Ġorganisms": 5803,
      "Ġadvoc": 5804,
      "Ġreviews": 5805,
      "Ġsolutions": 5806,
      "Ġbiological": 5807,
      "Ġnearby": 5808,
      "Ġissued": 5809,
      "Ġ1999": 5810,
      "engue": 5811,
      "Ġreasonable": 5812,
      "Ġshel": 5813,
      "Ġgravity": 5814,
      "Ġjobs": 5815,
      "ĠReport": 5816,
      "Ġetc": 5817,
      "Ġsubstan": 5818,
      "ĠAgric": 5819,
      "ĠMexican": 5820,
      "Ġrepeat": 5821,
      "burg": 5822,
      "Ġvulnerability": 5823,
      "Ġlibraries": 5824,
      "specific": 5825,
      "Ġevacuation": 5826,
      "orrect": 5827,
      "68": 5828,
      "99": 5829,
      "Bl": 5830,
      "Co": 5831,
      "SC": 5832,
      "kes": 5833,
      "oen": 5834,
      "eries": 5835,
      "Ġsand": 5836,
      "ena": 5837,
      "Ġcogn": 5838,
      "Ġinput": 5839,
      "arr": 5840,
      "Ġmoney": 5841,
      "icians": 5842,
      "Ġbrief": 5843,
      "Ġreference": 5844,
      "iling": 5845,
      "Ġeat": 5846,
      "Ġhundred": 5847,
      "ĠSl": 5848,
      "iral": 5849,
      "ĠParent": 5850,
      "eless": 5851,
      "ĠMain": 5852,
      "Ġexcept": 5853,
      "ĠDelta": 5854,
      "ĠLos": 5855,
      "Ġenable": 5856,
      "Ġadequ": 5857,
      "antavirus": 5858,
      "ival": 5859,
      "ĠIniti": 5860,
      "Ġneut": 5861,
      "ustin": 5862,
      "ĠVerm": 5863,
      "Ġdecades": 5864,
      "Ġdistinct": 5865,
      "Ġtechnique": 5866,
      "roduction": 5867,
      "Ġengaging": 5868,
      "Ġregulations": 5869,
      "ĠColl": 5870,
      "Ġfunctions": 5871,
      "Ġadvis": 5872,
      "Ġlanding": 5873,
      "Ġintroduces": 5874,
      "Ġannually": 5875,
      "Ġinterests": 5876,
      "Ġrestore": 5877,
      "Ġcounsel": 5878,
      "Ġversion": 5879,
      "ĠJohnson": 5880,
      "Ġcopy": 5881,
      "Ġattendance": 5882,
      "Ġthought": 5883,
      "Ġopioids": 5884,
      "Ġefficiency": 5885,
      "United": 5886,
      "ĠAmong": 5887,
      "Ġbehind": 5888,
      "Ġalphab": 5889,
      "ĠAssociation": 5890,
      "ĠVermont": 5891,
      "At": 5892,
      "Aid": 5893,
      "By": 5894,
      "CM": 5895,
      "Have": 5896,
      "IP": 5897,
      "JFK": 5898,
      "NL": 5899,
      "OM": 5900,
      "Rec": 5901,
      "gu": 5902,
      "men": 5903,
      "reach": 5904,
      "orb": 5905,
      "Ġfiscal": 5906,
      "Ġtouch": 5907,
      "Ġmouth": 5908,
      "Ġmatch": 5909,
      "Ġmamm": 5910,
      "stone": 5911,
      "omon": 5912,
      "Ġprop": 5913,
      "Ġpropor": 5914,
      "cel": 5915,
      "ĠAff": 5916,
      "amous": 5917,
      "ulations": 5918,
      "ĠID": 5919,
      "ĠDi": 5920,
      "Ġincome": 5921,
      "Ġrace": 5922,
      "ĠSte": 5923,
      "Ġinten": 5924,
      "ĠVoy": 5925,
      "Ġfollows": 5926,
      "ĠThomas": 5927,
      "Ġnewly": 5928,
      "ondary": 5929,
      "titutions": 5930,
      "Ġleads": 5931,
      "Ġscientist": 5932,
      "Ġsignificance": 5933,
      "Ġbright": 5934,
      "Ġcharge": 5935,
      "Ġafford": 5936,
      "ĠTraining": 5937,
      "Ġvolume": 5938,
      "Ġpassed": 5939,
      "Ġsensitivity": 5940,
      "ĠMonument": 5941,
      "ĠTransport": 5942,
      "Ġcommitted": 5943,
      "Ġhydrogen": 5944,
      "Ġincorporate": 5945,
      "Ġgauge": 5946,
      "Ġtribal": 5947,
      "Ġgraduate": 5948,
      "Ġmixed": 5949,
      "Postcard": 5950,
      "Ġmessage": 5951,
      "Ġrenewable": 5952,
      "author": 5953,
      "ĠVoyager": 5954,
      "Che": 5955,
      "DH": 5956,
      "FR": 5957,
      "NC": 5958,
      "aust": 5959,
      "fit": 5960,
      "free": 5961,
      "lights": 5962,
      "oop": 5963,
      "sctl": 5964,
      "whe": 5965,
      "Ġx": 5966,
      "Ġtips": 5967,
      "Ġcut": 5968,
      "Ġcrop": 5969,
      "Ġpounds": 5970,
      "Ġpump": 5971,
      "alo": 5972,
      "Ġfly": 5973,
      "itness": 5974,
      "Ġtour": 5975,
      "Ġmoved": 5976,
      "ĠTime": 5977,
      "Ġlists": 5978,
      "iment": 5979,
      "Ġongoing": 5980,
      "ama": 5981,
      "Ġvit": 5982,
      "Ġcomes": 5983,
      "ĠDet": 5984,
      "Ġacid": 5985,
      "ocaust": 5986,
      "unization": 5987,
      "Ġalone": 5988,
      "ĠLGBT": 5989,
      "ighter": 5990,
      "Ġdeb": 5991,
      "Ġresistance": 5992,
      "entif": 5993,
      "Ġuser": 5994,
      "Ġclerk": 5995,
      "Ġsysctl": 5996,
      "Ġpurch": 5997,
      "Ġexamine": 5998,
      "Ġrespectively": 5999,
      "Ġremove": 6000,
      "2020": 6001,
      "Ġdirections": 6002,
      "Ġ75": 6003,
      "rown": 6004,
      "Ġ2002": 6005,
      "ENV": 6006,
      "Ġbackground": 6007,
      "Ġsecondary": 6008,
      "ĠBoeing": 6009,
      "Ġrepresenting": 6010,
      "Ġcontribut": 6011,
      "ĠPlanning": 6012,
      "aska": 6013,
      "Ġgenerally": 6014,
      "ĠRegion": 6015,
      "Ġregardless": 6016,
      "Ġkeeping": 6017,
      "Ġerrors": 6018,
      "Ġanalyze": 6019,
      "Ġideas": 6020,
      "Ġvolunteer": 6021,
      "Ġadminister": 6022,
      "Ġcontrolled": 6023,
      "ĠCommittee": 6024,
      "08": 6025,
      "94": 6026,
      "HE": 6027,
      "LB": 6028,
      "No": 6029,
      "iat": 6030,
      "making": 6031,
      "ventive": 6032,
      "zz": 6033,
      "Ġ00": 6034,
      "reate": 6035,
      "Ġfreed": 6036,
      "Ġwestern": 6037,
      "antic": 6038,
      "Ġdiversity": 6039,
      "Ġrevenue": 6040,
      "acier": 6041,
      "ompl": 6042,
      "ĠCam": 6043,
      "ĠWay": 6044,
      "urday": 6045,
      "Ġgay": 6046,
      "abstract": 6047,
      "iff": 6048,
      "ĠFour": 6049,
      "Ġcoming": 6050,
      "empt": 6051,
      "ĠNow": 6052,
      "ĠDisease": 6053,
      "Ġacceler": 6054,
      "Ġshape": 6055,
      "ĠStat": 6056,
      "Ġprint": 6057,
      "uea": 6058,
      "Ġmeals": 6059,
      "Ġroom": 6060,
      "enses": 6061,
      "Ġjoint": 6062,
      "Ġnews": 6063,
      "Ġconsent": 6064,
      "angers": 6065,
      "ĠChar": 6066,
      "Ġ49": 6067,
      "Ġarc": 6068,
      "Ġobjects": 6069,
      "Ġexpress": 6070,
      "times": 6071,
      "Ġblending": 6072,
      "Ġremoval": 6073,
      "Ġ2011": 6074,
      "Ġ2012": 6075,
      "Ġinstitutions": 6076,
      "Ġpopular": 6077,
      "Ġcalls": 6078,
      "Ġtempl": 6079,
      "chery": 6080,
      "Ġesta": 6081,
      "Ġinvolving": 6082,
      "capes": 6083,
      "ĠShort": 6084,
      "Ġwanted": 6085,
      "Ġatmospheric": 6086,
      "Ġradio": 6087,
      "umption": 6088,
      "Ġdetails": 6089,
      "Ġofficials": 6090,
      "ĠSystems": 6091,
      "Ġanalyzed": 6092,
      "ĠFrank": 6093,
      "Ġoutbreaks": 6094,
      "Ġadapt": 6095,
      "Ġcrimes": 6096,
      "ĠProviding": 6097,
      "lauea": 6098,
      "ĠStudentAid": 6099,
      "Ġschedule": 6100,
      "Ġoxygen": 6101,
      "Ġauthors": 6102,
      "Ä«lauea": 6103,
      "Ġkernel": 6104,
      "41": 6105,
      "Part": 6106,
      "RP": 6107,
      "des": 6108,
      "long": 6109,
      "oral": 6110,
      "orus": 6111,
      "Ġcredit": 6112,
      "Ġpictures": 6113,
      "roph": 6114,
      "Ġdoses": 6115,
      "Ġdomestic": 6116,
      "ĠTer": 6117,
      "ĠTool": 6118,
      "ĠSund": 6119,
      "ĠWy": 6120,
      "ameter": 6121,
      "ĠTheir": 6122,
      "Ġord": 6123,
      "Ġconference": 6124,
      "ĠMen": 6125,
      "ĠFerm": 6126,
      "odable": 6127,
      "Ġcomfort": 6128,
      "ĠRober": 6129,
      "una": 6130,
      "Ġchart": 6131,
      "ustion": 6132,
      "Ġracial": 6133,
      "Ġspot": 6134,
      "Ġselection": 6135,
      "Ġabund": 6136,
      "Ġ35": 6137,
      "Ġrecon": 6138,
      "Ġparking": 6139,
      "ellig": 6140,
      "ĠKansas": 6141,
      "Ġtrain": 6142,
      "Ġsoon": 6143,
      "Ġremains": 6144,
      "Ġremember": 6145,
      "Ġ2014": 6146,
      "Ġassessed": 6147,
      "Ġgrades": 6148,
      "IDE": 6149,
      "Ġmemory": 6150,
      "ĠPhoen": 6151,
      "Ġindicated": 6152,
      "Ġheritage": 6153,
      "ĠBoth": 6154,
      "Ġowners": 6155,
      "ĠConn": 6156,
      "Ġrecorded": 6157,
      "Ġinfluence": 6158,
      "Ġinterested": 6159,
      "Ġremained": 6160,
      "Ġlandscape": 6161,
      "Ġinjury": 6162,
      "ĠSecurity": 6163,
      "Ġcampa": 6164,
      "Ġcopier": 6165,
      "Ġindependently": 6166,
      "Ġtargets": 6167,
      "Ġearlier": 6168,
      "Ġsteel": 6169,
      "ĠSummary": 6170,
      "DFW": 6171,
      "ĠDirector": 6172,
      "Ġretrieval": 6173,
      "Ġpolitical": 6174,
      "09": 6175,
      "EV": 6176,
      "TE": 6177,
      "Te": 6178,
      "With": 6179,
      "bu": 6180,
      "cript": 6181,
      "kit": 6182,
      "sm": 6183,
      "uk": 6184,
      "yes": 6185,
      "âī": 6186,
      "Ġsat": 6187,
      "Ġwel": 6188,
      "Ġwall": 6189,
      "itch": 6190,
      "Ġdengue": 6191,
      "Ġmisc": 6192,
      "ica": 6193,
      "Ġbab": 6194,
      "Ġbike": 6195,
      "Ġreplace": 6196,
      "oman": 6197,
      "Ġstore": 6198,
      "mental": 6199,
      "âĢ¢": 6200,
      "Ġyellow": 6201,
      "ĠFarm": 6202,
      "ĠNation": 6203,
      "ĠRad": 6204,
      "ĠDOE": 6205,
      "ocation": 6206,
      "ĠBC": 6207,
      "ĠBi": 6208,
      "Ġhero": 6209,
      "used": 6210,
      "ibly": 6211,
      "Ġneu": 6212,
      "Ġ37": 6213,
      "vian": 6214,
      "ĠProcess": 6215,
      "ĠPropulsion": 6216,
      "Ġgenocide": 6217,
      "\":\"": 6218,
      "Ġrespect": 6219,
      "Ġparticles": 6220,
      "Ġminim": 6221,
      "Ġparty": 6222,
      "Ġcurves": 6223,
      "ooking": 6224,
      "Ġvisible": 6225,
      "Ġdelinqu": 6226,
      "Ġpair": 6227,
      "Ġoccup": 6228,
      "Ġbelong": 6229,
      "Ġcorrel": 6230,
      "Ġbaseline": 6231,
      "Chap": 6232,
      "Ġsaying": 6233,
      "Ġdigraph": 6234,
      "Ġdrugs": 6235,
      "Ġmaintaining": 6236,
      "Ġcardiovascular": 6237,
      "Ġinspection": 6238,
      "HOST": 6239,
      "ynam": 6240,
      "Ġaspects": 6241,
      "Phon": 6242,
      "Ġbusinesses": 6243,
      "Ġsexual": 6244,
      "Ġagreement": 6245,
      "ĠModel": 6246,
      "ĠHolocaust": 6247,
      "âī¥": 6248,
      "63": 6249,
      "Facebook": 6250,
      "Lear": 6251,
      "NI": 6252,
      "Pre": 6253,
      "Par": 6254,
      "Sp": 6255,
      "Techn": 6256,
      "ares": 6257,
      "dri": 6258,
      "pox": 6259,
      "tory": 6260,
      "Ġfif": 6261,
      "Ġfear": 6262,
      "Ġfix": 6263,
      "Ġmarri": 6264,
      "ĠTit": 6265,
      "ĠTop": 6266,
      "Ġlove": 6267,
      "etting": 6268,
      "Ġones": 6269,
      "ĠFound": 6270,
      "ĠFlight": 6271,
      "Ġang": 6272,
      "resents": 6273,
      "ĠEurop": 6274,
      "ordance": 6275,
      "Ġperman": 6276,
      "Ġdisch": 6277,
      "Ġaccordance": 6278,
      "Ġunknown": 6279,
      "Ġrepresents": 6280,
      "Ġspecified": 6281,
      "ĠPropos": 6282,
      "Ġreli": 6283,
      "Ġexpans": 6284,
      "Ġmodified": 6285,
      "Ġsubjects": 6286,
      "Ġsubmitted": 6287,
      "Ġcompletion": 6288,
      "hentic": 6289,
      "Ġmening": 6290,
      "riped": 6291,
      "Ġteams": 6292,
      "Ġterr": 6293,
      "Ġproperly": 6294,
      "including": 6295,
      "print": 6296,
      "ĠBeing": 6297,
      "ĠSuicide": 6298,
      "Ġgeneration": 6299,
      "Ġbrave": 6300,
      "vised": 6301,
      "Ġeasily": 6302,
      "Ġadjacent": 6303,
      "Ġmusic": 6304,
      "Ġvegetarian": 6305,
      "Ġveterans": 6306,
      "Ġidea": 6307,
      "Intro": 6308,
      "Ġclouds": 6309,
      "Ġboundary": 6310,
      "Ġpregnancy": 6311,
      "sembly": 6312,
      "Ġfemale": 6313,
      "Ġcompetition": 6314,
      "February": 6315,
      "ĠAgriculture": 6316,
      "ĠPhoenix": 6317,
      "51": 6318,
      "BAC": 6319,
      "Dr": 6320,
      "Note": 6321,
      "PR": 6322,
      "iant": 6323,
      "ny": 6324,
      "normal": 6325,
      "rd": 6326,
      "wa": 6327,
      "onia": 6328,
      "Ġcourage": 6329,
      "tise": 6330,
      "alog": 6331,
      "Ġwin": 6332,
      "Ġdose": 6333,
      "Ġbind": 6334,
      "Ġretention": 6335,
      "ĠCDR": 6336,
      "eting": 6337,
      "ula": 6338,
      "ĠMer": 6339,
      "ĠFQ": 6340,
      "ĠHCV": 6341,
      "ĠNeed": 6342,
      "ĠRES": 6343,
      "ococ": 6344,
      "renti": 6345,
      "ticle": 6346,
      "Ġrules": 6347,
      "agle": 6348,
      "Ġperm": 6349,
      "Ġabuse": 6350,
      "Ġclothing": 6351,
      "Ġappointed": 6352,
      "Ġrecently": 6353,
      "Ġassigned": 6354,
      "ficiency": 6355,
      "Ġexamination": 6356,
      "Ġgene": 6357,
      "Ġpersist": 6358,
      "Ġmeters": 6359,
      "Ġtypical": 6360,
      "fully": 6361,
      "rows": 6362,
      "Ġdefects": 6363,
      "END": 6364,
      "Ġemployed": 6365,
      "Ġemployees": 6366,
      "Ġperformed": 6367,
      "regular": 6368,
      "Ġowned": 6369,
      "ĠConf": 6370,
      "monary": 6371,
      "oxide": 6372,
      "Ġphotos": 6373,
      "Ġburning": 6374,
      "ikes": 6375,
      "Ġobtained": 6376,
      "Student": 6377,
      "Ġstreams": 6378,
      "Ġauthentic": 6379,
      "Ġveterin": 6380,
      "Ġreturned": 6381,
      "Ġstrongly": 6382,
      "Ġdevices": 6383,
      "Scope": 6384,
      "Ġminerals": 6385,
      "Ġwetlands": 6386,
      "ĠPeople": 6387,
      "Ġappointment": 6388,
      "Ġconfirmed": 6389,
      "syllable": 6390,
      "Ġepidemic": 6391,
      "osquito": 6392,
      "ĠCollabor": 6393,
      "Ġalphabetic": 6394,
      "%,": 6395,
      "03": 6396,
      "48": 6397,
      "83": 6398,
      "DD": 6399,
      "DO": 6400,
      "El": 6401,
      "FOR": 6402,
      "Hispanic": 6403,
      "One": 6404,
      "ao": 6405,
      "down": 6406,
      "fl": 6407,
      "gr": 6408,
      "gment": 6409,
      "iar": 6410,
      "ius": 6411,
      "ption": 6412,
      "rup": 6413,
      "uador": 6414,
      "Ġtelescope": 6415,
      "hetic": 6416,
      "alm": 6417,
      "aly": 6418,
      "Ġreferences": 6419,
      "omple": 6420,
      "ĠSince": 6421,
      "ĠFinal": 6422,
      "odes": 6423,
      "ĠHave": 6424,
      "emor": 6425,
      "ĠDC": 6426,
      "ung": 6427,
      "Ġchief": 6428,
      "ĠEnd": 6429,
      "ournal": 6430,
      "Ġstudied": 6431,
      "Ġenab": 6432,
      "ighters": 6433,
      "Ġweak": 6434,
      "001": 6435,
      "Ġresolution": 6436,
      "ĠON": 6437,
      "ĠInst": 6438,
      "Ġperf": 6439,
      "ĠJap": 6440,
      "Ġinfants": 6441,
      "apers": 6442,
      "Ġcommission": 6443,
      "Ġuncertain": 6444,
      "Ġinterns": 6445,
      "ĠProduc": 6446,
      "ĠChlam": 6447,
      "Ġartificial": 6448,
      "Ġexposed": 6449,
      "Ġidentity": 6450,
      "Ġpresence": 6451,
      "2018": 6452,
      "Ġfuels": 6453,
      "Ġextra": 6454,
      "Ġmembr": 6455,
      "ĠPhysical": 6456,
      "Ġelectr": 6457,
      "Ġpreventing": 6458,
      "Ġpassage": 6459,
      "Ġserves": 6460,
      "Ġzones": 6461,
      "ĠSecretary": 6462,
      "Ġgeographic": 6463,
      "Explore": 6464,
      "Ġvoter": 6465,
      "Ġdevice": 6466,
      "Ġrelatively": 6467,
      "Ġballots": 6468,
      "Ġrevealed": 6469,
      "Ġprinting": 6470,
      "Ġinclusion": 6471,
      "Ġbacteria": 6472,
      "Ġsurrounding": 6473,
      "Ġdollars": 6474,
      "43": 6475,
      "47": 6476,
      "All": 6477,
      "Bread": 6478,
      "Date": 6479,
      "Winter": 6480,
      "mical": 6481,
      "point": 6482,
      "under": 6483,
      "Ġ;": 6484,
      "estic": 6485,
      "Ġwatch": 6486,
      "itche": 6487,
      "Ġdrag": 6488,
      "ĠTown": 6489,
      "iders": 6490,
      "Ġhat": 6491,
      "Ġholes": 6492,
      "Ġlost": 6493,
      "ĠCap": 6494,
      "Ġgir": 6495,
      "Ġgather": 6496,
      "Ġuns": 6497,
      "udes": 6498,
      "uled": 6499,
      "ĠMental": 6500,
      "ĠMOLST": 6501,
      "ĠFind": 6502,
      "ĠFirst": 6503,
      "ĠRhy": 6504,
      "ĠDENV": 6505,
      "ocr": 6506,
      "ĠBro": 6507,
      "Ġhearing": 6508,
      "ĠElection": 6509,
      "istant": 6510,
      "Ġspending": 6511,
      "Ġadolesc": 6512,
      "0000": 6513,
      "Ġshap": 6514,
      "ounter": 6515,
      "agues": 6516,
      "Ġaccomp": 6517,
      "Ġmanagers": 6518,
      "ously": 6519,
      "ensus": 6520,
      "ĠKÄ«lauea": 6521,
      "Ġtrained": 6522,
      "Ġbutterf": 6523,
      "Ġobs": 6524,
      "Ġsurf": 6525,
      "Ġmetabol": 6526,
      "Ġmodern": 6527,
      "Ġmoderate": 6528,
      "Ġprescribed": 6529,
      "Ġdoesn": 6530,
      "Ġremote": 6531,
      "Ġregulated": 6532,
      "Ġhistoric": 6533,
      "ĠArts": 6534,
      "Why": 6535,
      "ĠAlso": 6536,
      "IONS": 6537,
      "Ġsafely": 6538,
      "Ġlaunch": 6539,
      "ĠActivities": 6540,
      "Ġseparation": 6541,
      "Ġstarts": 6542,
      "ĠAfrica": 6543,
      "Ġinstance": 6544,
      "Ġwarning": 6545,
      "Ġkindergarten": 6546,
      "Ġloop": 6547,
      "Ġdecrease": 6548,
      "Ġhazardous": 6549,
      "Ġefficient": 6550,
      "ĠEngine": 6551,
      "Ġminority": 6552,
      "Ġcoastal": 6553,
      "Ġadministered": 6554,
      "Ġpartnerships": 6555,
      "Ġsiblings": 6556,
      "Ġrepatriate": 6557,
      "ĠRestoration": 6558,
      "crumb": 6559,
      "Ġneighbor": 6560,
      "Ġberkelium": 6561,
      "Ġmiscon": 6562,
      "Breadcrumb": 6563,
      "'ll": 6564,
      "):": 6565,
      "CI": 6566,
      "Man": 6567,
      "aa": 6568,
      "ding": 6569,
      "ker": 6570,
      "mont": 6571,
      "thes": 6572,
      "wise": 6573,
      "Ġcryst": 6574,
      "Ġfight": 6575,
      "Ġfather": 6576,
      "itors": 6577,
      "itude": 6578,
      "Ġdry": 6579,
      "Ġbio": 6580,
      "Ġhur": 6581,
      "Ġnurs": 6582,
      "ĠSw": 6583,
      "ĠAR": 6584,
      "ĠAv": 6585,
      "ĠPA": 6586,
      "ulate": 6587,
      "Ġconstruc": 6588,
      "otes": 6589,
      "ĠFl": 6590,
      "Ġexact": 6591,
      "Ġextension": 6592,
      "ĠHep": 6593,
      "ĠRun": 6594,
      "ĠBudget": 6595,
      "ĠElect": 6596,
      "ĠLaw": 6597,
      "ideo": 6598,
      "estock": 6599,
      "Ġreserv": 6600,
      "antage": 6601,
      "ivestock": 6602,
      "Ġclim": 6603,
      "minster": 6604,
      "Ġinvent": 6605,
      "titude": 6606,
      "Ġdipl": 6607,
      "Ġdiode": 6608,
      "Ġblend": 6609,
      "Ġraise": 6610,
      "Ġwilderness": 6611,
      "Ġconducting": 6612,
      "Ġelectron": 6613,
      "ĠSee": 6614,
      "ycling": 6615,
      "Ġpossess": 6616,
      "Ġrefuge": 6617,
      "Ġanswering": 6618,
      "Ġsensors": 6619,
      "Ġpowerful": 6620,
      "Ġtravelers": 6621,
      "Ġinvestigate": 6622,
      "Ġentities": 6623,
      "ĠElk": 6624,
      "Ġrivers": 6625,
      "ĠWestminster": 6626,
      "Ġaims": 6627,
      "Ġstatistical": 6628,
      "Ġpanel": 6629,
      "Ġratio": 6630,
      "Ġinterviews": 6631,
      "Ġimmediate": 6632,
      "Ġstraight": 6633,
      "Ġpilot": 6634,
      "/,": 6635,
      "?\"": 6636,
      "BD": 6637,
      "CDC": 6638,
      "Credit": 6639,
      "Pe": 6640,
      "ctive": 6641,
      "iated": 6642,
      "ltim": 6643,
      "yle": 6644,
      "Ġ|": 6645,
      "Ġurban": 6646,
      "iner": 6647,
      "era": 6648,
      "Ġsick": 6649,
      "Ġwave": 6650,
      "Ġinoperative": 6651,
      "Ġdust": 6652,
      "Ġbre": 6653,
      "Ġreasons": 6654,
      "aculture": 6655,
      "olf": 6656,
      "ĠSam": 6657,
      "ĠSection": 6658,
      "ĠCA": 6659,
      "Ġstri": 6660,
      "eters": 6661,
      "ĠPas": 6662,
      "ĠMy": 6663,
      "othe": 6664,
      "ĠFollow": 6665,
      "ĠDates": 6666,
      "ĠBE": 6667,
      "ĠEqu": 6668,
      "oreal": 6669,
      "Ġpron": 6670,
      "Ġdisability": 6671,
      "ĠVi": 6672,
      "Ġmeat": 6673,
      "Ġphyt": 6674,
      "Ġcompan": 6675,
      "ologist": 6676,
      "Ġhelpful": 6677,
      "Ġoverl": 6678,
      "Ġcommunicate": 6679,
      "Ġplanets": 6680,
      "Inc": 6681,
      "Ġrab": 6682,
      "Stories": 6683,
      "Ġdelivered": 6684,
      "Ġecological": 6685,
      "income": 6686,
      "Ġbiology": 6687,
      "Ġoccurring": 6688,
      "Ġ1990": 6689,
      "Ġsummar": 6690,
      "Ġworldwide": 6691,
      "intend": 6692,
      "Ġpriority": 6693,
      "Ġprioritiz": 6694,
      "Ġoffering": 6695,
      "Ġaccountability": 6696,
      "Ġgenerate": 6697,
      "Ġdetermining": 6698,
      "Ġcontaining": 6699,
      "Ġrecognize": 6700,
      "ĠInterior": 6701,
      "ILE": 6702,
      "Ġveterinary": 6703,
      "Ġexperiments": 6704,
      "Ġcategory": 6705,
      "ĠZone": 6706,
      "ĠGovernment": 6707,
      "Ġacquired": 6708,
      "Ġirregular": 6709,
      "onauts": 6710,
      "Ġpulmonary": 6711,
      "Children": 6712,
      "Ġnumerous": 6713,
      "Ġfellows": 6714,
      "Ġcolleagues": 6715,
      "ĠWyoming": 6716,
      "Chapters": 6717,
      "CB": 6718,
      "Cur": 6719,
      "Dec": 6720,
      "Me": 6721,
      "May": 6722,
      "VA": 6723,
      "born": 6724,
      "dec": 6725,
      "Ġtag": 6726,
      "Ġsqu": 6727,
      "ndrom": 6728,
      "Ġpet": 6729,
      "Ġhall": 6730,
      "ĠCub": 6731,
      "ĠMill": 6732,
      "employment": 6733,
      "ĠNot": 6734,
      "ĠDef": 6735,
      "Ġalign": 6736,
      "ĠLong": 6737,
      "ĠLife": 6738,
      "Ġentity": 6739,
      "key": 6740,
      "Ġsuff": 6741,
      "Ġadventure": 6742,
      "ĠOR": 6743,
      "endly": 6744,
      "Ġcontam": 6745,
      "ĠJGI": 6746,
      "Ġdispat": 6747,
      "Ġsyndrom": 6748,
      "Ġmanipul": 6749,
      "acks": 6750,
      "Ġcompare": 6751,
      "ĠChris": 6752,
      "Ġfee": 6753,
      "Ġexplores": 6754,
      "oba": 6755,
      "Ġdiameter": 6756,
      "Ġoptim": 6757,
      "Ġdepending": 6758,
      "ĠTox": 6759,
      "Ġfocusing": 6760,
      "ĠAnn": 6761,
      "Ġ2004": 6762,
      "ĠWeek": 6763,
      "ĠScienti": 6764,
      "ĠClin": 6765,
      "ĠUSDA": 6766,
      "Ġseeking": 6767,
      "Ġelimin": 6768,
      "Ġpromoting": 6769,
      "ohol": 6770,
      "ĠExp": 6771,
      "Ġsummary": 6772,
      "Ġcourses": 6773,
      "Ġgovernments": 6774,
      "ĠContact": 6775,
      "Ġsequencing": 6776,
      "Ġtrustees": 6777,
      "Ġwebin": 6778,
      "ĠRecreation": 6779,
      "ĠSteps": 6780,
      "Ġpalab": 6781,
      "Ġagriculture": 6782,
      "Ġgreenhouse": 6783,
      "Ġmarine": 6784,
      "Ġcandidate": 6785,
      "Ġruns": 6786,
      "ĠArchives": 6787,
      "Ġvibration": 6788,
      "Ġsubsequent": 6789,
      "ĠFermilab": 6790,
      "driven": 6791,
      "ococcal": 6792,
      "Ġsyndrome": 6793,
      "Ass": 6794,
      "Evaluation": 6795,
      "Figure": 6796,
      "Other": 6797,
      "band": 6798,
      "ball": 6799,
      "drop": 6800,
      "habil": 6801,
      "tra": 6802,
      "tors": 6803,
      "tles": 6804,
      "volution": 6805,
      "Ġ:": 6806,
      "Ġâī¥": 6807,
      "health": 6808,
      "reational": 6809,
      "ener": 6810,
      "Ġcult": 6811,
      "Ġpoultry": 6812,
      "Ġdied": 6813,
      "Ġdivision": 6814,
      "Ġdensity": 6815,
      "ĠSound": 6816,
      "ĠSource": 6817,
      "ĠSouthern": 6818,
      "ĠCer": 6819,
      "ĠCany": 6820,
      "Ġgames": 6821,
      "ĠPlease": 6822,
      "Ġconsequ": 6823,
      "ĠMS": 6824,
      "ĠMad": 6825,
      "ĠMag": 6826,
      "ĠMitche": 6827,
      "otal": 6828,
      "chol": 6829,
      "ĠHis": 6830,
      "ĠBat": 6831,
      "quality": 6832,
      "Ġenrich": 6833,
      "Ġshar": 6834,
      "ĠInstruction": 6835,
      "ĠJames": 6836,
      "Ġaccompl": 6837,
      "Ġreclamation": 6838,
      "Ġinterpre": 6839,
      "Ġunderlying": 6840,
      "Ġconserve": 6841,
      "anges": 6842,
      "Ġadding": 6843,
      "Ġtrauma": 6844,
      "Ġfewer": 6845,
      "Ġqub": 6846,
      "Ġarts": 6847,
      "Ġpeers": 6848,
      "Ġdifferenti": 6849,
      "ĠResource": 6850,
      "rowth": 6851,
      "Ġgraduation": 6852,
      "ĠGuid": 6853,
      "Ġescape": 6854,
      "Ġ2008": 6855,
      "ĠAdv": 6856,
      "Ġextended": 6857,
      "Ġdetected": 6858,
      "Ġfactoid": 6859,
      "onomic": 6860,
      "Ġ{},": 6861,
[...]
