{
  "version": "1.0",
  "truncation": null,
  "padding": null,
  "added_tokens": [
    {
      "id": 0,
      "content": "<|pad|>",
      "single_word": false,
      "lstrip": false,
      "rstrip": false,
      "normalized": false,
      "special": true
    },
    {
      "id": 1,
      "content": "<|bos|>",
      "single_word": false,
      "lstrip": false,
      "rstrip": false,
      "normalized": false,
      "special": true
    },
    {
      "id": 2,
      "content": "<|eos|>",
      "single_word": false,
      "lstrip": false,
      "rstrip": false,
      "normalized": false,
      "special": true
    },
    {
      "id": 3,
      "content": "<|unk|>",
      "single_word": false,
      "lstrip": false,
      "rstrip": false,
      "normalized": false,
      "special": true
    },
    {
      "id": 4,
      "content": "<|system|>",
      "single_word": false,
      "lstrip": false,
      "rstrip": false,
      "normalized": false,
      "special": true
    },
    {
      "id": 5,
      "content": "<|user|>",
      "single_word": false,
      "lstrip": false,
      "rstrip": false,
      "normalized": false,
      "special": true
    },
    {
      "id": 6,
      "content": "<|assistant|>",
      "single_word": false,
      "lstrip": false,
      "rstrip": false,
      "normalized": false,
      "special": true
    },
    {
      "id": 7,
      "content": "<|tool|>",
      "single_word": false,
      "lstrip": false,
      "rstrip": false,
      "normalized": false,
      "special": true
    },
    {
      "id": 8,
      "content": "<|end_of_turn|>",
      "single_word": false,
      "lstrip": false,
      "rstrip": false,
      "normalized": false,
      "special": true
    },
    {
      "id": 9,
      "content": "<|fim_prefix|>",
      "single_word": false,
      "lstrip": false,
      "rstrip": false,
      "normalized": false,
      "special": true
    },
    {
      "id": 10,
      "content": "<|fim_middle|>",
      "single_word": false,
      "lstrip": false,
      "rstrip": false,
      "normalized": false,
      "special": true
    },
    {
      "id": 11,
      "content": "<|fim_suffix|>",
      "single_word": false,
      "lstrip": false,
      "rstrip": false,
      "normalized": false,
      "special": true
    },
    {
      "id": 12,
      "content": "<|reserved_0|>",
      "single_word": false,
      "lstrip": false,
      "rstrip": false,
      "normalized": false,
      "special": true
    },
    {
      "id": 13,
      "content": "<|reserved_1|>",
      "single_word": false,
      "lstrip": false,
      "rstrip": false,
      "normalized": false,
      "special": true
    },
    {
      "id": 14,
      "content": "<|reserved_2|>",
      "single_word": false,
      "lstrip": false,
      "rstrip": false,
      "normalized": false,
      "special": true
    },
    {
      "id": 15,
      "content": "<|reserved_3|>",
      "single_word": false,
      "lstrip": false,
      "rstrip": false,
      "normalized": false,
      "special": true
    },
    {
      "id": 16,
      "content": "<|reserved_4|>",
      "single_word": false,
      "lstrip": false,
      "rstrip": false,
      "normalized": false,
      "special": true
    },
    {
      "id": 17,
      "content": "<|reserved_5|>",
      "single_word": false,
      "lstrip": false,
      "rstrip": false,
      "normalized": false,
      "special": true
    },
    {
      "id": 18,
      "content": "<|reserved_6|>",
      "single_word": false,
      "lstrip": false,
      "rstrip": false,
      "normalized": false,
      "special": true
    },
    {
      "id": 19,
      "content": "<|reserved_7|>",
      "single_word": false,
      "lstrip": false,
      "rstrip": false,
      "normalized": false,
      "special": true
    },
    {
      "id": 20,
      "content": "<|reserved_8|>",
      "single_word": false,
      "lstrip": false,
      "rstrip": false,
      "normalized": false,
      "special": true
    },
    {
      "id": 21,
      "content": "<|reserved_9|>",
      "single_word": false,
      "lstrip": false,
      "rstrip": false,
      "normalized": false,
      "special": true
    },
    {
      "id": 22,
      "content": "<|reserved_10|>",
      "single_word": false,
      "lstrip": false,
      "rstrip": false,
      "normalized": false,
      "special": true
    },
    {
      "id": 23,
      "content": "<|reserved_11|>",
      "single_word": false,
      "lstrip": false,
      "rstrip": false,
      "normalized": false,
      "special": true
    },
    {
      "id": 24,
      "content": "<|reserved_12|>",
      "single_word": false,
      "lstrip": false,
      "rstrip": false,
      "normalized": false,
      "special": true
    },
    {
      "id": 25,
      "content": "<|reserved_13|>",
      "single_word": false,
      "lstrip": false,
      "rstrip": false,
      "normalized": false,
      "special": true
    },
    {
      "id": 26,
      "content": "<|reserved_14|>",
      "single_word": false,
      "lstrip": false,
      "rstrip": false,
      "normalized": false,
      "special": true
    },
    {
      "id": 27,
      "content": "<|reserved_15|>",
      "single_word": false,
      "lstrip": false,
      "rstrip": false,
      "normalized": false,
      "special": true
    },
    {
      "id": 28,
      "content": "<|reserved_16|>",
      "single_word": false,
      "lstrip": false,
      "rstrip": false,
      "normalized": false,
      "special": true
    },
    {
      "id": 29,
      "content": "<|reserved_17|>",
      "single_word": false,
      "lstrip": false,
      "rstrip": false,
      "normalized": false,
      "special": true
    },
    {
      "id": 30,
      "content": "<|reserved_18|>",
      "single_word": false,
      "lstrip": false,
      "rstrip": false,
      "normalized": false,
      "special": true
    },
    {
      "id": 31,
      "content": "<|reserved_19|>",
      "single_word": false,
      "lstrip": false,
      "rstrip": false,
      "normalized": false,
      "special": true
    },
    {
      "id": 32,
      "content": "<|reserved_20|>",
      "single_word": false,
      "lstrip": false,
      "rstrip": false,
      "normalized": false,
      "special": true
    },
    {
      "id": 33,
      "content": "<|reserved_21|>",
      "single_word": false,
      "lstrip": false,
      "rstrip": false,
      "normalized": false,
      "special": true
    },
    {
      "id": 34,
      "content": "<|reserved_22|>",
      "single_word": false,
      "lstrip": false,
      "rstrip": false,
      "normalized": false,
      "special": true
    },
    {
      "id": 35,
      "content": "<|reserved_23|>",
      "single_word": false,
      "lstrip": false,
      "rstrip": false,
      "normalized": false,
      "special": true
    },
    {
      "id": 36,
      "content": "<|reserved_24|>",
      "single_word": false,
      "lstrip": false,
      "rstrip": false,
      "normalized": false,
      "special": true
    },
    {
      "id": 37,
      "content": "<|reserved_25|>",
      "single_word": false,
      "lstrip": false,
      "rstrip": false,
      "normalized": false,
      "special": true
    },
    {
      "id": 38,
      "content": "<|reserved_26|>",
      "single_word": false,
      "lstrip": false,
      "rstrip": false,
      "normalized": false,
      "special": true
    },
    {
      "id": 39,
      "content": "<|reserved_27|>",
      "single_word": false,
      "lstrip": false,
      "rstrip": false,
      "normalized": false,
      "special": true
    },
    {
      "id": 40,
      "content": "<|reserved_28|>",
      "single_word": false,
      "lstrip": false,
      "rstrip": false,
      "normalized": false,
      "special": true
    },
    {
      "id": 41,
      "content": "<|reserved_29|>",
      "single_word": false,
      "lstrip": false,
      "rstrip": false,
      "normalized": false,
      "special": true
    },
    {
      "id": 42,
      "content": "<|reserved_30|>",
      "single_word": false,
      "lstrip": false,
      "rstrip": false,
      "normalized": false,
      "special": true
    },
    {
      "id": 43,
      "content": "<|reserved_31|>",
      "single_word": false,
      "lstrip": false,
      "rstrip": false,
      "normalized": false,
      "special": true
    },
    {
      "id": 44,
      "content": "<|reserved_32|>",
      "single_word": false,
      "lstrip": false,
      "rstrip": false,
      "normalized": false,
      "special": true
    },
    {
      "id": 45,
      "content": "<|reserved_33|>",
      "single_word": false,
      "lstrip": false,
      "rstrip": false,
      "normalized": false,
      "special": true
    },
    {
      "id": 46,
      "content": "<|reserved_34|>",
      "single_word": false,
      "lstrip": false,
      "rstrip": false,
      "normalized": false,
      "special": true
    },
    {
      "id": 47,
      "content": "<|reserved_35|>",
      "single_word": false,
      "lstrip": false,
      "rstrip": false,
      "normalized": false,
      "special": true
    },
    {
      "id": 48,
      "content": "<|reserved_36|>",
      "single_word": false,
      "lstrip": false,
      "rstrip": false,
      "normalized": false,
      "special": true
    },
    {
      "id": 49,
      "content": "<|reserved_37|>",
      "single_word": false,
      "lstrip": false,
      "rstrip": false,
      "normalized": false,
      "special": true
    },
    {
      "id": 50,
      "content": "<|reserved_38|>",
      "single_word": false,
      "lstrip": false,
      "rstrip": false,
      "normalized": false,
      "special": true
    },
    {
      "id": 51,
      "content": "<|reserved_39|>",
      "single_word": false,
      "lstrip": false,
      "rstrip": false,
      "normalized": false,
      "special": true
    },
    {
      "id": 52,
      "content": "<|reserved_40|>",
      "single_word": false,
      "lstrip": false,
      "rstrip": false,
      "normalized": false,
      "special": true
    },
    {
      "id": 53,
      "content": "<|reserved_41|>",
      "single_word": false,
      "lstrip": false,
      "rstrip": false,
      "normalized": false,
      "special": true
    },
    {
      "id": 54,
      "content": "<|reserved_42|>",
      "single_word": false,
      "lstrip": false,
      "rstrip": false,
      "normalized": false,
      "special": true
    },
    {
      "id": 55,
      "content": "<|reserved_43|>",
      "single_word": false,
      "lstrip": false,
      "rstrip": false,
      "normalized": false,
      "special": true
    },
    {
      "id": 56,
      "content": "<|reserved_44|>",
      "single_word": false,
      "lstrip": false,
      "rstrip": false,
      "normalized": false,
      "special": true
    },
    {
      "id": 57,
      "content": "<|reserved_45|>",
      "single_word": false,
      "lstrip": false,
      "rstrip": false,
      "normalized": false,
      "special": true
    },
    {
      "id": 58,
      "content": "<|reserved_46|>",
      "single_word": false,
      "lstrip": false,
      "rstrip": false,
      "normalized": false,
      "special": true
    },
    {
      "id": 59,
      "content": "<|reserved_47|>",
      "single_word": false,
      "lstrip": false,
      "rstrip": false,
      "normalized": false,
      "special": true
    },
    {
      "id": 60,
      "content": "<|reserved_48|>",
      "single_word": false,
      "lstrip": false,
      "rstrip": false,
      "normalized": false,
      "special": true
    },
    {
      "id": 61,
      "content": "<|reserved_49|>",
      "single_word": false,
      "lstrip": false,
      "rstrip": false,
      "normalized": false,
      "special": true
    },
    {
      "id": 62,
      "content": "<|reserved_50|>",
      "single_word": false,
      "lstrip": false,
      "rstrip": false,
      "normalized": false,
      "special": true
    },
    {
      "id": 63,
      "content": "<|reserved_51|>",
      "single_word": false,
      "lstrip": false,
      "rstrip": false,
      "normalized": false,
      "special": true
    },
    {
      "id": 64,
      "content": "<|reserved_52|>",
      "single_word": false,
      "lstrip": false,
      "rstrip": false,
      "normalized": false,
      "special": true
    },
    {
      "id": 65,
      "content": "<|reserved_53|>",
      "single_word": false,
      "lstrip": false,
      "rstrip": false,
      "normalized": false,
      "special": true
    },
    {
      "id": 66,
      "content": "<|reserved_54|>",
      "single_word": false,
      "lstrip": false,
      "rstrip": false,
      "normalized": false,
      "special": true
    },
    {
      "id": 67,
      "content": "<|reserved_55|>",
      "single_word": false,
      "lstrip": false,
      "rstrip": false,
      "normalized": false,
      "special": true
    },
    {
      "id": 68,
      "content": "<|reserved_56|>",
      "single_word": false,
      "lstrip": false,
      "rstrip": false,
      "normalized": false,
      "special": true
    },
    {
      "id": 69,
      "content": "<|reserved_57|>",
      "single_word": false,
      "lstrip": false,
      "rstrip": false,
      "normalized": false,
      "special": true
    },
    {
      "id": 70,
      "content": "<|reserved_58|>",
      "single_word": false,
      "lstrip": false,
      "rstrip": false,
      "normalized": false,
      "special": true
    },
    {
      "id": 71,
      "content": "<|reserved_59|>",
      "single_word": false,
      "lstrip": false,
      "rstrip": false,
      "normalized": false,
      "special": true
    },
    {
      "id": 72,
      "content": "<|reserved_60|>",
      "single_word": false,
      "lstrip": false,
      "rstrip": false,
      "normalized": false,
      "special": true
    },
    {
      "id": 73,
      "content": "<|reserved_61|>",
      "single_word": false,
      "lstrip": false,
      "rstrip": false,
      "normalized": false,
      "special": true
    },
    {
      "id": 74,
      "content": "<|reserved_62|>",
      "single_word": false,
      "lstrip": false,
      "rstrip": false,
      "normalized": false,
      "special": true
    },
    {
      "id": 75,
      "content": "<|reserved_63|>",
      "single_word": false,
      "lstrip": false,
      "rstrip": false,
      "normalized": false,
      "special": true
    },
    {
      "id": 76,
      "content": "<|reserved_64|>",
      "single_word": false,
      "lstrip": false,
      "rstrip": false,
      "normalized": false,
      "special": true
    },
    {
      "id": 77,
      "content": "<|reserved_65|>",
      "single_word": false,
      "lstrip": false,
      "rstrip": false,
      "normalized": false,
      "special": true
    },
    {
      "id": 78,
      "content": "<|reserved_66|>",
      "single_word": false,
      "lstrip": false,
      "rstrip": false,
      "normalized": false,
      "special": true
    },
    {
      "id": 79,
      "content": "<|reserved_67|>",
      "single_word": false,
      "lstrip": false,
      "rstrip": false,
      "normalized": false,
      "special": true
    },
    {
      "id": 80,
      "content": "<|reserved_68|>",
      "single_word": false,
      "lstrip": false,
      "rstrip": false,
      "normalized": false,
      "special": true
    },
    {
      "id": 81,
      "content": "<|reserved_69|>",
      "single_word": false,
      "lstrip": false,
      "rstrip": false,
      "normalized": false,
      "special": true
    },
    {
      "id": 82,
      "content": "<|reserved_70|>",
      "single_word": false,
      "lstrip": false,
      "rstrip": false,
      "normalized": false,
      "special": true
    },
    {
      "id": 83,
      "content": "<|reserved_71|>",
      "single_word": false,
      "lstrip": false,
      "rstrip": false,
      "normalized": false,
      "special": true
    },
    {
      "id": 84,
      "content": "<|reserved_72|>",
      "single_word": false,
      "lstrip": false,
      "rstrip": false,
      "normalized": false,
      "special": true
    },
    {
      "id": 85,
      "content": "<|reserved_73|>",
      "single_word": false,
      "lstrip": false,
      "rstrip": false,
      "normalized": false,
      "special": true
    },
    {
      "id": 86,
      "content": "<|reserved_74|>",
      "single_word": false,
      "lstrip": false,
      "rstrip": false,
      "normalized": false,
      "special": true
    },
    {
      "id": 87,
      "content": "<|reserved_75|>",
      "single_word": false,
      "lstrip": false,
      "rstrip": false,
      "normalized": false,
      "special": true
    },
    {
      "id": 88,
      "content": "<|reserved_76|>",
      "single_word": false,
      "lstrip": false,
      "rstrip": false,
      "normalized": false,
      "special": true
    },
    {
      "id": 89,
      "content": "<|reserved_77|>",
      "single_word": false,
      "lstrip": false,
      "rstrip": false,
      "normalized": false,
      "special": true
    },
    {
      "id": 90,
      "content": "<|reserved_78|>",
      "single_word": false,
      "lstrip": false,
      "rstrip": false,
      "normalized": false,
      "special": true
    },
    {
      "id": 91,
      "content": "<|reserved_79|>",
      "single_word": false,
      "lstrip": false,
      "rstrip": false,
      "normalized": false,
      "special": true
    },
    {
      "id": 92,
      "content": "<|reserved_80|>",
      "single_word": false,
      "lstrip": false,
      "rstrip": false,
      "normalized": false,
      "special": true
    },
    {
      "id": 93,
      "content": "<|reserved_81|>",
      "single_word": false,
      "lstrip": false,
      "rstrip": false,
      "normalized": false,
      "special": true
    },
    {
      "id": 94,
      "content": "<|reserved_82|>",
      "single_word": false,
      "lstrip": false,
      "rstrip": false,
      "normalized": false,
      "special": true
    },
    {
      "id": 95,
      "content": "<|reserved_83|>",
      "single_word": false,
      "lstrip": false,
      "rstrip": false,
      "normalized": false,
      "special": true
    },
    {
      "id": 96,
      "content": "<|reserved_84|>",
      "single_word": false,
      "lstrip": false,
      "rstrip": false,
      "normalized": false,
      "special": true
    },
    {
      "id": 97,
      "content": "<|reserved_85|>",
      "single_word": false,
      "lstrip": false,
      "rstrip": false,
      "normalized": false,
      "special": true
    },
    {
      "id": 98,
      "content": "<|reserved_86|>",
      "single_word": false,
      "lstrip": false,
      "rstrip": false,
      "normalized": false,
      "special": true
    },
    {
      "id": 99,
      "content": "<|reserved_87|>",
      "single_word": false,
      "lstrip": false,
      "rstrip": false,
      "normalized": false,
      "special": true
    },
    {
      "id": 100,
      "content": "<|reserved_88|>",
      "single_word": false,
      "lstrip": false,
      "rstrip": false,
      "normalized": false,
      "special": true
    },
    {
      "id": 101,
      "content": "<|reserved_89|>",
      "single_word": false,
      "lstrip": false,
      "rstrip": false,
      "normalized": false,
      "special": true
    },
    {
      "id": 102,
      "content": "<|reserved_90|>",
      "single_word": false,
      "lstrip": false,
      "rstrip": false,
      "normalized": false,
      "special": true
    },
    {
      "id": 103,
      "content": "<|reserved_91|>",
      "single_word": false,
      "lstrip": false,
      "rstrip": false,
      "normalized": false,
      "special": true
    },
    {
      "id": 104,
      "content": "<|reserved_92|>",
      "single_word": false,
      "lstrip": false,
      "rstrip": false,
      "normalized": false,
      "special": true
    },
    {
      "id": 105,
      "content": "<|reserved_93|>",
      "single_word": false,
      "lstrip": false,
      "rstrip": false,
      "normalized": false,
      "special": true
    },
    {
      "id": 106,
      "content": "<|reserved_94|>",
      "single_word": false,
      "lstrip": false,
      "rstrip": false,
      "normalized": false,
      "special": true
    },
    {
      "id": 107,
      "content": "<|reserved_95|>",
      "single_word": false,
      "lstrip": false,
      "rstrip": false,
      "normalized": false,
      "special": true
    },
    {
      "id": 108,
      "content": "<|reserved_96|>",
      "single_word": false,
      "lstrip": false,
      "rstrip": false,
      "normalized": false,
      "special": true
    },
    {
      "id": 109,
      "content": "<|reserved_97|>",
      "single_word": false,
      "lstrip": false,
      "rstrip": false,
      "normalized": false,
      "special": true
    },
    {
      "id": 110,
      "content": "<|reserved_98|>",
      "single_word": false,
      "lstrip": false,
      "rstrip": false,
      "normalized": false,
      "special": true
    },
    {
      "id": 111,
      "content": "<|reserved_99|>",
      "single_word": false,
      "lstrip": false,
      "rstrip": false,
      "normalized": false,
      "special": true
    },
    {
      "id": 112,
      "content": "<|reserved_100|>",
      "single_word": false,
      "lstrip": false,
      "rstrip": false,
      "normalized": false,
      "special": true
    },
    {
      "id": 113,
      "content": "<|reserved_101|>",
      "single_word": false,
      "lstrip": false,
      "rstrip": false,
      "normalized": false,
      "special": true
    },
    {
      "id": 114,
      "content": "<|reserved_102|>",
      "single_word": false,
      "lstrip": false,
      "rstrip": false,
      "normalized": false,
      "special": true
    },
    {
      "id": 115,
      "content": "<|reserved_103|>",
      "single_word": false,
      "lstrip": false,
      "rstrip": false,
      "normalized": false,
      "special": true
    },
    {
      "id": 116,
      "content": "<|reserved_104|>",
      "single_word": false,
      "lstrip": false,
      "rstrip": false,
      "normalized": false,
      "special": true
    },
    {
      "id": 117,
      "content": "<|reserved_105|>",
      "single_word": false,
      "lstrip": false,
      "rstrip": false,
      "normalized": false,
      "special": true
    },
    {
      "id": 118,
      "content": "<|reserved_106|>",
      "single_word": false,
      "lstrip": false,
      "rstrip": false,
      "normalized": false,
      "special": true
    },
    {
      "id": 119,
      "content": "<|reserved_107|>",
      "single_word": false,
      "lstrip": false,
      "rstrip": false,
      "normalized": false,
      "special": true
    },
    {
      "id": 120,
      "content": "<|reserved_108|>",
      "single_word": false,
      "lstrip": false,
      "rstrip": false,
      "normalized": false,
      "special": true
    },
    {
      "id": 121,
      "content": "<|reserved_109|>",
      "single_word": false,
      "lstrip": false,
      "rstrip": false,
      "normalized": false,
      "special": true
    },
    {
      "id": 122,
      "content": "<|reserved_110|>",
      "single_word": false,
      "lstrip": false,
      "rstrip": false,
      "normalized": false,
      "special": true
    },
    {
      "id": 123,
      "content": "<|reserved_111|>",
      "single_word": false,
      "lstrip": false,
      "rstrip": false,
      "normalized": false,
      "special": true
    },
    {
      "id": 124,
      "content": "<|reserved_112|>",
      "single_word": false,
      "lstrip": false,
      "rstrip": false,
      "normalized": false,
      "special": true
    },
    {
      "id": 125,
      "content": "<|reserved_113|>",
      "single_word": false,
      "lstrip": false,
      "rstrip": false,
      "normalized": false,
      "special": true
    },
    {
      "id": 126,
      "content": "<|reserved_114|>",
      "single_word": false,
      "lstrip": false,
      "rstrip": false,
      "normalized": false,
      "special": true
    },
    {
      "id": 127,
      "content": "<|reserved_115|>",
      "single_word": false,
      "lstrip": false,
      "rstrip": false,
      "normalized": false,
      "special": true
    },
    {
      "id": 128,
      "content": "<|reserved_116|>",
      "single_word": false,
      "lstrip": false,
      "rstrip": false,
      "normalized": false,
      "special": true
    },
    {
      "id": 129,
      "content": "<|reserved_117|>",
      "single_word": false,
      "lstrip": false,
      "rstrip": false,
      "normalized": false,
      "special": true
    },
    {
      "id": 130,
      "content": "<|reserved_118|>",
      "single_word": false,
      "lstrip": false,
      "rstrip": false,
      "normalized": false,
      "special": true
    },
    {
      "id": 131,
      "content": "<|reserved_119|>",
      "single_word": false,
      "lstrip": false,
      "rstrip": false,
      "normalized": false,
      "special": true
    },
    {
      "id": 132,
      "content": "<|reserved_120|>",
      "single_word": false,
      "lstrip": false,
      "rstrip": false,
      "normalized": false,
      "special": true
    },
    {
      "id": 133,
      "content": "<|reserved_121|>",
      "single_word": false,
      "lstrip": false,
      "rstrip": false,
      "normalized": false,
      "special": true
    },
    {
      "id": 134,
      "content": "<|reserved_122|>",
      "single_word": false,
      "lstrip": false,
      "rstrip": false,
      "normalized": false,
      "special": true
    },
    {
      "id": 135,
      "content": "<|reserved_123|>",
      "single_word": false,
      "lstrip": false,
      "rstrip": false,
      "normalized": false,
      "special": true
    },
    {
      "id": 136,
      "content": "<|reserved_124|>",
      "single_word": false,
      "lstrip": false,
      "rstrip": false,
      "normalized": false,
      "special": true
    },
    {
      "id": 137,
      "content": "<|reserved_125|>",
      "single_word": false,
      "lstrip": false,
      "rstrip": false,
      "normalized": false,
      "special": true
    },
    {
      "id": 138,
      "content": "<|reserved_126|>",
      "single_word": false,
      "lstrip": false,
      "rstrip": false,
      "normalized": false,
      "special": true
    },
    {
      "id": 139,
      "content": "<|reserved_127|>",
      "single_word": false,
      "lstrip": false,
      "rstrip": false,
      "normalized": false,
      "special": true
    },
    {
      "id": 140,
      "content": "<|reserved_128|>",
      "single_word": false,
      "lstrip": false,
      "rstrip": false,
      "normalized": false,
      "special": true
    },
    {
      "id": 141,
      "content": "<|reserved_129|>",
      "single_word": false,
      "lstrip": false,
      "rstrip": false,
      "normalized": false,
      "special": true
    },
    {
      "id": 142,
      "content": "<|reserved_130|>",
      "single_word": false,
      "lstrip": false,
      "rstrip": false,
      "normalized": false,
      "special": true
    },
    {
      "id": 143,
      "content": "<|reserved_131|>",
      "single_word": false,
      "lstrip": false,
      "rstrip": false,
      "normalized": false,
      "special": true
    },
    {
      "id": 144,
      "content": "<|reserved_132|>",
      "single_word": false,
      "lstrip": false,
      "rstrip": false,
      "normalized": false,
      "special": true
    },
    {
      "id": 145,
      "content": "<|reserved_133|>",
      "single_word": false,
      "lstrip": false,
      "rstrip": false,
      "normalized": false,
      "special": true
    },
    {
      "id": 146,
      "content": "<|reserved_134|>",
      "single_word": false,
      "lstrip": false,
      "rstrip": false,
      "normalized": false,
      "special": true
    },
    {
      "id": 147,
      "content": "<|reserved_135|>",
      "single_word": false,
      "lstrip": false,
      "rstrip": false,
      "normalized": false,
      "special": true
    },
    {
      "id": 148,
      "content": "<|reserved_136|>",
      "single_word": false,
      "lstrip": false,
      "rstrip": false,
      "normalized": false,
      "special": true
    },
    {
      "id": 149,
      "content": "<|reserved_137|>",
      "single_word": false,
      "lstrip": false,
      "rstrip": false,
      "normalized": false,
      "special": true
    },
    {
      "id": 150,
      "content": "<|reserved_138|>",
      "single_word": false,
      "lstrip": false,
      "rstrip": false,
      "normalized": false,
      "special": true
    },
    {
      "id": 151,
      "content": "<|reserved_139|>",
      "single_word": false,
      "lstrip": false,
      "rstrip": false,
      "normalized": false,
      "special": true
    },
    {
      "id": 152,
      "content": "<|reserved_140|>",
      "single_word": false,
      "lstrip": false,
      "rstrip": false,
      "normalized": false,
      "special": true
    },
    {
      "id": 153,
      "content": "<|reserved_141|>",
      "single_word": false,
      "lstrip": false,
      "rstrip": false,
      "normalized": false,
      "special": true
    },
    {
      "id": 154,
      "content": "<|reserved_142|>",
      "single_word": false,
      "lstrip": false,
      "rstrip": false,
      "normalized": false,
      "special": true
    },
    {
      "id": 155,
      "content": "<|reserved_143|>",
      "single_word": false,
      "lstrip": false,
      "rstrip": false,
      "normalized": false,
      "special": true
    },
    {
      "id": 156,
      "content": "<|reserved_144|>",
      "single_word": false,
      "lstrip": false,
      "rstrip": false,
      "normalized": false,
      "special": true
    },
    {
      "id": 157,
      "content": "<|reserved_145|>",
      "single_word": false,
      "lstrip": false,
      "rstrip": false,
      "normalized": false,
      "special": true
    },
    {
      "id": 158,
      "content": "<|reserved_146|>",
      "single_word": false,
      "lstrip": false,
      "rstrip": false,
      "normalized": false,
      "special": true
    },
    {
      "id": 159,
      "content": "<|reserved_147|>",
      "single_word": false,
      "lstrip": false,
      "rstrip": false,
      "normalized": false,
      "special": true
    },
    {
      "id": 160,
      "content": "<|reserved_148|>",
      "single_word": false,
      "lstrip": false,
      "rstrip": false,
      "normalized": false,
      "special": true
    },
    {
      "id": 161,
      "content": "<|reserved_149|>",
      "single_word": false,
      "lstrip": false,
      "rstrip": false,
      "normalized": false,
      "special": true
    },
    {
      "id": 162,
      "content": "<|reserved_150|>",
      "single_word": false,
      "lstrip": false,
      "rstrip": false,
      "normalized": false,
      "special": true
    },
    {
      "id": 163,
      "content": "<|reserved_151|>",
      "single_word": false,
      "lstrip": false,
      "rstrip": false,
      "normalized": false,
      "special": true
    },
    {
      "id": 164,
      "content": "<|reserved_152|>",
      "single_word": false,
      "lstrip": false,
      "rstrip": false,
      "normalized": false,
      "special": true
    },
    {
      "id": 165,
      "content": "<|reserved_153|>",
      "single_word": false,
      "lstrip": false,
      "rstrip": false,
      "normalized": false,
      "special": true
    },
    {
      "id": 166,
      "content": "<|reserved_154|>",
      "single_word": false,
      "lstrip": false,
      "rstrip": false,
      "normalized": false,
      "special": true
    },
    {
      "id": 167,
      "content": "<|reserved_155|>",
      "single_word": false,
      "lstrip": false,
      "rstrip": false,
      "normalized": false,
      "special": true
    },
    {
      "id": 168,
      "content": "<|reserved_156|>",
      "single_word": false,
      "lstrip": false,
      "rstrip": false,
      "normalized": false,
      "special": true
    },
    {
      "id": 169,
      "content": "<|reserved_157|>",
      "single_word": false,
      "lstrip": false,
      "rstrip": false,
      "normalized": false,
      "special": true
    },
    {
      "id": 170,
      "content": "<|reserved_158|>",
      "single_word": false,
      "lstrip": false,
      "rstrip": false,
      "normalized": false,
      "special": true
    },
    {
      "id": 171,
      "content": "<|reserved_159|>",
      "single_word": false,
      "lstrip": false,
      "rstrip": false,
      "normalized": false,
      "special": true
    },
    {
      "id": 172,
      "content": "<|reserved_160|>",
      "single_word": false,
      "lstrip": false,
      "rstrip": false,
      "normalized": false,
      "special": true
    },
    {
      "id": 173,
      "content": "<|reserved_161|>",
      "single_word": false,
      "lstrip": false,
      "rstrip": false,
      "normalized": false,
      "special": true
    },
    {
      "id": 174,
      "content": "<|reserved_162|>",
      "single_word": false,
      "lstrip": false,
      "rstrip": false,
      "normalized": false,
      "special": true
    },
    {
      "id": 175,
      "content": "<|reserved_163|>",
      "single_word": false,
      "lstrip": false,
      "rstrip": false,
      "normalized": false,
      "special": true
    },
    {
      "id": 176,
      "content": "<|reserved_164|>",
      "single_word": false,
      "lstrip": false,
      "rstrip": false,
      "normalized": false,
      "special": true
    },
    {
      "id": 177,
      "content": "<|reserved_165|>",
      "single_word": false,
      "lstrip": false,
      "rstrip": false,
      "normalized": false,
      "special": true
    },
    {
      "id": 178,
      "content": "<|reserved_166|>",
      "single_word": false,
      "lstrip": false,
      "rstrip": false,
      "normalized": false,
      "special": true
    },
    {
      "id": 179,
      "content": "<|reserved_167|>",
      "single_word": false,
      "lstrip": false,
      "rstrip": false,
      "normalized": false,
      "special": true
    },
    {
      "id": 180,
      "content": "<|reserved_168|>",
      "single_word": false,
      "lstrip": false,
      "rstrip": false,
      "normalized": false,
      "special": true
    },
    {
      "id": 181,
      "content": "<|reserved_169|>",
      "single_word": false,
      "lstrip": false,
      "rstrip": false,
      "normalized": false,
      "special": true
    },
    {
      "id": 182,
      "content": "<|reserved_170|>",
      "single_word": false,
      "lstrip": false,
      "rstrip": false,
      "normalized": false,
      "special": true
    },
    {
      "id": 183,
      "content": "<|reserved_171|>",
      "single_word": false,
      "lstrip": false,
      "rstrip": false,
      "normalized": false,
      "special": true
    },
    {
      "id": 184,
      "content": "<|reserved_172|>",
      "single_word": false,
      "lstrip": false,
      "rstrip": false,
      "normalized": false,
      "special": true
    },
    {
      "id": 185,
      "content": "<|reserved_173|>",
      "single_word": false,
      "lstrip": false,
      "rstrip": false,
      "normalized": false,
      "special": true
    },
    {
      "id": 186,
      "content": "<|reserved_174|>",
      "single_word": false,
      "lstrip": false,
      "rstrip": false,
      "normalized": false,
      "special": true
    },
    {
      "id": 187,
      "content": "<|reserved_175|>",
      "single_word": false,
      "lstrip": false,
      "rstrip": false,
      "normalized": false,
      "special": true
    },
    {
      "id": 188,
      "content": "<|reserved_176|>",
      "single_word": false,
      "lstrip": false,
      "rstrip": false,
      "normalized": false,
      "special": true
    },
    {
      "id": 189,
      "content": "<|reserved_177|>",
      "single_word": false,
      "lstrip": false,
      "rstrip": false,
      "normalized": false,
      "special": true
    },
    {
      "id": 190,
      "content": "<|reserved_178|>",
      "single_word": false,
      "lstrip": false,
      "rstrip": false,
      "normalized": false,
      "special": true
    },
    {
      "id": 191,
      "content": "<|reserved_179|>",
      "single_word": false,
      "lstrip": false,
      "rstrip": false,
      "normalized": false,
      "special": true
    },
    {
      "id": 192,
      "content": "<|reserved_180|>",
      "single_word": false,
      "lstrip": false,
      "rstrip": false,
      "normalized": false,
      "special": true
    },
    {
      "id": 193,
      "content": "<|reserved_181|>",
      "single_word": false,
      "lstrip": false,
      "rstrip": false,
      "normalized": false,
      "special": true
    },
    {
      "id": 194,
      "content": "<|reserved_182|>",
      "single_word": false,
      "lstrip": false,
      "rstrip": false,
      "normalized": false,
      "special": true
    },
    {
      "id": 195,
      "content": "<|reserved_183|>",
      "single_word": false,
      "lstrip": false,
      "rstrip": false,
      "normalized": false,
      "special": true
    },
    {
      "id": 196,
      "content": "<|reserved_184|>",
      "single_word": false,
      "lstrip": false,
      "rstrip": false,
      "normalized": false,
      "special": true
    },
    {
      "id": 197,
      "content": "<|reserved_185|>",
      "single_word": false,
      "lstrip": false,
      "rstrip": false,
      "normalized": false,
      "special": true
    },
    {
      "id": 198,
      "content": "<|reserved_186|>",
      "single_word": false,
      "lstrip": false,
      "rstrip": false,
      "normalized": false,
      "special": true
    },
    {
      "id": 199,
      "content": "<|reserved_187|>",
      "single_word": false,
      "lstrip": false,
      "rstrip": false,
      "normalized": false,
      "special": true
    },
    {
      "id": 200,
      "content": "<|reserved_188|>",
      "single_word": false,
      "lstrip": false,
      "rstrip": false,
      "normalized": false,
      "special": true
    },
    {
      "id": 201,
      "content": "<|reserved_189|>",
      "single_word": false,
      "lstrip": false,
      "rstrip": false,
      "normalized": false,
      "special": true
    },
    {
      "id": 202,
      "content": "<|reserved_190|>",
      "single_word": false,
      "lstrip": false,
      "rstrip": false,
      "normalized": false,
      "special": true
    },
    {
      "id": 203,
      "content": "<|reserved_191|>",
      "single_word": false,
      "lstrip": false,
      "rstrip": false,
      "normalized": false,
      "special": true
    },
    {
      "id": 204,
      "content": "<|reserved_192|>",
      "single_word": false,
      "lstrip": false,
      "rstrip": false,
      "normalized": false,
      "special": true
    },
    {
      "id": 205,
      "content": "<|reserved_193|>",
      "single_word": false,
      "lstrip": false,
      "rstrip": false,
      "normalized": false,
      "special": true
    },
    {
      "id": 206,
      "content": "<|reserved_194|>",
      "single_word": false,
      "lstrip": false,
      "rstrip": false,
      "normalized": false,
      "special": true
    },
    {
      "id": 207,
      "content": "<|reserved_195|>",
      "single_word": false,
      "lstrip": false,
      "rstrip": false,
      "normalized": false,
      "special": true
    },
    {
      "id": 208,
      "content": "<|reserved_196|>",
      "single_word": false,
      "lstrip": false,
      "rstrip": false,
      "normalized": false,
      "special": true
    },
    {
      "id": 209,
      "content": "<|reserved_197|>",
      "single_word": false,
      "lstrip": false,
      "rstrip": false,
      "normalized": false,
      "special": true
    },
    {
      "id": 210,
      "content": "<|reserved_198|>",
      "single_word": false,
      "lstrip": false,
      "rstrip": false,
      "normalized": false,
      "special": true
    },
    {
      "id": 211,
      "content": "<|reserved_199|>",
      "single_word": false,
      "lstrip": false,
      "rstrip": false,
      "normalized": false,
      "special": true
    },
    {
      "id": 212,
      "content": "<|reserved_200|>",
      "single_word": false,
      "lstrip": false,
      "rstrip": false,
      "normalized": false,
      "special": true
    },
    {
      "id": 213,
      "content": "<|reserved_201|>",
      "single_word": false,
      "lstrip": false,
      "rstrip": false,
      "normalized": false,
      "special": true
    },
    {
      "id": 214,
      "content": "<|reserved_202|>",
      "single_word": false,
      "lstrip": false,
      "rstrip": false,
      "normalized": false,
      "special": true
    },
    {
      "id": 215,
      "content": "<|reserved_203|>",
      "single_word": false,
      "lstrip": false,
      "rstrip": false,
      "normalized": false,
      "special": true
    },
    {
      "id": 216,
      "content": "<|reserved_204|>",
      "single_word": false,
      "lstrip": false,
      "rstrip": false,
      "normalized": false,
      "special": true
    },
    {
      "id": 217,
      "content": "<|reserved_205|>",
      "single_word": false,
      "lstrip": false,
      "rstrip": false,
      "normalized": false,
      "special": true
    },
    {
      "id": 218,
      "content": "<|reserved_206|>",
      "single_word": false,
      "lstrip": false,
      "rstrip": false,
      "normalized": false,
      "special": true
    },
    {
      "id": 219,
      "content": "<|reserved_207|>",
      "single_word": false,
      "lstrip": false,
      "rstrip": false,
      "normalized": false,
      "special": true
    },
    {
      "id": 220,
      "content": "<|reserved_208|>",
      "single_word": false,
      "lstrip": false,
      "rstrip": false,
      "normalized": false,
      "special": true
    },
    {
      "id": 221,
      "content": "<|reserved_209|>",
      "single_word": false,
      "lstrip": false,
      "rstrip": false,
      "normalized": false,
      "special": true
    },
    {
      "id": 222,
      "content": "<|reserved_210|>",
      "single_word": false,
      "lstrip": false,
      "rstrip": false,
      "normalized": false,
      "special": true
    },
    {
      "id": 223,
      "content": "<|reserved_211|>",
      "single_word": false,
      "lstrip": false,
      "rstrip": false,
      "normalized": false,
      "special": true
    },
    {
      "id": 224,
      "content": "<|reserved_212|>",
      "single_word": false,
      "lstrip": false,
      "rstrip": false,
      "normalized": false,
      "special": true
    },
    {
      "id": 225,
      "content": "<|reserved_213|>",
      "single_word": false,
      "lstrip": false,
      "rstrip": false,
      "normalized": false,
      "special": true
    },
    {
      "id": 226,
      "content": "<|reserved_214|>",
      "single_word": false,
      "lstrip": false,
      "rstrip": false,
      "normalized": false,
      "special": true
    },
    {
      "id": 227,
      "content": "<|reserved_215|>",
      "single_word": false,
      "lstrip": false,
      "rstrip": false,
      "normalized": false,
      "special": true
    },
    {
      "id": 228,
      "content": "<|reserved_216|>",
      "single_word": false,
      "lstrip": false,
      "rstrip": false,
      "normalized": false,
      "special": true
    },
    {
      "id": 229,
      "content": "<|reserved_217|>",
      "single_word": false,
      "lstrip": false,
      "rstrip": false,
      "normalized": false,
      "special": true
    },
    {
      "id": 230,
      "content": "<|reserved_218|>",
      "single_word": false,
      "lstrip": false,
      "rstrip": false,
      "normalized": false,
      "special": true
    },
    {
      "id": 231,
      "content": "<|reserved_219|>",
      "single_word": false,
      "lstrip": false,
      "rstrip": false,
      "normalized": false,
      "special": true
    },
    {
      "id": 232,
      "content": "<|reserved_220|>",
      "single_word": false,
      "lstrip": false,
      "rstrip": false,
      "normalized": false,
      "special": true
    },
    {
      "id": 233,
      "content": "<|reserved_221|>",
      "single_word": false,
      "lstrip": false,
      "rstrip": false,
      "normalized": false,
      "special": true
    },
    {
      "id": 234,
      "content": "<|reserved_222|>",
      "single_word": false,
      "lstrip": false,
      "rstrip": false,
      "normalized": false,
      "special": true
    },
    {
      "id": 235,
      "content": "<|reserved_223|>",
      "single_word": false,
      "lstrip": false,
      "rstrip": false,
      "normalized": false,
      "special": true
    },
    {
      "id": 236,
      "content": "<|reserved_224|>",
      "single_word": false,
      "lstrip": false,
      "rstrip": false,
      "normalized": false,
      "special": true
    },
    {
      "id": 237,
      "content": "<|reserved_225|>",
      "single_word": false,
      "lstrip": false,
      "rstrip": false,
      "normalized": false,
      "special": true
    },
    {
      "id": 238,
      "content": "<|reserved_226|>",
      "single_word": false,
      "lstrip": false,
      "rstrip": false,
      "normalized": false,
      "special": true
    },
    {
      "id": 239,
      "content": "<|reserved_227|>",
      "single_word": false,
      "lstrip": false,
      "rstrip": false,
      "normalized": false,
      "special": true
    },
    {
      "id": 240,
      "content": "<|reserved_228|>",
      "single_word": false,
      "lstrip": false,
      "rstrip": false,
      "normalized": false,
      "special": true
    },
    {
      "id": 241,
      "content": "<|reserved_229|>",
      "single_word": false,
      "lstrip": false,
      "rstrip": false,
      "normalized": false,
      "special": true
    },
    {
      "id": 242,
      "content": "<|reserved_230|>",
      "single_word": false,
      "lstrip": false,
      "rstrip": false,
      "normalized": false,
      "special": true
    },
    {
      "id": 243,
      "content": "<|reserved_231|>",
      "single_word": false,
      "lstrip": false,
      "rstrip": false,
      "normalized": false,
      "special": true
    },
    {
      "id": 244,
      "content": "<|reserved_232|>",
      "single_word": false,
      "lstrip": false,
      "rstrip": false,
      "normalized": false,
      "special": true
    },
    {
      "id": 245,
      "content": "<|reserved_233|>",
      "single_word": false,
      "lstrip": false,
      "rstrip": false,
      "normalized": false,
      "special": true
    },
    {
      "id": 246,
      "content": "<|reserved_234|>",
      "single_word": false,
      "lstrip": false,
      "rstrip": false,
      "normalized": false,
      "special": true
    },
    {
      "id": 247,
      "content": "<|reserved_235|>",
      "single_word": false,
      "lstrip": false,
      "rstrip": false,
      "normalized": false,
      "special": true
    },
    {
      "id": 248,
      "content": "<|reserved_236|>",
      "single_word": false,
      "lstrip": false,
      "rstrip": false,
      "normalized": false,
      "special": true
    },
    {
      "id": 249,
      "content": "<|reserved_237|>",
      "single_word": false,
      "lstrip": false,
      "rstrip": false,
      "normalized": false,
      "special": true
    },
    {
      "id": 250,
      "content": "<|reserved_238|>",
      "single_word": false,
      "lstrip": false,
      "rstrip": false,
      "normalized": false,
      "special": true
    },
    {
      "id": 251,
      "content": "<|reserved_239|>",
      "single_word": false,
      "lstrip": false,
      "rstrip": false,
      "normalized": false,
      "special": true
    },
    {
      "id": 252,
      "content": "<|reserved_240|>",
      "single_word": false,
      "lstrip": false,
      "rstrip": false,
      "normalized": false,
      "special": true
    },
    {
      "id": 253,
      "content": "<|reserved_241|>",
      "single_word": false,
      "lstrip": false,
      "rstrip": false,
      "normalized": false,
      "special": true
    },
    {
      "id": 254,
      "content": "<|reserved_242|>",
      "single_word": false,
      "lstrip": false,
      "rstrip": false,
      "normalized": false,
      "special": true
    },
    {
      "id": 255,
      "content": "<|reserved_243|>",
      "single_word": false,
      "lstrip": false,
      "rstrip": false,
      "normalized": false,
      "special": true
    },
    {
      "id": 256,
      "content": "<|reserved_244|>",
      "single_word": false,
      "lstrip": false,
      "rstrip": false,
      "normalized": false,
      "special": true
    },
    {
      "id": 257,
      "content": "<|reserved_245|>",
      "single_word": false,
      "lstrip": false,
      "rstrip": false,
      "normalized": false,
      "special": true
    },
    {
      "id": 258,
      "content": "<|reserved_246|>",
      "single_word": false,
      "lstrip": false,
      "rstrip": false,
      "normalized": false,
      "special": true
    },
    {
      "id": 259,
      "content": "<|reserved_247|>",
      "single_word": false,
      "lstrip": false,
      "rstrip": false,
      "normalized": false,
      "special": true
    },
    {
      "id": 260,
      "content": "<|reserved_248|>",
      "single_word": false,
      "lstrip": false,
      "rstrip": false,
      "normalized": false,
      "special": true
    },
    {
      "id": 261,
      "content": "<|reserved_249|>",
      "single_word": false,
      "lstrip": false,
      "rstrip": false,
      "normalized": false,
      "special": true
    },
    {
      "id": 262,
      "content": "<|reserved_250|>",
      "single_word": false,
      "lstrip": false,
      "rstrip": false,
      "normalized": false,
      "special": true
    },
    {
      "id": 263,
      "content": "<|reserved_251|>",
      "single_word": false,
      "lstrip": false,
      "rstrip": false,
      "normalized": false,
      "special": true
    },
    {
      "id": 264,
      "content": "<|reserved_252|>",
      "single_word": false,
      "lstrip": false,
      "rstrip": false,
      "normalized": false,
      "special": true
    },
    {
      "id": 265,
      "content": "<|reserved_253|>",
      "single_word": false,
      "lstrip": false,
      "rstrip": false,
      "normalized": false,
      "special": true
    },
    {
      "id": 266,
      "content": "<|reserved_254|>",
      "single_word": false,
      "lstrip": false,
      "rstrip": false,
      "normalized": false,
      "special": true
    },
    {
      "id": 267,
      "content": "<|reserved_255|>",
      "single_word": false,
      "lstrip": false,
      "rstrip": false,
      "normalized": false,
      "special": true
    }
  ],
  "normalizer": {
    "type": "NFC"
  },
  "pre_tokenizer": {
    "type": "ByteLevel",
    "add_prefix_space": false,
    "trim_offsets": true,
    "use_regex": true
  },
  "post_processor": null,
  "decoder": {
    "type": "ByteLevel",
    "add_prefix_space": true,
    "trim_offsets": true,
    "use_regex": true
  },
  "model": {
    "type": "BPE",
    "dropout": null,
    "unk_token": "<|unk|>",
    "continuing_subword_prefix": null,
    "end_of_word_suffix": null,
    "fuse_unk": false,
    "byte_fallback": false,
    "ignore_merges": false,
    "vocab": {
      "<|pad|>": 0,
      "<|bos|>": 1,
      "<|eos|>": 2,
      "<|unk|>": 3,
      "<|system|>": 4,
      "<|user|>": 5,
      "<|assistant|>": 6,
      "<|tool|>": 7,
      "<|end_of_turn|>": 8,
      "<|fim_prefix|>": 9,
      "<|fim_middle|>": 10,
      "<|fim_suffix|>": 11,
      "<|reserved_0|>": 12,
      "<|reserved_1|>": 13,
      "<|reserved_2|>": 14,
      "<|reserved_3|>": 15,
      "<|reserved_4|>": 16,
      "<|reserved_5|>": 17,
      "<|reserved_6|>": 18,
      "<|reserved_7|>": 19,
      "<|reserved_8|>": 20,
      "<|reserved_9|>": 21,
      "<|reserved_10|>": 22,
      "<|reserved_11|>": 23,
      "<|reserved_12|>": 24,
      "<|reserved_13|>": 25,
      "<|reserved_14|>": 26,
      "<|reserved_15|>": 27,
      "<|reserved_16|>": 28,
      "<|reserved_17|>": 29,
      "<|reserved_18|>": 30,
      "<|reserved_19|>": 31,
      "<|reserved_20|>": 32,
      "<|reserved_21|>": 33,
      "<|reserved_22|>": 34,
      "<|reserved_23|>": 35,
      "<|reserved_24|>": 36,
      "<|reserved_25|>": 37,
      "<|reserved_26|>": 38,
      "<|reserved_27|>": 39,
      "<|reserved_28|>": 40,
      "<|reserved_29|>": 41,
      "<|reserved_30|>": 42,
      "<|reserved_31|>": 43,
      "<|reserved_32|>": 44,
      "<|reserved_33|>": 45,
      "<|reserved_34|>": 46,
      "<|reserved_35|>": 47,
      "<|reserved_36|>": 48,
      "<|reserved_37|>": 49,
      "<|reserved_38|>": 50,
      "<|reserved_39|>": 51,
      "<|reserved_40|>": 52,
      "<|reserved_41|>": 53,
      "<|reserved_42|>": 54,
      "<|reserved_43|>": 55,
      "<|reserved_44|>": 56,
      "<|reserved_45|>": 57,
      "<|reserved_46|>": 58,
      "<|reserved_47|>": 59,
      "<|reserved_48|>": 60,
      "<|reserved_49|>": 61,
      "<|reserved_50|>": 62,
      "<|reserved_51|>": 63,
      "<|reserved_52|>": 64,
      "<|reserved_53|>": 65,
      "<|reserved_54|>": 66,
      "<|reserved_55|>": 67,
      "<|reserved_56|>": 68,
      "<|reserved_57|>": 69,
      "<|reserved_58|>": 70,
      "<|reserved_59|>": 71,
      "<|reserved_60|>": 72,
      "<|reserved_61|>": 73,
      "<|reserved_62|>": 74,
      "<|reserved_63|>": 75,
      "<|reserved_64|>": 76,
      "<|reserved_65|>": 77,
      "<|reserved_66|>": 78,
      "<|reserved_67|>": 79,
      "<|reserved_68|>": 80,
      "<|reserved_69|>": 81,
      "<|reserved_70|>": 82,
      "<|reserved_71|>": 83,
      "<|reserved_72|>": 84,
      "<|reserved_73|>": 85,
      "<|reserved_74|>": 86,
      "<|reserved_75|>": 87,
      "<|reserved_76|>": 88,
      "<|reserved_77|>": 89,
      "<|reserved_78|>": 90,
      "<|reserved_79|>": 91,
      "<|reserved_80|>": 92,
      "<|reserved_81|>": 93,
      "<|reserved_82|>": 94,
      "<|reserved_83|>": 95,
      "<|reserved_84|>": 96,
      "<|reserved_85|>": 97,
      "<|reserved_86|>": 98,
      "<|reserved_87|>": 99,
      "<|reserved_88|>": 100,
      "<|reserved_89|>": 101,
      "<|reserved_90|>": 102,
      "<|reserved_91|>": 103,
      "<|reserved_92|>": 104,
      "<|reserved_93|>": 105,
      "<|reserved_94|>": 106,
      "<|reserved_95|>": 107,
      "<|reserved_96|>": 108,
      "<|reserved_97|>": 109,
      "<|reserved_98|>": 110,
      "<|reserved_99|>": 111,
      "<|reserved_100|>": 112,
      "<|reserved_101|>": 113,
      "<|reserved_102|>": 114,
      "<|reserved_103|>": 115,
      "<|reserved_104|>": 116,
      "<|reserved_105|>": 117,
      "<|reserved_106|>": 118,
      "<|reserved_107|>": 119,
      "<|reserved_108|>": 120,
      "<|reserved_109|>": 121,
      "<|reserved_110|>": 122,
      "<|reserved_111|>": 123,
      "<|reserved_112|>": 124,
      "<|reserved_113|>": 125,
      "<|reserved_114|>": 126,
      "<|reserved_115|>": 127,
      "<|reserved_116|>": 128,
      "<|reserved_117|>": 129,
      "<|reserved_118|>": 130,
      "<|reserved_119|>": 131,
      "<|reserved_120|>": 132,
      "<|reserved_121|>": 133,
      "<|reserved_122|>": 134,
      "<|reserved_123|>": 135,
      "<|reserved_124|>": 136,
      "<|reserved_125|>": 137,
      "<|reserved_126|>": 138,
      "<|reserved_127|>": 139,
      "<|reserved_128|>": 140,
      "<|reserved_129|>": 141,
      "<|reserved_130|>": 142,
      "<|reserved_131|>": 143,
      "<|reserved_132|>": 144,
      "<|reserved_133|>": 145,
      "<|reserved_134|>": 146,
      "<|reserved_135|>": 147,
      "<|reserved_136|>": 148,
      "<|reserved_137|>": 149,
      "<|reserved_138|>": 150,
      "<|reserved_139|>": 151,
      "<|reserved_140|>": 152,
      "<|reserved_141|>": 153,
      "<|reserved_142|>": 154,
      "<|reserved_143|>": 155,
      "<|reserved_144|>": 156,
      "<|reserved_145|>": 157,
      "<|reserved_146|>": 158,
      "<|reserved_147|>": 159,
      "<|reserved_148|>": 160,
      "<|reserved_149|>": 161,
      "<|reserved_150|>": 162,
      "<|reserved_151|>": 163,
      "<|reserved_152|>": 164,
      "<|reserved_153|>": 165,
      "<|reserved_154|>": 166,
      "<|reserved_155|>": 167,
      "<|reserved_156|>": 168,
      "<|reserved_157|>": 169,
      "<|reserved_158|>": 170,
      "<|reserved_159|>": 171,
      "<|reserved_160|>": 172,
      "<|reserved_161|>": 173,
      "<|reserved_162|>": 174,
      "<|reserved_163|>": 175,
      "<|reserved_164|>": 176,
      "<|reserved_165|>": 177,
      "<|reserved_166|>": 178,
      "<|reserved_167|>": 179,
      "<|reserved_168|>": 180,
      "<|reserved_169|>": 181,
      "<|reserved_170|>": 182,
      "<|reserved_171|>": 183,
      "<|reserved_172|>": 184,
      "<|reserved_173|>": 185,
      "<|reserved_174|>": 186,
      "<|reserved_175|>": 187,
      "<|reserved_176|>": 188,
      "<|reserved_177|>": 189,
      "<|reserved_178|>": 190,
      "<|reserved_179|>": 191,
      "<|reserved_180|>": 192,
      "<|reserved_181|>": 193,
      "<|reserved_182|>": 194,
      "<|reserved_183|>": 195,
      "<|reserved_184|>": 196,
      "<|reserved_185|>": 197,
      "<|reserved_186|>": 198,
      "<|reserved_187|>": 199,
      "<|reserved_188|>": 200,
      "<|reserved_189|>": 201,
      "<|reserved_190|>": 202,
      "<|reserved_191|>": 203,
      "<|reserved_192|>": 204,
      "<|reserved_193|>": 205,
      "<|reserved_194|>": 206,
      "<|reserved_195|>": 207,
      "<|reserved_196|>": 208,
      "<|reserved_197|>": 209,
      "<|reserved_198|>": 210,
      "<|reserved_199|>": 211,
      "<|reserved_200|>": 212,
      "<|reserved_201|>": 213,
      "<|reserved_202|>": 214,
      "<|reserved_203|>": 215,
      "<|reserved_204|>": 216,
      "<|reserved_205|>": 217,
      "<|reserved_206|>": 218,
      "<|reserved_207|>": 219,
      "<|reserved_208|>": 220,
      "<|reserved_209|>": 221,
      "<|reserved_210|>": 222,
      "<|reserved_211|>": 223,
      "<|reserved_212|>": 224,
      "<|reserved_213|>": 225,
      "<|reserved_214|>": 226,
      "<|reserved_215|>": 227,
      "<|reserved_216|>": 228,
      "<|reserved_217|>": 229,
      "<|reserved_218|>": 230,
      "<|reserved_219|>": 231,
      "<|reserved_220|>": 232,
      "<|reserved_221|>": 233,
      "<|reserved_222|>": 234,
      "<|reserved_223|>": 235,
      "<|reserved_224|>": 236,
      "<|reserved_225|>": 237,
      "<|reserved_226|>": 238,
      "<|reserved_227|>": 239,
      "<|reserved_228|>": 240,
      "<|reserved_229|>": 241,
      "<|reserved_230|>": 242,
      "<|reserved_231|>": 243,
      "<|reserved_232|>": 244,
      "<|reserved_233|>": 245,
      "<|reserved_234|>": 246,
      "<|reserved_235|>": 247,
      "<|reserved_236|>": 248,
      "<|reserved_237|>": 249,
      "<|reserved_238|>": 250,
      "<|reserved_239|>": 251,
      "<|reserved_240|>": 252,
      "<|reserved_241|>": 253,
      "<|reserved_242|>": 254,
      "<|reserved_243|>": 255,
      "<|reserved_244|>": 256,
      "<|reserved_245|>": 257,
      "<|reserved_246|>": 258,
      "<|reserved_247|>": 259,
      "<|reserved_248|>": 260,
      "<|reserved_249|>": 261,
      "<|reserved_250|>": 262,
      "<|reserved_251|>": 263,
      "<|reserved_252|>": 264,
      "<|reserved_253|>": 265,
      "<|reserved_254|>": 266,
      "<|reserved_255|>": 267,
      "!": 268,
      "\"": 269,
      "#": 270,
      "$": 271,
      "%": 272,
      "&": 273,
      "'": 274,
      "(": 275,
      ")": 276,
      "*": 277,
      "+": 278,
      ",": 279,
      "-": 280,
      ".": 281,
      "/": 282,
      "0": 283,
      "1": 284,
      "2": 285,
      "3": 286,
      "4": 287,
      "5": 288,
      "6": 289,
      "7": 290,
      "8": 291,
      "9": 292,
      ":": 293,
      ";": 294,
      "<": 295,
      "=": 296,
      ">": 297,
      "?": 298,
      "@": 299,
      "A": 300,
      "B": 301,
      "C": 302,
      "D": 303,
      "E": 304,
      "F": 305,
      "G": 306,
      "H": 307,
      "I": 308,
      "J": 309,
      "K": 310,
      "L": 311,
      "M": 312,
      "N": 313,
      "O": 314,
      "P": 315,
      "Q": 316,
      "R": 317,
      "S": 318,
      "T": 319,
      "U": 320,
      "V": 321,
      "W": 322,
      "X": 323,
      "Y": 324,
      "Z": 325,
      "[": 326,
      "\\": 327,
      "]": 328,
      "^": 329,
      "_": 330,
      "`": 331,
      "a": 332,
      "b": 333,
      "c": 334,
      "d": 335,
      "e": 336,
      "f": 337,
      "g": 338,
      "h": 339,
      "i": 340,
      "j": 341,
      "k": 342,
      "l": 343,
      "m": 344,
      "n": 345,
      "o": 346,
      "p": 347,
      "q": 348,
      "r": 349,
      "s": 350,
      "t": 351,
      "u": 352,
      "v": 353,
      "w": 354,
      "x": 355,
      "y": 356,
      "z": 357,
      "{": 358,
      "|": 359,
      "}": 360,
      "~": 361,
      "¡": 362,
      "¢": 363,
      "£": 364,
      "¤": 365,
      "¥": 366,
      "¦": 367,
      "§": 368,
      "¨": 369,
      "©": 370,
      "ª": 371,
      "«": 372,
      "¬": 373,
      "®": 374,
      "¯": 375,
      "°": 376,
      "±": 377,
      "²": 378,
      "³": 379,
      "´": 380,
      "µ": 381,
      "¶": 382,
      "·": 383,
      "¸": 384,
      "¹": 385,
      "º": 386,
      "»": 387,
      "¼": 388,
      "½": 389,
      "¾": 390,
      "¿": 391,
      "À": 392,
      "Á": 393,
      "Â": 394,
      "Ã": 395,
      "Ä": 396,
      "Å": 397,
      "Æ": 398,
      "Ç": 399,
      "È": 400,
      "É": 401,
      "Ê": 402,
      "Ë": 403,
      "Ì": 404,
      "Í": 405,
      "Î": 406,
      "Ï": 407,
      "Ð": 408,
      "Ñ": 409,
      "Ò": 410,
      "Ó": 411,
      "Ô": 412,
      "Õ": 413,
      "Ö": 414,
      "×": 415,
      "Ø": 416,
      "Ù": 417,
      "Ú": 418,
      "Û": 419,
      "Ü": 420,
      "Ý": 421,
      "Þ": 422,
      "ß": 423,
      "à": 424,
      "á": 425,
      "â": 426,
      "ã": 427,
      "ä": 428,
      "å": 429,
      "æ": 430,
      "ç": 431,
      "è": 432,
      "é": 433,
      "ê": 434,
      "ë": 435,
      "ì": 436,
      "í": 437,
      "î": 438,
      "ï": 439,
      "ð": 440,
      "ñ": 441,
      "ò": 442,
      "ó": 443,
      "ô": 444,
      "õ": 445,
      "ö": 446,
      "÷": 447,
      "ø": 448,
      "ù": 449,
      "ú": 450,
      "û": 451,
      "ü": 452,
      "ý": 453,
      "þ": 454,
      "ÿ": 455,
      "Ā": 456,
      "ā": 457,
      "Ă": 458,
      "ă": 459,
      "Ą": 460,
      "ą": 461,
      "Ć": 462,
      "ć": 463,
      "Ĉ": 464,
      "ĉ": 465,
      "Ċ": 466,
      "ċ": 467,
      "Č": 468,
      "č": 469,
      "Ď": 470,
      "ď": 471,
      "Đ": 472,
      "đ": 473,
      "Ē": 474,
      "ē": 475,
      "Ĕ": 476,
      "ĕ": 477,
      "Ė": 478,
      "ė": 479,
      "Ę": 480,
      "ę": 481,
      "Ě": 482,
      "ě": 483,
      "Ĝ": 484,
      "ĝ": 485,
      "Ğ": 486,
      "ğ": 487,
      "Ġ": 488,
      "ġ": 489,
      "Ģ": 490,
      "ģ": 491,
      "Ĥ": 492,
      "ĥ": 493,
      "Ħ": 494,
      "ħ": 495,
      "Ĩ": 496,
      "ĩ": 497,
      "Ī": 498,
      "ī": 499,
      "Ĭ": 500,
      "ĭ": 501,
      "Į": 502,
      "į": 503,
      "İ": 504,
      "ı": 505,
      "Ĳ": 506,
      "ĳ": 507,
      "Ĵ": 508,
      "ĵ": 509,
      "Ķ": 510,
      "ķ": 511,
      "ĸ": 512,
      "Ĺ": 513,
      "ĺ": 514,
      "Ļ": 515,
      "ļ": 516,
      "Ľ": 517,
      "ľ": 518,
      "Ŀ": 519,
      "ŀ": 520,
      "Ł": 521,
      "ł": 522,
      "Ń": 523,
      "Ġt": 524,
      "he": 525,
      "Ġa": 526,
      "in": 527,
      "čĊ": 528,
      "Ġs": 529,
      "Ġw": 530,
      "Ġthe": 531,
      "ou": 532,
      "re": 533,
      "Ġh": 534,
      "on": 535,
      "Ġb": 536,
      "ed": 537,
      "er": 538,
      "ar": 539,
      "ĠčĊ": 540,
      "ing": 541,
      "nd": 542,
      "Ġf": 543,
      "ll": 544,
      "Ġto": 545,
      "ĠH": 546,
      "Ġc": 547,
      "Ġo": 548,
      "it": 549,
      "at": 550,
      "le": 551,
      "as": 552,
      "or": 553,
      "id": 554,
      "is": 555,
      "Ġd": 556,
      "Ġhe": 557,
      "Ġm": 558,
      "Ġand": 559,
      "Ġth": 560,
      "ry": 561,
      "en": 562,
      "Ġg": 563,
      "Ġl": 564,
      "Ġp": 565,
      "Ġof": 566,
      "Ġha": 567,
      "Ġn": 568,
      "Ġy": 569,
      "Ġin": 570,
      "arry": 571,
      "ow": 572,
      "Ġwas": 573,
      "oo": 574,
      "an": 575,
      "es": 576,
      "ot": 577,
      "Ġbe": 578,
      "Ġsa": 579,
      "Ġon": 580,
      "ĠHarry": 581,
      "gh": 582,
      "Ġyou": 583,
      "ld": 584,
      "'s": 585,
      "ck": 586,
      "Ġst": 587,
      "Ġit": 588,
      "ly": 589,
      "om": 590,
      "Ġe": 591,
      "et": 592,
      "Ġhis": 593,
      "ĠI": 594,
      "st": 595,
      "im": 596,
      "ve": 597,
      "ir": 598,
      "ver": 599,
      "Ġ-": 600,
      "'t": 601,
      "Ġ\"": 602,
      "ut": 603,
      "Ġsaid": 604,
      "ag": 605,
      "Ġu": 606,
      "Ġ--": 607,
      "Ġwh": 608,
      "out": 609,
      "Ġhad": 610,
      ".\"": 611,
      "ch": 612,
      "ght": 613,
      ",\"": 614,
      "se": 615,
      "Ġr": 616,
      "Ġwe": 617,
      "ad": 618,
      "one": 619,
      "The": 620,
      "Ġthat": 621,
      "Ġas": 622,
      "ay": 623,
      "Ġat": 624,
      "Ġk": 625,
      "am": 626,
      "ĠS": 627,
      "Ġhim": 628,
      "ce": 629,
      "ur": 630,
      "Ġan": 631,
      "ould": 632,
      "ee": 633,
      "all": 634,
      "..": 635,
      "ook": 636,
      "ĠM": 637,
      "ĠP": 638,
      "?\"": 639,
      "Ġre": 640,
      "al": 641,
      "Ġthey": 642,
      "ĠD": 643,
      "ight": 644,
      "ro": 645,
      "ak": 646,
      "ore": 647,
      "her": 648,
      "Ġwit": 649,
      "ard": 650,
      "ĠR": 651,
      "ter": 652,
      "Ġfor": 653,
      "pe": 654,
      "Ġwith": 655,
      "red": 656,
      "ri": 657,
      "Ġle": 658,
      "ent": 659,
      "ack": 660,
      "rid": 661,
      "Ġout": 662,
      "Ġsh": 663,
      "ĠHe": 664,
      "Ġne": 665,
      "ĠRon": 666,
      "rou": 667,
      "ind": 668,
      "ill": 669,
      "Ġdo": 670,
      "Ġup": 671,
      "Ġlook": 672,
      "un": 673,
      "agrid": 674,
      "pp": 675,
      "Ġbut": 676,
      "Ġkn": 677,
      "Ġall": 678,
      "if": 679,
      "um": 680,
      "led": 681,
      "Ġthem": 682,
      "ĠA": 683,
      "Ġwere": 684,
      "ud": 685,
      "Ġgo": 686,
      "Ġnot": 687,
      "hing": 688,
      "very": 689,
      "mi": 690,
      "ĠF": 691,
      "ĠThe": 692,
      "ain": 693,
      "!\"": 694,
      "Ġfr": 695,
      "ĠHagrid": 696,
      "Ġme": 697,
      "ley": 698,
      "Ġli": 699,
      "Ġj": 700,
      "and": 701,
      "Ġcould": 702,
      "ĠW": 703,
      "ĠG": 704,
      "ome": 705,
      "Ġhave": 706,
      "ust": 707,
      "Ġdid": 708,
      "to": 709,
      "art": 710,
      "ĠN": 711,
      "il": 712,
      "ast": 713,
      "ke": 714,
      "Ġback": 715,
      "ood": 716,
      "ell": 717,
      "ff": 718,
      "ermi": 719,
      "ermione": 720,
      "Ġwhat": 721,
      "'d": 722,
      "Ġab": 723,
      "Harry": 724,
      "ic": 725,
      "oy": 726,
      "Ġsee": 727,
      "Ġcl": 728,
      "ant": 729,
      "ick": 730,
      "Ġso": 731,
      "Ġse": 732,
      "Ġwhe": 733,
      "own": 734,
      "ra": 735,
      "ct": 736,
      "hed": 737,
      "ess": 738,
      "Ġfrom": 739,
      "ss": 740,
      "Ġno": 741,
      "Ġone": 742,
      "Ġget": 743,
      "Ġthere": 744,
      "ĠHermione": 745,
      "Ġal": 746,
      "op": 747,
      "Ġknow": 748,
      "us": 749,
      "ven": 750,
      "oom": 751,
      "Ġinto": 752,
      "qu": 753,
      "na": 754,
      "Ġabout": 755,
      "ink": 756,
      "au": 757,
      "ble": 758,
      "Ġgot": 759,
      "Ġany": 760,
      "ge": 761,
      "Ġoff": 762,
      "Ġbeen": 763,
      "Ġshe": 764,
      "ame": 765,
      "You": 766,
      "ion": 767,
      "Ġtheir": 768,
      "ide": 769,
      "Ġthis": 770,
      "umb": 771,
      "round": 772,
      "Qu": 773,
      "ĠB": 774,
      "Ġwho": 775,
      "Ġif": 776,
      "ous": 777,
      "Ġpo": 778,
      "Ġye": 779,
      "Ġdidn": 780,
      "Ġfe": 781,
      "Ġlike": 782,
      "ĠT": 783,
      "Ġdown": 784,
      "hat": 785,
      "Ġover": 786,
      "ake": 787,
      "way": 788,
      "Ġher": 789,
      "...": 790,
      "Ġex": 791,
      "rof": 792,
      "Ġis": 793,
      "Ġthou": 794,
      "essor": 795,
      "rofessor": 796,
      "ther": 797,
      "'ve": 798,
      "ĠC": 799,
      "ĠQu": 800,
      "Ġtw": 801,
      "Ġfl": 802,
      "Ġbr": 803,
      "our": 804,
      "nape": 805,
      "ked": 806,
      "umbled": 807,
      "ig": 808,
      "lf": 809,
      "Ġlooked": 810,
      "ort": 811,
      "pped": 812,
      "Ġag": 813,
      "ong": 814,
      "ers": 815,
      "Ġqu": 816,
      "ĠV": 817,
      "ist": 818,
      "He": 819,
      "ie": 820,
      "'ll": 821,
      "Ġvery": 822,
      "Ġpl": 823,
      "ĠIt": 824,
      "Ġjust": 825,
      "Ġtoo": 826,
      "Ġyour": 827,
      "Ġwor": 828,
      "ound": 829,
      "umbledore": 830,
      "nt": 831,
      "Ġwould": 832,
      "Ġbl": 833,
      "ass": 834,
      "ac": 835,
      "iz": 836,
      "Ġsp": 837,
      "ull": 838,
      "omet": 839,
      "ice": 840,
      "pt": 841,
      "ting": 842,
      "Ġare": 843,
      "Ġch": 844,
      "ĠSnape": 845,
      "ling": 846,
      "ĠProfessor": 847,
      "em": 848,
      "Ġv": 849,
      "Ġsu": 850,
      "Ġby": 851,
      "Ġthink": 852,
      "est": 853,
      "Ġaround": 854,
      "ern": 855,
      "Ġwhen": 856,
      "ace": 857,
      "Ġwhi": 858,
      "nc": 859,
      "ost": 860,
      "Ġtim": 861,
      "urn": 862,
      "ĠDumbledore": 863,
      "udley": 864,
      "'re": 865,
      "ree": 866,
      "Ġdoor": 867,
      "Ġsome": 868,
      "Ġcan": 869,
      "alf": 870,
      "ward": 871,
      "Ġte": 872,
      "Ġsomet": 873,
      "ally": 874,
      "Ġgoing": 875,
      "ock": 876,
      "ond": 877,
      "ang": 878,
      "Ġsay": 879,
      "Ġagain": 880,
      "ev": 881,
      "Ġhand": 882,
      "Ġus": 883,
      "It": 884,
      "Ġwant": 885,
      "Ġdon": 886,
      "ĠDudley": 887,
      "are": 888,
      "Ġlet": 889,
      "old": 890,
      "Ġnow": 891,
      "ered": 892,
      "rough": 893,
      "alfoy": 894,
      "Ġhead": 895,
      "Ġey": 896,
      "'m": 897,
      "ap": 898,
      "Ġsc": 899,
      "urs": 900,
      "ul": 901,
      "uff": 902,
      "rell": 903,
      "Ġde": 904,
      "ncle": 905,
      "ĠO": 906,
      "reat": 907,
      "Ġsomething": 908,
      "Ġthrough": 909,
      "Ġpe": 910,
      "irst": 911,
      "ille": 912,
      "Ġtime": 913,
      "other": 914,
      "eep": 915,
      "eville": 916,
      "ared": 917,
      "ĠU": 918,
      "Ġor": 919,
      "ĠPot": 920,
      "ried": 921,
      "ernon": 922,
      "Ġturn": 923,
      "Ġthen": 924,
      "Ġhow": 925,
      "ĠVernon": 926,
      "Ġbec": 927,
      "Ġevery": 928,
      "irrell": 929,
      "Ġright": 930,
      "ose": 931,
      "Ġcom": 932,
      "Ġnever": 933,
      "Ġter": 934,
      "int": 935,
      "ate": 936,
      "Ġhere": 937,
      "bb": 938,
      "fore": 939,
      "xt": 940,
      "ark": 941,
      "Ġtr": 942,
      "Ġfirst": 943,
      "Ġmore": 944,
      "ars": 945,
      "Ġmy": 946,
      "Ġthan": 947,
      "ĠMr": 948,
      "Ġow": 949,
      "ft": 950,
      "og": 951,
      "Ġgl": 952,
      "Ġeven": 953,
      "self": 954,
      "ĠMalfoy": 955,
      "ursley": 956,
      "den": 957,
      "ive": 958,
      "ĠL": 959,
      "Ġsw": 960,
      "Ġother": 961,
      "ite": 962,
      "ĠDursley": 963,
      "Ġcouldn": 964,
      "Ġyeh": 965,
      "Ġeyes": 966,
      "thing": 967,
      "ott": 968,
      "ĠMc": 969,
      "ĠPotter": 970,
      "ves": 971,
      "ĠNeville": 972,
      "ĠMcG": 973,
      "side": 974,
      "ved": 975,
      "Ġtry": 976,
      "onag": 977,
      "itt": 978,
      "Ġbefore": 979,
      "Ġonly": 980,
      "ĠMcGonag": 981,
      "ĠMcGonagall": 982,
      "ire": 983,
      "Ġway": 984,
      "Ġboy": 985,
      "atch": 986,
      "Ġthing": 987,
      "med": 988,
      "ol": 989,
      "Ġsl": 990,
      "air": 991,
      "ber": 992,
      "Ġar": 993,
      "orn": 994,
      "ryff": 995,
      "indor": 996,
      "ĠThey": 997,
      "ople": 998,
      "Ġthought": 999,
      "ryffindor": 1000,
      "gg": 1001,
      "Ġlooking": 1002,
      "ause": 1003,
      "ĠQuirrell": 1004,
      "Ġgr": 1005,
      "fe": 1006,
      "Ġcr": 1007,
      "les": 1008,
      "ĠFl": 1009,
      "ĠUncle": 1010,
      "itch": 1011,
      "ĠGryffindor": 1012,
      "oll": 1013,
      "Ġman": 1014,
      "ool": 1015,
      "Ġroom": 1016,
      "Ġtold": 1017,
      "What": 1018,
      "king": 1019,
      "Ġen": 1020,
      "Ġface": 1021,
      "Ġwhere": 1022,
      "ep": 1023,
      "ĠE": 1024,
      "Ġmo": 1025,
      "Ġstill": 1026,
      "Ġnext": 1027,
      "fter": 1028,
      "Ġwill": 1029,
      "Ġdr": 1030,
      "arts": 1031,
      "Ġpeople": 1032,
      "Ġsn": 1033,
      "Ġlast": 1034,
      "owed": 1035,
      "They": 1036,
      "Ġun": 1037,
      "ĠWe": 1038,
      "Ġthough": 1039,
      "Ġtell": 1040,
      "ather": 1041,
      "Ġbecause": 1042,
      "lt": 1043,
      "Ġ--\"": 1044,
      "udden": 1045,
      "Ġwhich": 1046,
      "Ġwand": 1047,
      "Ġop": 1048,
      "Ġmad": 1049,
      "Ġleft": 1050,
      "Ġbroom": 1051,
      "ched": 1052,
      "up": 1053,
      "Ġspe": 1054,
      "ouse": 1055,
      "Ġstart": 1056,
      "Ġits": 1057,
      "Ġclo": 1058,
      "Ġsudden": 1059,
      "ĠSt": 1060,
      "unt": 1061,
      "Ġpoint": 1062,
      "ious": 1063,
      "Ġta": 1064,
      "ont": 1065,
      "Ġbeh": 1066,
      "Ġsec": 1067,
      "izard": 1068,
      "uch": 1069,
      "ving": 1070,
      "ĠYou": 1071,
      "Ġwa": 1072,
      "nder": 1073,
      "Ġlong": 1074,
      "Ġwasn": 1075,
      "orm": 1076,
      "aking": 1077,
      "Ġtwo": 1078,
      "Ġturned": 1079,
      "But": 1080,
      "warts": 1081,
      "Ġsm": 1082,
      "Ġbo": 1083,
      "ogwarts": 1084,
      "Ġopen": 1085,
      "ew": 1086,
      "Ġbit": 1087,
      "Ġcame": 1088,
      "Ġday": 1089,
      "Ġheard": 1090,
      "Ġgood": 1091,
      "uck": 1092,
      "Ġhouse": 1093,
      "idd": 1094,
      "Ġmuch": 1095,
      "Ġbet": 1096,
      "Ġbehind": 1097,
      "Ġwal": 1098,
      "aring": 1099,
      "ĠHogwarts": 1100,
      "Ġche": 1101,
      "ady": 1102,
      "Ġrem": 1103,
      "Ġshould": 1104,
      "ily": 1105,
      "oor": 1106,
      "ped": 1107,
      "Ġcome": 1108,
      "Ġmust": 1109,
      "Ġpull": 1110,
      "Ġhapp": 1111,
      "Ġseemed": 1112,
      "ave": 1113,
      "Ġwent": 1114,
      "Ġtoward": 1115,
      "ittle": 1116,
      "ile": 1117,
      "Ġaway": 1118,
      "Ġstr": 1119,
      "Ġreally": 1120,
      "Ġanything": 1121,
      "ĠCh": 1122,
      "lie": 1123,
      "Ġafter": 1124,
      "Ġfound": 1125,
      "age": 1126,
      "unn": 1127,
      "here": 1128,
      "ough": 1129,
      "ater": 1130,
      "Ġlittle": 1131,
      "Ġonce": 1132,
      "chool": 1133,
      "ĠTh": 1134,
      "th": 1135,
      "Ġold": 1136,
      "Ġput": 1137,
      "Ġowl": 1138,
      "Ġmade": 1139,
      "Ġsuddenly": 1140,
      "Wh": 1141,
      "ia": 1142,
      "ine": 1143,
      "Ġschool": 1144,
      "Ġwizard": 1145,
      "ering": 1146,
      "Ġcall": 1147,
      "Ġthree": 1148,
      "Ġhimself": 1149,
      "ents": 1150,
      "Ġvo": 1151,
      "Ġletter": 1152,
      "And": 1153,
      "el": 1154,
      "Ġhu": 1155,
      "Ġfind": 1156,
      "ins": 1157,
      "Ġbook": 1158,
      "arly": 1159,
      "lyther": 1160,
      "Ġkeep": 1161,
      "Ġtrying": 1162,
      "Ġcloak": 1163,
      "che": 1164,
      "Ġtried": 1165,
      "Ġsaw": 1166,
      "Ġke": 1167,
      "Ġknew": 1168,
      "Ġtook": 1169,
      "ĠStone": 1170,
      "Hagrid": 1171,
      "te": 1172,
      "Ġfam": 1173,
      "Ġpre": 1174,
      "Ġunder": 1175,
      "ross": 1176,
      "dd": 1177,
      "Ġtake": 1178,
      "ĠSlyther": 1179,
      "ror": 1180,
      "ons": 1181,
      "asley": 1182,
      "agic": 1183,
      "Ġasked": 1184,
      "ĠWeasley": 1185,
      "idditch": 1186,
      "Ġvoice": 1187,
      "We": 1188,
      "Ġdark": 1189,
      "Ġstand": 1190,
      "etun": 1191,
      "Ġro": 1192,
      "Ġsecond": 1193,
      "etunia": 1194,
      "Oh": 1195,
      "ach": 1196,
      "ful": 1197,
      "os": 1198,
      "Ġim": 1199,
      "Ġwind": 1200,
      "Ġhard": 1201,
      "arn": 1202,
      "Ġmom": 1203,
      "Ġnight": 1204,
      "ĠPetunia": 1205,
      "ĠGr": 1206,
      "Ġfew": 1207,
      "ĠQuidditch": 1208,
      "Ġarm": 1209,
      "igh": 1210,
      "inn": 1211,
      "arge": 1212,
      "Ġfore": 1213,
      "Ġgi": 1214,
      "Ġend": 1215,
      "Ġever": 1216,
      "br": 1217,
      "ever": 1218,
      "Ġmight": 1219,
      "Ġpass": 1220,
      "pl": 1221,
      "ugg": 1222,
      "ath": 1223,
      "Ġlot": 1224,
      "Ġinside": 1225,
      "Ġwhis": 1226,
      "Ġnew": 1227,
      "Ron": 1228,
      "cy": 1229,
      "Ġtal": 1230,
      "Ġwall": 1231,
      "Ġhat": 1232,
      "Ġbed": 1233,
      "Ġcour": 1234,
      "Ġhadn": 1235,
      "Ġseen": 1236,
      "aught": 1237,
      "Ġquick": 1238,
      "Ġdrag": 1239,
      "Ġremem": 1240,
      "day": 1241,
      "Ġ'": 1242,
      "Ġhur": 1243,
      "Ġmind": 1244,
      "ilch": 1245,
      "Ġfeet": 1246,
      "Ġfloor": 1247,
      "Ġwhile": 1248,
      "ng": 1249,
      "Ġac": 1250,
      "ream": 1251,
      "leep": 1252,
      "ase": 1253,
      "ise": 1254,
      "Ġgreat": 1255,
      "Ġlarge": 1256,
      "Ġwell": 1257,
      "Ġneed": 1258,
      "ĠAunt": 1259,
      "Ġfront": 1260,
      "Ġwouldn": 1261,
      "Ġthings": 1262,
      "Ġpulled": 1263,
      "Ġhappen": 1264,
      "Ġair": 1265,
      "ish": 1266,
      "Ġyer": 1267,
      "Ġanother": 1268,
      "ĠFilch": 1269,
      "ions": 1270,
      "Ġyears": 1271,
      "Ġblack": 1272,
      "ĠDursleys": 1273,
      "bo": 1274,
      "dy": 1275,
      "get": 1276,
      "ty": 1277,
      "Ġwr": 1278,
      "Ġgone": 1279,
      "ung": 1280,
      "Ġfelt": 1281,
      "Ġstarted": 1282,
      "Th": 1283,
      "most": 1284,
      "ue": 1285,
      "ure": 1286,
      "Ġtro": 1287,
      "Ġsmi": 1288,
      "Ġfee": 1289,
      "Ġmake": 1290,
      "Ġpast": 1291,
      "There": 1292,
      "Ġread": 1293,
      "ump": 1294,
      "ways": 1295,
      "Ġplay": 1296,
      "Ġsupp": 1297,
      "anger": 1298,
      "aw": 1299,
      "ek": 1300,
      "ary": 1301,
      "Ġfire": 1302,
      "Ġground": 1303,
      "ets": 1304,
      "Ġunt": 1305,
      "ĠWood": 1306,
      "Ġalmost": 1307,
      "Ġenough": 1308,
      "Ġmoment": 1309,
      "Well": 1310,
      "ied": 1311,
      "head": 1312,
      "Ġfell": 1313,
      "Ġfoll": 1314,
      "Ġcle": 1315,
      "Ġname": 1316,
      "irror": 1317,
      "ĠAnd": 1318,
      "Ġmean": 1319,
      "Ġwait": 1320,
      "Ġwalked": 1321,
      "ĠSlytherin": 1322,
      "No": 1323,
      "act": 1324,
      "oke": 1325,
      "Ġour": 1326,
      "inut": 1327,
      "Ġsat": 1328,
      "oot": 1329,
      "Hermione": 1330,
      "Yes": 1331,
      "ple": 1332,
      "Ġho": 1333,
      "Ġco": 1334,
      "Ġdone": 1335,
      "Ġsure": 1336,
      "Ġsaying": 1337,
      "Ġwanted": 1338,
      "Ġpoints": 1339,
      "Ġtable": 1340,
      "Ġcalled": 1341,
      "Ġwindow": 1342,
      "Ġcourse": 1343,
      "Ġuntil": 1344,
      "av": 1345,
      "me": 1346,
      "per": 1347,
      "row": 1348,
      "hen": 1349,
      "ready": 1350,
      "Ġdif": 1351,
      "Ġminut": 1352,
      "Ġlater": 1353,
      "ange": 1354,
      "...\"": 1355,
      "Ġreal": 1356,
      "Ġnothing": 1357,
      "Ġalready": 1358,
      "Ġword": 1359,
      "Ġquickly": 1360,
      "Ġsit": 1361,
      "oud": 1362,
      "ercy": 1363,
      "Ġcup": 1364,
      "Ġdis": 1365,
      "Ġgre": 1366,
      "Ġhair": 1367,
      "Ġhalf": 1368,
      "Ġstre": 1369,
      "Ġem": 1370,
      "Ġwhy": 1371,
      "ife": 1372,
      "Ġclass": 1373,
      "ndred": 1374,
      "Ġcor": 1375,
      "Ġdro": 1376,
      "Ġlight": 1377,
      "Ġpro": 1378,
      "Ġsto": 1379,
      "Ġstud": 1380,
      "Ġel": 1381,
      "....": 1382,
      "Ġwithout": 1383,
      "ĠNor": 1384,
      "icked": 1385,
      "ĠBl": 1386,
      "Ġexpe": 1387,
      "ocked": 1388,
      "Ġtrain": 1389,
      "Ġbooks": 1390,
      "ab": 1391,
      "ix": 1392,
      "Ġwon": 1393,
      "Ġhor": 1394,
      "less": 1395,
      "Ġmirror": 1396,
      "Ġste": 1397,
      "Ġstop": 1398,
      "ĠMugg": 1399,
      "rie": 1400,
      "ĠMrs": 1401,
      "airs": 1402,
      "Ġremember": 1403,
      "een": 1404,
      "ies": 1405,
      "ying": 1406,
      "Ġsil": 1407,
      "Ġwond": 1408,
      "Ġfull": 1409,
      "Ġcaught": 1410,
      "ank": 1411,
      "Ġbeing": 1412,
      "amp": 1413,
      "ĠSe": 1414,
      "ridor": 1415,
      "Ġnotic": 1416,
      "ĠThere": 1417,
      "ached": 1418,
      "Ġown": 1419,
      "iously": 1420,
      "Ġhundred": 1421,
      "ches": 1422,
      "Ġtroll": 1423,
      "Ġcorridor": 1424,
      "Don": 1425,
      "gs": 1426,
      "Ġsound": 1427,
      "Ġfin": 1428,
      "Ġcar": 1429,
      "ither": 1430,
      "Ġonto": 1431,
      "Ġkill": 1432,
      "Ġshout": 1433,
      "Ġalways": 1434,
      "ized": 1435,
      "Ġeveryone": 1436,
      "Ġsmall": 1437,
      "Ġacross": 1438,
      "Ġelse": 1439,
      "Kn": 1440,
      "That": 1441,
      "ible": 1442,
      "where": 1443,
      "Ġwatch": 1444,
      "Ġhas": 1445,
      "Ġhold": 1446,
      "Ġhigh": 1447,
      "Ġfour": 1448,
      "Ġhel": 1449,
      "Ġmagic": 1450,
      "Ġgave": 1451,
      "Ġstood": 1452,
      "Ġreached": 1453,
      "rible": 1454,
      "Ġlea": 1455,
      "emort": 1456,
      "oldemort": 1457,
      "Ġbetter": 1458,
      "So": 1459,
      "Ġbre": 1460,
      "Ġbad": 1461,
      "Ġcare": 1462,
      "ory": 1463,
      "ised": 1464,
      "oth": 1465,
      "Ġsame": 1466,
      "stick": 1467,
      "Ġweek": 1468,
      "adam": 1469,
      "Ġask": 1470,
      "ĠShe": 1471,
      "pered": 1472,
      "Ġgold": 1473,
      "Ġhands": 1474,
      "Ġkept": 1475,
      "Ġimp": 1476,
      "ild": 1477,
      "tered": 1478,
      "Ġtre": 1479,
      "Ġside": 1480,
      "Ġsort": 1481,
      "Ġfather": 1482,
      "Ġtop": 1483,
      "ord": 1484,
      "Ġloud": 1485,
      "Ġple": 1486,
      "Ġstared": 1487,
      "imb": 1488,
      "Ġoutside": 1489,
      "cted": 1490,
      "ĠVoldemort": 1491,
      "Ġglass": 1492,
      "Ġforest": 1493,
      "Ġwhispered": 1494,
      "ment": 1495,
      "vis": 1496,
      "wer": 1497,
      "Ġbu": 1498,
      "Ġbig": 1499,
      "ished": 1500,
      "Ġlife": 1501,
      "Ġhall": 1502,
      "Ġner": 1503,
      "Ġstra": 1504,
      "ĠPercy": 1505,
      "rabb": 1506,
      "ushed": 1507,
      "Ġanyone": 1508,
      "ĠBut": 1509,
      "ign": 1510,
      "Ġquite": 1511,
      "Ġplace": 1512,
      "Ġteam": 1513,
      "Ġbroomstick": 1514,
      "Who": 1515,
      "Professor": 1516,
      "be": 1517,
      "bl": 1518,
      "mon": 1519,
      "ph": 1520,
      "ps": 1521,
      "ten": 1522,
      "Ġtak": 1523,
      "Ġsqu": 1524,
      "Ġthese": 1525,
      "ount": 1526,
      "Ġce": 1527,
      "Ġmother": 1528,
      "Ġyet": 1529,
      "ance": 1530,
      "Ġeach": 1531,
      "ĠIn": 1532,
      "Ġra": 1533,
      "eeves": 1534,
      "Ġforward": 1535,
      "Ġdoing": 1536,
      "Ġdoes": 1537,
      "Ġjo": 1538,
      "Ġalong": 1539,
      "Ġwhole": 1540,
      "Ġqui": 1541,
      "ĠOn": 1542,
      "Ġcoming": 1543,
      "Ġswe": 1544,
      "unny": 1545,
      "ze": 1546,
      "Ġsk": 1547,
      "Ġcat": 1548,
      "ating": 1549,
      "iss": 1550,
      "Ġhear": 1551,
      "Ġmut": 1552,
      "Ġgu": 1553,
      "Ġpack": 1554,
      "ird": 1555,
      "Ġwhite": 1556,
      "Ġru": 1557,
      "Ġrest": 1558,
      "ĠThen": 1559,
      "Ġnose": 1560,
      "isten": 1561,
      "orning": 1562,
      "riend": 1563,
      "Ġsilver": 1564,
      "How": 1565,
      "ah": 1566,
      "lves": 1567,
      "ĠJ": 1568,
      "Ġtrou": 1569,
      "ress": 1570,
      "Ġfriend": 1571,
      "Ġcold": 1572,
      "orry": 1573,
      "orge": 1574,
      "Ġmorning": 1575,
      "Ġyes": 1576,
      "Ġbeg": 1577,
      "Ġstay": 1578,
      "tering": 1579,
      "ĠWhat": 1580,
      "Ġyear": 1581,
      "Ġteac": 1582,
      "fere": 1583,
      "Ġmove": 1584,
      "Ġstanding": 1585,
      "Ġhappened": 1586,
      "ER": 1587,
      "bes": 1588,
      "eorge": 1589,
      "ls": 1590,
      "room": 1591,
      "wo": 1592,
      "Ġ(": 1593,
      "Ġsile": 1594,
      "Ġsleep": 1595,
      "Ġbest": 1596,
      "Ġbreat": 1597,
      "arm": 1598,
      "lli": 1599,
      "ĠHis": 1600,
      "Ġcon": 1601,
      "ash": 1602,
      "Ġyell": 1603,
      "ction": 1604,
      "Ġgetting": 1605,
      "Ġagainst": 1606,
      "plain": 1607,
      "Ġdragon": 1608,
      "Ġminutes": 1609,
      "Ġgreen": 1610,
      "Ġempt": 1611,
      "All": 1612,
      "Ye": 1613,
      "form": 1614,
      "mb": 1615,
      "oc": 1616,
      "Ġap": 1617,
      "inting": 1618,
      "rew": 1619,
      "Ġfer": 1620,
      "Ġcorn": 1621,
      "ation": 1622,
      "Ġlost": 1623,
      "Ġpa": 1624,
      "Ġround": 1625,
      "cept": 1626,
      "Ġang": 1627,
      "peared": 1628,
      "Ġlearn": 1629,
      "Ġdog": 1630,
      "pping": 1631,
      "ĠFred": 1632,
      "Ġplat": 1633,
      "Ġwork": 1634,
      "ully": 1635,
      "aps": 1636,
      "Ġfamily": 1637,
      "Ġtalking": 1638,
      "Ġsuppose": 1639,
      "Ġstopped": 1640,
      "Ġnoticed": 1641,
      "Ġshouted": 1642,
      "Know": 1643,
      "Ġhelp": 1644,
      "Ġteacher": 1645,
      "HA": 1646,
      "cl": 1647,
      "mas": 1648,
      "nce": 1649,
      "ince": 1650,
      "Ġset": 1651,
      "rest": 1652,
      "Ġboth": 1653,
      "Ġcur": 1654,
      "Ġmost": 1655,
      "ower": 1656,
      "Ġbelie": 1657,
      "Ġans": 1658,
      "Ġless": 1659,
      "Ġshow": 1660,
      "Ġnearly": 1661,
      "ĠGeorge": 1662,
      "Ġpock": 1663,
      "Ġusu": 1664,
      "Ġeverything": 1665,
      "otts": 1666,
      "ĠEvery": 1667,
      "Ġstraight": 1668,
      "Ġtaken": 1669,
      "Ġtrouble": 1670,
      "fully": 1671,
      "ib": 1672,
      "oon": 1673,
      "ove": 1674,
      "Ġten": 1675,
      "Ġball": 1676,
      "Ġbro": 1677,
      "ingotts": 1678,
      "Ġdes": 1679,
      "Ġmout": 1680,
      "Ġgame": 1681,
      "owd": 1682,
      "ĠPeeves": 1683,
      "Ġred": 1684,
      "udg": 1685,
      "iling": 1686,
      "amel": 1687,
      "Ġblood": 1688,
      "uffy": 1689,
      "bert": 1690,
      "fect": 1691,
      "Ġstrange": 1692,
      "Ġdiffere": 1693,
      "OR": 1694,
      "ier": 1695,
      "light": 1696,
      "ny": 1697,
      "pr": 1698,
      "Ġam": 1699,
      "Ġsight": 1700,
      "Ġsna": 1701,
      "Ġhome": 1702,
      "Ġbus": 1703,
      "Ġbott": 1704,
      "atched": 1705,
      "Ġheart": 1706,
      "Ġgas": 1707,
      "Ġpain": 1708,
      "Ġsafe": 1709,
      "ĠIf": 1710,
      "Ġuse": 1711,
      "ĠMadam": 1712,
      "ention": 1713,
      "ĠAll": 1714,
      "Ġweren": 1715,
      "ĠGreat": 1716,
      "Ġable": 1717,
      "icorn": 1718,
      "ousand": 1719,
      "....\"": 1720,
      "ĠFlamel": 1721,
      "Ġmany": 1722,
      "Ġfollow": 1723,
      "Ġquiet": 1724,
      "Ġguard": 1725,
      "ey": 1726,
      "rist": 1727,
      "vous": 1728,
      "ĠK": 1729,
      "ined": 1730,
      "Ġsur": 1731,
      "Ġfast": 1732,
      "Ġfunny": 1733,
      "Ġcast": 1734,
      "ats": 1735,
      "ans": 1736,
      "aged": 1737,
      "selves": 1738,
      "Ġreas": 1739,
      "ize": 1740,
      "Ġdead": 1741,
      "ĠFluffy": 1742,
      "dded": 1743,
      "Ġrobes": 1744,
      "ĠGringotts": 1745,
      "Ġfeeling": 1746,
      "Ġsitting": 1747,
      "ĠNorbert": 1748,
      "Ġholding": 1749,
      "Ġbreak": 1750,
      "Ġnervous": 1751,
      "Ġcorner": 1752,
      "Ġmouth": 1753,
      "ristmas": 1754,
      "At": 1755,
      "Now": 1756,
      "TER": 1757,
      "aff": 1758,
      "abb": 1759,
      "ip": 1760,
      "Ġtri": 1761,
      "ery": 1762,
      "Ġfur": 1763,
      "Ġfive": 1764,
      "Ġfoot": 1765,
      "ĠHall": 1766,
      "ased": 1767,
      "Ġmar": 1768,
      "Ġmatch": 1769,
      "Ġgive": 1770,
      "Ġlisten": 1771,
      "Ġper": 1772,
      "Ġinvis": 1773,
      "ĠAs": 1774,
      "Ġlibr": 1775,
      "icul": 1776,
      "oyle": 1777,
      "Ġseem": 1778,
      "Ġworld": 1779,
      "arent": 1780,
      "Ġunicorn": 1781,
      "ĠGranger": 1782,
      "Ġgiant": 1783,
      "Ġpassed": 1784,
      "board": 1785,
      "Ġwords": 1786,
      "Ġsnapped": 1787,
      "She": 1788,
      "Snape": 1789,
      "co": 1790,
      "ipped": 1791,
      "Ġide": 1792,
      "Ġsorry": 1793,
      "Ġhour": 1794,
      "arlie": 1795,
      "Ġfly": 1796,
      "Ġcatch": 1797,
      "Ġdri": 1798,
      "Ġdeep": 1799,
      "Ġmet": 1800,
      "Ġgh": 1801,
      "Ġlau": 1802,
      "Ġluck": 1803,
      "Ġparent": 1804,
      "Ġinte": 1805,
      "aned": 1806,
      "Ġstaring": 1807,
      "oman": 1808,
      "Ġeither": 1809,
      "ching": 1810,
      "riv": 1811,
      "Ġshop": 1812,
      "Ġnote": 1813,
      "ĠGoyle": 1814,
      "Ġnoise": 1815,
      "Ġposs": 1816,
      "Ġtwins": 1817,
      "Ġquest": 1818,
      "Ġsomeone": 1819,
      "Ġsomewhere": 1820,
      "Ġscar": 1821,
      "Ġcrowd": 1822,
      "upid": 1823,
      "ĠChristmas": 1824,
      "ĠThis": 1825,
      "Ġkey": 1826,
      "Ġarms": 1827,
      "Ġbegan": 1828,
      "Ġempty": 1829,
      "Ġcastle": 1830,
      "Ġreason": 1831,
      "Ġlibrary": 1832,
      "Ġparents": 1833,
      "Ġinterest": 1834,
      "When": 1835,
      "iled": 1836,
      "ts": 1837,
      "ween": 1838,
      "Ġtou": 1839,
      "Ġsince": 1840,
      "Ġfar": 1841,
      "Ġfac": 1842,
      "ĠHow": 1843,
      "itw": 1844,
      "Ġdire": 1845,
      "Ġthose": 1846,
      "rying": 1847,
      "Ġpr": 1848,
      "ldr": 1849,
      "Ġstone": 1850,
      "Ġstupid": 1851,
      "Ġeas": 1852,
      "Ġroll": 1853,
      "Ġrather": 1854,
      "ored": 1855,
      "Ġforg": 1856,
      "Ġforget": 1857,
      "umped": 1858,
      "ĠNo": 1859,
      "Ġclose": 1860,
      "auldr": 1861,
      "ĠBe": 1862,
      "Ġexcept": 1863,
      "aper": 1864,
      "Ġscream": 1865,
      "Ġcommon": 1866,
      "Ġmoved": 1867,
      "Ġspeak": 1868,
      "Ġbetween": 1869,
      "actly": 1870,
      "Ġstudents": 1871,
      "ĠBludg": 1872,
      "Ġplatform": 1873,
      "Ġanswer": 1874,
      "Ġghost": 1875,
      "If": 1876,
      "Not": 1877,
      "ail": 1878,
      "eak": 1879,
      "ks": 1880,
      "ker": 1881,
      "ken": 1882,
      "vand": 1883,
      "ye": 1884,
      "Ġsign": 1885,
      "Ġwatched": 1886,
      "Ġhung": 1887,
      "onight": 1888,
      "Ġfie": 1889,
      "Ġtoad": 1890,
      "ated": 1891,
      "Ġheld": 1892,
      "Ġmay": 1893,
      "Ġpie": 1894,
      "Ġhang": 1895,
      "Ġnice": 1896,
      "Ġasleep": 1897,
      "ĠSn": 1898,
      "ĠSee": 1899,
      "ĠMagic": 1900,
      "ĠDe": 1901,
      "Ġlegs": 1902,
      "Ġneck": 1903,
      "iff": 1904,
      "umm": 1905,
      "ĠTwo": 1906,
      "Ġexam": 1907,
      "Ġisn": 1908,
      "Ġbrother": 1909,
      "Ġsuch": 1910,
      "ĠOlli": 1911,
      "Ġslow": 1912,
      "Ġpointed": 1913,
      "Why": 1914,
      "osed": 1915,
      "Ġhardly": 1916,
      "Ġtalk": 1917,
      "body": 1918,
      "Ġcupboard": 1919,
      "Ġstreet": 1920,
      "Ġdropped": 1921,
      "ably": 1922,
      "ĠMuggle": 1923,
      "rabbe": 1924,
      "Ġmuttered": 1925,
      "Ġbelieve": 1926,
      "Ġdifferent": 1927,
      "ĠOllivand": 1928,
      "Malfoy": 1929,
      "On": 1930,
      "ect": 1931,
      "ged": 1932,
      "Ġtonight": 1933,
      "Ġad": 1934,
      "iny": 1935,
      "Ġwarn": 1936,
      "Ġwild": 1937,
      "ought": 1938,
      "rer": 1939,
      "Ġhid": 1940,
      "Ġbar": 1941,
      "Ġbur": 1942,
      "arp": 1943,
      "ings": 1944,
      "Ġtoget": 1945,
      "Ġcont": 1946,
      "ity": 1947,
      "lew": 1948,
      "Ġmist": 1949,
      "Ġpar": 1950,
      "Ġpart": 1951,
      "Ġpower": 1952,
      "Ġhaven": 1953,
      "Ġinst": 1954,
      "ane": 1955,
      "Ġyoung": 1956,
      "Ġstuff": 1957,
      "Ġstep": 1958,
      "amus": 1959,
      "Ġref": 1960,
      "Ġneare": 1961,
      "Ġmeet": 1962,
      "ract": 1963,
      "Ġalone": 1964,
      "Ġknows": 1965,
      "Ġgotten": 1966,
      "Ġanyway": 1967,
      "Ġexc": 1968,
      "ĠCrabbe": 1969,
      "Ġbright": 1970,
      "Ġdec": 1971,
      "Ġcomp": 1972,
      "ately": 1973,
      "ĠFlitw": 1974,
      "Ġmanaged": 1975,
      "Ġchess": 1976,
      "ĠCharlie": 1977,
      "Ġowls": 1978,
      "Ġletters": 1979,
      "Ġhuge": 1980,
      "Ġfamous": 1981,
      "Ġhurt": 1982,
      "This": 1983,
      "Ġfeel": 1984,
      "Ġfollowed": 1985,
      "Ġhope": 1986,
      "Ġhorrible": 1987,
      "ĠSeamus": 1988,
      "Ġceiling": 1989,
      "Ġpale": 1990,
      "Ġgasped": 1991,
      "Ġsurpr": 1992,
      "Ġidea": 1993,
      "Ġfield": 1994,
      "Ġtogether": 1995,
      "As": 1996,
      "EN": 1997,
      "HE": 1998,
      "IN": 1999,
      "Mr": 2000,
      "Sh": 2001,
      "able": 2002,
      "de": 2003,
      "nze": 2004,
      "ping": 2005,
      "puff": 2006,
      "ĠY": 2007,
      "Ġtur": 2008,
      "Ġtra": 2009,
      "ret": 2010,
      "ĠHuff": 2011,
      "lepuff": 2012,
      "Ġpur": 2013,
      "Ġstick": 2014,
      "stand": 2015,
      "Ġran": 2016,
      "Ġkit": 2017,
      "rought": 2018,
      "ĠAt": 2019,
      "Ġclimb": 2020,
      "Ġexplain": 2021,
      "Ġexactly": 2022,
      "ĠQuaff": 2023,
      "Ġspoke": 2024,
      "irenze": 2025,
      "Ġsnake": 2026,
      "Ġspell": 2027,
      "Ġopened": 2028,
      "Ġwrong": 2029,
      "Ġsmiling": 2030,
      "Ġwaiting": 2031,
      "ĠMuggles": 2032,
      "Ġfinally": 2033,
      "Ġpleased": 2034,
      "Ġraised": 2035,
      "ĠFlitwick": 2036,
      "ĠHufflepuff": 2037,
      "ĠQuaffle": 2038,
      "Do": 2039,
      "Dumbledore": 2040,
      "Good": 2041,
      "aven": 2042,
      "haps": 2043,
      "li": 2044,
      "ta": 2045,
      "Ġent": 2046,
      "Ġtight": 2047,
      "hes": 2048,
      "Ġwoman": 2049,
      "Ġhut": 2050,
      "Ġbra": 2051,
      "Ġfing": 2052,
      "Ġfall": 2053,
      "Ġfree": 2054,
      "Ġob": 2055,
      "orce": 2056,
      "Ġdream": 2057,
      "Ġdied": 2058,
      "Ġheav": 2059,
      "Ġmone": 2060,
      "Ġmaking": 2061,
      "Ġgir": 2062,
      "Ġlow": 2063,
      "Ġnumb": 2064,
      "anc": 2065,
      "ames": 2066,
      "ĠSc": 2067,
      "rive": 2068,
      "Ġleave": 2069,
      "Ġshook": 2070,
      "Ġsharp": 2071,
      "Ġnear": 2072,
      "ĠRonan": 2073,
      "Ġknocked": 2074,
      "ifty": 2075,
      "ĠFang": 2076,
      "anded": 2077,
      "ĠNot": 2078,
      "Ġsend": 2079,
      "Ġseat": 2080,
      "raw": 2081,
      "ault": 2082,
      "ortant": 2083,
      "Ġtimes": 2084,
      "Ġheads": 2085,
      "olas": 2086,
      "Ġarri": 2087,
      "ĠThousand": 2088,
      "chen": 2089,
      "Ġgiven": 2090,
      "Ġnews": 2091,
      "avor": 2092,
      "Ġdisap": 2093,
      "Ġstepped": 2094,
      "Ġwatching": 2095,
      "Ġloudly": 2096,
      "Ġbreath": 2097,
      "HAP": 2098,
      "Ġpocket": 2099,
      "Ġusual": 2100,
      "auldron": 2101,
      "ĠSnitch": 2102,
      "ĠOllivander": 2103,
      "Ġkitchen": 2104,
      "Ġmoney": 2105,
      "An": 2106,
      "St": 2107,
      "Uncle": 2108,
      "eath": 2109,
      "so": 2110,
      "ted": 2111,
      "Ġtall": 2112,
      "Ġtaking": 2113,
      "Ġsing": 2114,
      "Ġbin": 2115,
      "Ġbrought": 2116,
      "Ġcou": 2117,
      "Ġcard": 2118,
      "Ġcross": 2119,
      "atter": 2120,
      "ister": 2121,
      "Ġmid": 2122,
      "Ġthick": 2123,
      "Ġthird": 2124,
      "Ġthrew": 2125,
      "Ġlay": 2126,
      "Ġpract": 2127,
      "ows": 2128,
      "Ġele": 2129,
      "stairs": 2130,
      "vel": 2131,
      "Ġrat": 2132,
      "Ġrun": 2133,
      "Ġwearing": 2134,
      "amber": 2135,
      "ĠPriv": 2136,
      "Ġshut": 2137,
      "Ġknock": 2138,
      "Ġallowed": 2139,
      "Ġgobl": 2140,
      "ĠFor": 2141,
      "ĠWhen": 2142,
      "ĠNow": 2143,
      "Ġseven": 2144,
      "inking": 2145,
      "Ġpointing": 2146,
      "Ġflut": 2147,
      "Ġspr": 2148,
      "Ġvis": 2149,
      "Ġeye": 2150,
      "Ġord": 2151,
      "Ġhowever": 2152,
      "otten": 2153,
      "Ġtelling": 2154,
      "Ġclos": 2155,
      "Ġsecret": 2156,
      "Ġsmell": 2157,
      "Ġaftern": 2158,
      "elve": 2159,
      "Ġunderstand": 2160,
      "Ġrealized": 2161,
      "Ġimportant": 2162,
      "ĠOne": 2163,
      "ressed": 2164,
      "Ġforgotten": 2165,
      "Ġslowly": 2166,
      "orcerer": 2167,
      "Ġarrived": 2168,
      "HAPTER": 2169,
      "Can": 2170,
      "Come": 2171,
      "CHAPTER": 2172,
      "Every": 2173,
      "Just": 2174,
      "See": 2175,
      "ald": 2176,
      "bered": 2177,
      "ead": 2178,
      "how": 2179,
      "ired": 2180,
      "ness": 2181,
      "tain": 2182,
      "Ġsent": 2183,
      "Ġwide": 2184,
      "Ġhit": 2185,
      "Ġbag": 2186,
      "Ġtow": 2187,
      "Ġcount": 2188,
      "ith": 2189,
      "Ġlamp": 2190,
      "Ġport": 2191,
      "Ġpair": 2192,
      "Ġpicked": 2193,
      "Ġpushed": 2194,
      "Ġnast": 2195,
      "ages": 2196,
      "Ġrock": 2197,
      "Then": 2198,
      "ĠSo": 2199,
      "ĠSorcerer": 2200,
      "ĠDrive": 2201,
      "rif": 2202,
      "Ġleg": 2203,
      "Ġshowed": 2204,
      "ĠNimb": 2205,
      "Ġabove": 2206,
      "Ġcla": 2207,
      "rait": 2208,
      "Quirrell": 2209,
      "Ġflat": 2210,
      "Ġtele": 2211,
      "Ġused": 2212,
      "Ġdear": 2213,
      "Ġterrible": 2214,
      "Ġboys": 2215,
      "olate": 2216,
      "thin": 2217,
      "Ġpres": 2218,
      "Ġwalls": 2219,
      "Ġsupposed": 2220,
      "Ġdiff": 2221,
      "Ġexpect": 2222,
      "Ġsky": 2223,
      "Ġsilent": 2224,
      "ocolate": 2225,
      "Ġteachers": 2226,
      "Ġexcit": 2227,
      "Ġdisappeared": 2228,
      "ĠPrivet": 2229,
      "Ġafternoon": 2230,
      "Ġportrait": 2231,
      "ĠNimbus": 2232,
      "AR": 2233,
      "Look": 2234,
      "Neville": 2235,
      "iers": 2236,
      "kin": 2237,
      "od": 2238,
      "ope": 2239,
      "ris": 2240,
      "use": 2241,
      "vent": 2242,
      "Ġz": 2243,
      "Ġed": 2244,
      "Ġaw": 2245,
      "Ġahead": 2246,
      "Ġsumm": 2247,
      "Ġhop": 2248,
      "Ġfight": 2249,
      "Ġfact": 2250,
      "Ġfifty": 2251,
      "Ġcarry": 2252,
      "Ġodd": 2253,
      "ided": 2254,
      "Ġdanger": 2255,
      "ening": 2256,
      "ense": 2257,
      "Ġlock": 2258,
      "Ġlate": 2259,
      "Ġph": 2260,
      "Ġpot": 2261,
      "Ġpun": 2262,
      "Ġstair": 2263,
      "Ġears": 2264,
      "irth": 2265,
      "Ġrunn": 2266,
      "Ġkind": 2267,
      "ĠPom": 2268,
      "ĠPiers": 2269,
      "Ġrec": 2270,
      "Ġrelie": 2271,
      "ĠDark": 2272,
      "Ġlead": 2273,
      "unk": 2274,
      "Ġthemselves": 2275,
      "ĠFirenze": 2276,
      "ĠWh": 2277,
      "icolas": 2278,
      "Ġalso": 2279,
      "Ġpost": 2280,
      "ĠThat": 2281,
      "Ġtwelve": 2282,
      "igg": 2283,
      "Ġchamber": 2284,
      "Ġthinking": 2285,
      "Ġdoors": 2286,
      "anged": 2287,
      "eeper": 2288,
      "Ġturning": 2289,
      "Ġbecame": 2290,
      "Ġothers": 2291,
      "otted": 2292,
      "Ġcrack": 2293,
      "ĠGryffindors": 2294,
      "Ġtail": 2295,
      "Ġshoulder": 2296,
      "Ġwizards": 2297,
      "Ġseconds": 2298,
      "Ġimag": 2299,
      "Ġhurried": 2300,
      "Ġtrees": 2301,
      "Ġplease": 2302,
      "Ġglasses": 2303,
      "Ġfriends": 2304,
      "Ġangry": 2305,
      "Ġburst": 2306,
      "Ġclimbed": 2307,
      "Ġobv": 2308,
      "Ġnumber": 2309,
      "Ġstairc": 2310,
      "irthday": 2311,
      "Are": 2312,
      "Go": 2313,
      "LE": 2314,
      "az": 2315,
      "ban": 2316,
      "ments": 2317,
      "ured": 2318,
      "Ġtree": 2319,
      "Ġtiny": 2320,
      "Ġsister": 2321,
      "rey": 2322,
      "Ġbent": 2323,
      "Ġbirthday": 2324,
      "lled": 2325,
      "Ġtoday": 2326,
      "Ġcent": 2327,
      "ishing": 2328,
      "Ġmail": 2329,
      "Ġmatter": 2330,
      "Ġthrow": 2331,
      "ened": 2332,
      "Ġlo": 2333,
      "Ġpink": 2334,
      "Ġhaving": 2335,
      "Ġbel": 2336,
      "Ġeh": 2337,
      "Ġeat": 2338,
      "Ġegg": 2339,
      "agon": 2340,
      "ĠSm": 2341,
      "ooking": 2342,
      "akes": 2343,
      "ĠAl": 2344,
      "ĠAny": 2345,
      "Ġliked": 2346,
      "Ġjumped": 2347,
      "ĠWhere": 2348,
      "ĠNicolas": 2349,
      "ility": 2350,
      "Ġsoon": 2351,
      "ĠBane": 2352,
      "Ġtwice": 2353,
      "Ġyourself": 2354,
      "acing": 2355,
      "Ġtea": 2356,
      "ondon": 2357,
      "Ġscr": 2358,
      "Ġevening": 2359,
      "ĠLondon": 2360,
      "Ġswung": 2361,
      "itten": 2362,
      "Ġgrow": 2363,
      "ĠFlint": 2364,
      "Ġbrooms": 2365,
      "Ġspeed": 2366,
      "Ġbody": 2367,
      "Ġremind": 2368,
      "ĠSlytherins": 2369,
      "Ġpassage": 2370,
      "Ġplaying": 2371,
      "Ġclassroom": 2372,
      "Ġwondered": 2373,
      "Ġkilled": 2374,
      "Ġleapt": 2375,
      "Ġsilence": 2376,
      "Ġyelled": 2377,
      "Yeah": 2378,
      "ibility": 2379,
      "Ġguarding": 2380,
      "Ġinvisibility": 2381,
      "Ġflying": 2382,
      "Ġlaugh": 2383,
      "Ġinstead": 2384,
      "Ġrefle": 2385,
      "Ġnearer": 2386,
      "Ġturban": 2387,
      "Ġpurple": 2388,
      "Ġfingers": 2389,
      "Ġeleven": 2390,
      "Ġvisit": 2391,
      "rified": 2392,
      "Ġdifficul": 2393,
      "Ġrunning": 2394,
      "Er": 2395,
      "ci": 2396,
      "frey": 2397,
      "hin": 2398,
      "ixt": 2399,
      "ub": 2400,
      "wig": 2401,
      "Ġaunt": 2402,
      "Ġadded": 2403,
      "iness": 2404,
      "Ġsim": 2405,
      "Ġwood": 2406,
      "reed": 2407,
      "Ġhum": 2408,
      "Ġbab": 2409,
      "edwig": 2410,
      "Ġcre": 2411,
      "Ġcart": 2412,
      "Ġcoll": 2413,
      "ashed": 2414,
      "orrow": 2415,
      "Ġdie": 2416,
      "Ġmidd": 2417,
      "Ġmount": 2418,
      "Ġmiss": 2419,
      "Ġmention": 2420,
      "Ġlose": 2421,
      "Ġpile": 2422,
      "Ġpaper": 2423,
      "Ġnar": 2424,
      "Ġnorm": 2425,
      "Ġbeard": 2426,
      "stri": 2427,
      "ime": 2428,
      "irty": 2429,
      "Ġatt": 2430,
      "aming": 2431,
      "Ġready": 2432,
      "Ġwitch": 2433,
      "rily": 2434,
      "Ġshad": 2435,
      "Ġupstairs": 2436,
      "Ġjer": 2437,
      "Ġjump": 2438,
      "ĠWell": 2439,
      "Ġseized": 2440,
      "Ġago": 2441,
      "Ġworry": 2442,
      "Ġaren": 2443,
      "Ġscared": 2444,
      "arks": 2445,
      "Ġgray": 2446,
      "Ġdrink": 2447,
      "Ġwalking": 2448,
      "Ġprefect": 2449,
      "Ġforehead": 2450,
      "Ġdragons": 2451,
      "Ġsmile": 2452,
      "Ġsmiled": 2453,
      "Ġgrounds": 2454,
      "Ġminute": 2455,
      "ĠNorris": 2456,
      "Ġexpelled": 2457,
      "ixed": 2458,
      "Ġwonder": 2459,
      "Ġcarefully": 2460,
      "Ġbuy": 2461,
      "Ġpackage": 2462,
      "Yeh": 2463,
      "Ġapart": 2464,
      "Ġbroken": 2465,
      "Ġquietly": 2466,
      "abbers": 2467,
      "Ġlucky": 2468,
      "Ġquestions": 2469,
      "Ġdirection": 2470,
      "Ġscreamed": 2471,
      "ĠBludgers": 2472,
      "ĠSeeker": 2473,
      "Ġpractice": 2474,
      "Ġnasty": 2475,
      "ĠPomfrey": 2476,
      "Ġstaircase": 2477,
      "Ġmiddle": 2478,
      "OT": 2479,
      "OU": 2480,
      "THE": 2481,
      "ced": 2482,
      "ces": 2483,
      "ees": 2484,
      "fort": 2485,
      "ich": 2486,
      "looking": 2487,
      "ses": 2488,
      "âĢ": 2489,
      "Ġser": 2490,
      "Ġsir": 2491,
      "Ġwarm": 2492,
      "Ġbat": 2493,
      "Ġbath": 2494,
      "Ġfat": 2495,
      "Ġflew": 2496,
      "Ġtower": 2497,
      "ĠHer": 2498,
      "ĠHoo": 2499,
      "ĠHedwig": 2500,
      "Ġcry": 2501,
      "Ġcase": 2502,
      "aster": 2503,
      "Ġdi": 2504,
      "Ġdad": 2505,
      "Ġdist": 2506,
      "Ġdorm": 2507,
      "Ġgrabb": 2508,
      "Ġline": 2509,
      "Ġlying": 2510,
      "Ġpers": 2511,
      "Ġpath": 2512,
      "Ġones": 2513,
      "Ġear": 2514,
      "Ġeag": 2515,
      "veral": 2516,
      "ammed": 2517,
      "uring": 2518,
      "ĠMom": 2519,
      "ĠPe": 2520,
      "Ġres": 2521,
      "aked": 2522,
      "riph": 2523,
      "Ġleaned": 2524,
      "enty": 2525,
      "ently": 2526,
      "Ġshaking": 2527,
      "Ġknees": 2528,
      "ĠAn": 2529,
      "ĠAfter": 2530,
      "Ġlive": 2531,
      "ĠWizard": 2532,
      "arth": 2533,
      "ĠNe": 2534,
      "Ġseveral": 2535,
      "rapped": 2536,
      "Ġanythin": 2537,
      "Ġfeather": 2538,
      "Ġext": 2539,
      "isted": 2540,
      "Ġworse": 2541,
      "Ġblue": 2542,
      "aced": 2543,
      "Ġspot": 2544,
      "Ġsugg": 2545,
      "Ġsomehow": 2546,
      "Ġsays": 2547,
      "ĠPotions": 2548,
      "Ġtrue": 2549,
      "Ġmyst": 2550,
      "Ġswoo": 2551,
      "Ġslid": 2552,
      "Ġcrate": 2553,
      "Ġunw": 2554,
      "Ġbox": 2555,
      "Ġwalk": 2556,
      "Ġcheer": 2557,
      "Ġshouldn": 2558,
      "Ġhappy": 2559,
      "ĠChas": 2560,
      "tend": 2561,
      "Ġfamil": 2562,
      "ĠWeasleys": 2563,
      "inned": 2564,
      "awn": 2565,
      "Ġhole": 2566,
      "Ġwindows": 2567,
      "Ġproper": 2568,
      "Ġexpected": 2569,
      "Ġwondering": 2570,
      "Ġfinished": 2571,
      "Ġleaving": 2572,
      "Ġappeared": 2573,
      "clock": 2574,
      "Ġdesper": 2575,
      "Ġpossible": 2576,
      "Ġfaces": 2577,
      "Ġeasy": 2578,
      "Ġbrothers": 2579,
      "Ġheavy": 2580,
      "Ġcloser": 2581,
      "ĠHooch": 2582,
      "Ġdormit": 2583,
      "Ġgrabbed": 2584,
      "riphook": 2585,
      "Ġsuggest": 2586,
      "Did": 2587,
      "Dudley": 2588,
      "FF": 2589,
      "His": 2590,
      "My": 2591,
      "Pot": 2592,
      "Where": 2593,
      "aur": 2594,
      "but": 2595,
      "bably": 2596,
      "fast": 2597,
      "fus": 2598,
      "ger": 2599,
      "ghed": 2600,
      "ike": 2601,
      "night": 2602,
      "rown": 2603,
      "the": 2604,
      "you": 2605,
      "ĠYes": 2606,
      "Ġign": 2607,
      "Ġtick": 2608,
      "ining": 2609,
      "inary": 2610,
      "Ġsle": 2611,
      "Ġsun": 2612,
      "Ġwater": 2613,
      "Ġhol": 2614,
      "erhaps": 2615,
      "ertain": 2616,
      "ndern": 2617,
      "Ġfad": 2618,
      "Ġfro": 2619,
      "Ġfood": 2620,
      "Ġtom": 2621,
      "Ġcried": 2622,
      "let": 2623,
      "iday": 2624,
      "Ġdare": 2625,
      "Ġdraw": 2626,
      "Ġmot": 2627,
      "Ġlanded": 2628,
      "Ġprou": 2629,
      "Ġnine": 2630,
      "Ġinches": 2631,
      "Ġbew": 2632,
      "Ġstro": 2633,
      "Ġstory": 2634,
      "Ġearth": 2635,
      "eth": 2636,
      "Ġhiss": 2637,
      "step": 2638,
      "uts": 2639,
      "Ġuncle": 2640,
      "Ġrow": 2641,
      "Ġrose": 2642,
      "Ġracing": 2643,
      "ĠDra": 2644,
      "ĠRaven": 2645,
      "ters": 2646,
      "rier": 2647,
      "Ġleast": 2648,
      "Ġshot": 2649,
      "Ġshort": 2650,
      "Ġshock": 2651,
      "Ġknown": 2652,
      "ĠAg": 2653,
      "udd": 2654,
      "Ġgoes": 2655,
      "Ġfright": 2656,
      "Ġclut": 2657,
      "Ġsoft": 2658,
      "ĠBar": 2659,
      "ĠCauldron": 2660,
      "Ġflo": 2661,
      "Ġquill": 2662,
      "Ġplan": 2663,
      "Ġplant": 2664,
      "Ġworried": 2665,
      "Ġspl": 2666,
      "Ġspent": 2667,
      "Ġspotted": 2668,
      "omething": 2669,
      "Ġchance": 2670,
      "Ġchanged": 2671,
      "Ġvault": 2672,
      "uffled": 2673,
      "Ġcomple": 2674,
      "Ġglad": 2675,
      "ĠPotters": 2676,
      "itted": 2677,
      "ĠEven": 2678,
      "Ġboat": 2679,
      "Ġdays": 2680,
      "elting": 2681,
      "teen": 2682,
      "Ġpretend": 2683,
      "inner": 2684,
      "Thank": 2685,
      "Ġcoat": 2686,
      "Ġsteal": 2687,
      "Ġleaves": 2688,
      "Ġweeks": 2689,
      "Ġtremb": 2690,
      "claw": 2691,
      "ĠEveryone": 2692,
      "Ġbroke": 2693,
      "Ġbottle": 2694,
      "Ġbreakfast": 2695,
      "Ġnervously": 2696,
      "Ġfuriously": 2697,
      "Ġlistening": 2698,
      "Ġperfect": 2699,
      "Ġinteresting": 2700,
      "Ġtouch": 2701,
      "Ġrolled": 2702,
      "eaky": 2703,
      "Ġmaybe": 2704,
      "Ġhanging": 2705,
      "ĠDean": 2706,
      "Ġdecided": 2707,
      "Ġentr": 2708,
      "Ġgirl": 2709,
      "ĠScabbers": 2710,
      "Ġgoblin": 2711,
      "Ġclapped": 2712,
      "Ġedge": 2713,
      "Ġdangerous": 2714,
      "Ġobviously": 2715,
      "ĠSmelting": 2716,
      "Ġdifficult": 2717,
      "Ġcrept": 2718,
      "Ġnarrow": 2719,
      "âĢľ": 2720,
      "Ġfamilies": 2721,
      "Ġholiday": 2722,
      "nderneath": 2723,
      "Ġproud": 2724,
      "ĠRavenclaw": 2725,
      ").": 2726,
      "AA": 2727,
      "Ah": 2728,
      "Be": 2729,
      "Let": 2730,
      "Madam": 2731,
      "Right": 2732,
      "bid": 2733,
      "cc": 2734,
      "cle": 2735,
      "door": 2736,
      "fa": 2737,
      "fra": 2738,
      "ply": 2739,
      "tle": 2740,
      "turn": 2741,
      "ually": 2742,
      "we": 2743,
      "wor": 2744,
      "Ġes": 2745,
      "Ġice": 2746,
      "Ġsick": 2747,
      "Ġsus": 2748,
      "Ġsix": 2749,
      "Ġsize": 2750,
      "Ġwin": 2751,
      "Ġwoke": 2752,
      "Ġhot": 2753,
      "Ġbought": 2754,
      "Ġtoile": 2755,
      "itched": 2756,
      "ati": 2757,
      "atur": 2758,
      "lebr": 2759,
      "ors": 2760,
      "Ġdet": 2761,
      "Ġdun": 2762,
      "Ġduring": 2763,
      "Ġthin": 2764,
      "Ġlump": 2765,
      "Ġlocked": 2766,
      "Ġnone": 2767,
      "Ġins": 2768,
      "Ġsave": 2769,
      "Ġstool": 2770,
      "Ġstorm": 2771,
      "Ġstation": 2772,
      "vered": 2773,
      "Ġumb": 2774,
      "Ġwhist": 2775,
      "Ġrid": 2776,
      "ĠSome": 2777,
      "eered": 2778,
      "ĠMy": 2779,
      "alm": 2780,
      "Ġforbid": 2781,
      "Ġoutta": 2782,
      "ift": 2783,
      "ĠAr": 2784,
      "ĠFat": 2785,
      "ĠFro": 2786,
      "ains": 2787,
      "Ġliving": 2788,
      "ĠWith": 2789,
      "Ġsofa": 2790,
      "Ġnodded": 2791,
      "Ġknowing": 2792,
      "inked": 2793,
      "Ġtwenty": 2794,
      "Ġflick": 2795,
      "Ġagreed": 2796,
      "Ġworking": 2797,
      "Ġblank": 2798,
      "Ġcho": 2799,
      "Ġchair": 2800,
      "Ġchuck": 2801,
      "rella": 2802,
      "Ġdeath": 2803,
      "Ġcomplain": 2804,
      "bbing": 2805,
      "ĠLook": 2806,
      "ĠLeaky": 2807,
      "Ġslight": 2808,
      "Ġslipped": 2809,
      "Ġmoon": 2810,
      "Ġstarting": 2811,
      "Ġwaved": 2812,
      "ĠChocolate": 2813,
      "Ġkeeping": 2814,
      "inning": 2815,
      "Ġremembered": 2816,
      "Ġwritten": 2817,
      "Ġclearing": 2818,
      "Ġclearly": 2819,
      "Ġrealize": 2820,
      "Ġstret": 2821,
      "Ġhorror": 2822,
      "Ġhundreds": 2823,
      "Ġcorridors": 2824,
      "Ġsounded": 2825,
      "Ġcarried": 2826,
      "Ġcareful": 2827,
      "ordan": 2828,
      "vision": 2829,
      "Ġcelebr": 2830,
      "Ġdoesn": 2831,
      "Ġjob": 2832,
      "Ġjoined": 2833,
      "Ġsweater": 2834,
      "Ġconc": 2835,
      "Ġlearned": 2836,
      "Ġlessons": 2837,
      "Ġpockets": 2838,
      "Ġusually": 2839,
      "Ġballs": 2840,
      "Ġbusy": 2841,
      "Ġbusiness": 2842,
      "Ġinvisible": 2843,
      "Ġquestion": 2844,
      "Ġprot": 2845,
      "Ġhidden": 2846,
      "Ġbarrier": 2847,
      "Ġmistake": 2848,
      "Ġpowerful": 2849,
      "Ġcompart": 2850,
      "Ġsurprise": 2851,
      "Ġsingle": 2852,
      "Ġtelevision": 2853,
      "Ġpresents": 2854,
      "Ġexcited": 2855,
      "Ġhoping": 2856,
      "Ġcarrying": 2857,
      "Ġpotion": 2858,
      "Ġthrowing": 2859,
      "Ġbaby": 2860,
      "Ġnormal": 2861,
      "Ġjerked": 2862,
      "Ġperson": 2863,
      "Ġdormitory": 2864,
      "Potter": 2865,
      "ertainly": 2866,
      "Ġtomorrow": 2867,
      "Ġcomplete": 2868,
      "Ġentrance": 2869,
      "Ġholidays": 2870,
      "fraid": 2871,
      "Ġdunge": 2872,
      "Ġumbrella": 2873,
      "--": 2874,
      "DOR": 2875,
      "Ne": 2876,
      "Wood": 2877,
      "aired": 2878,
      "bout": 2879,
      "bus": 2880,
      "bott": 2881,
      "for": 2882,
      "ging": 2883,
      "lin": 2884,
      "my": 2885,
      "men": 2886,
      "not": 2887,
      "oes": 2888,
      "pdoor": 2889,
      "zing": 2890,
      "Ġ1": 2891,
      "ĠâĢľ": 2892,
      "Ġast": 2893,
      "Ġaff": 2894,
      "Ġadd": 2895,
      "Ġafraid": 2896,
      "Ġson": 2897,
      "Ġwo": 2898,
      "Ġwake": 2899,
      "Ġhoo": 2900,
      "Ġbri": 2901,
      "Ġburn": 2902,
      "Ġbowed": 2903,
      "inging": 2904,
      "Ġfir": 2905,
      "Ġfill": 2906,
      "Ġfun": 2907,
      "Ġfain": 2908,
      "Ġfig": 2909,
      "Ġfavor": 2910,
      "lls": 2911,
      "ĠHigh": 2912,
      "Ġcut": 2913,
      "Ġcand": 2914,
      "Ġopp": 2915,
      "orcy": 2916,
      "Ġdamp": 2917,
      "Ġdrew": 2918,
      "Ġdinner": 2919,
      "Ġmis": 2920,
      "Ġled": 2921,
      "Ġinter": 2922,
      "Ġinde": 2923,
      "oween": 2924,
      "aning": 2925,
      "Ġsand": 2926,
      "Ġsaus": 2927,
      "Ġstars": 2928,
      "Ġstuck": 2929,
      "Ġstairs": 2930,
      "Ġeating": 2931,
      "uth": 2932,
      "uter": 2933,
      "Ġunderneath": 2934,
      "chment": 2935,
      "ads": 2936,
      "amb": 2937,
      "ĠSir": 2938,
      "Ġreturn": 2939,
      "als": 2940,
      "ĠHead": 2941,
      "pper": 2942,
      "udge": 2943,
      "ained": 2944,
      "Ġmeant": 2945,
      "Ġlips": 2946,
      "ĠGriphook": 2947,
      "Ġwhether": 2948,
      "ctor": 2949,
      "Ġgets": 2950,
      "ouses": 2951,
      "Ġfeast": 2952,
      "Ġtwin": 2953,
      "Ġbran": 2954,
      "ighed": 2955,
      "orth": 2956,
      "Ġages": 2957,
      "ongbott": 2958,
      "Ġchange": 2959,
      "ement": 2960,
      "emem": 2961,
      "Ġvan": 2962,
      "Ġsub": 2963,
      "Ġteeth": 2964,
      "Ġdel": 2965,
      "Ġdelight": 2966,
      "bby": 2967,
      "Ġtrust": 2968,
      "Ġtrunk": 2969,
      "Ġtruth": 2970,
      "Ġmyself": 2971,
      "ivered": 2972,
      "Ġswall": 2973,
      "Ġarg": 2974,
      "Ġgrass": 2975,
      "Ġcrash": 2976,
      "Ġenvel": 2977,
      "ĠEx": 2978,
      "Ġwands": 2979,
      "ĠYour": 2980,
      "Ġboard": 2981,
      "Ġcheck": 2982,
      "Ġpulling": 2983,
      "Ġstrugg": 2984,
      "Ġpress": 2985,
      "Ġstands": 2986,
      "osite": 2987,
      "Ġgiving": 2988,
      "Ġhated": 2989,
      "Ġneeded": 2990,
      "Ġwrist": 2991,
      "Three": 2992,
      "Ġprobably": 2993,
      "Ġstudying": 2994,
      "Ġnoticing": 2995,
      "Ġrules": 2996,
      "lliant": 2997,
      "Ġconfus": 2998,
      "Ġfollowing": 2999,
      "ĠKeeper": 3000,
      "ansf": 3001,
      "Ġfurious": 3002,
      "Ġfootstep": 3003,
      "ĠHalloween": 3004,
      "Ġmarble": 3005,
      "Ġlaughed": 3006,
      "ĠBludger": 3007,
      "Nothing": 3008,
      "Ġpiece": 3009,
      "Ġpieces": 3010,
      "Ġexams": 3011,
      "Ġparchment": 3012,
      "Ġsteps": 3013,
      "Ġtrapdoor": 3014,
      "liver": 3015,
      "Ġbrave": 3016,
      "ancing": 3017,
      "Ġordinary": 3018,
      "Everyone": 3019,
      "Ġrelief": 3020,
      "Ġreminded": 3021,
      "Ġeager": 3022,
      "ĠPeople": 3023,
      "Ġmotorcy": 3024,
      "ĠBaron": 3025,
      "work": 3026,
      "Ġtoilet": 3027,
      "Ġcompartment": 3028,
      "Ġfaint": 3029,
      "Ġfigure": 3030,
      "Ġopposite": 3031,
      "Ġindeed": 3032,
      "ongbottom": 3033,
      "Ġenvelope": 3034,
      "Ġfootsteps": 3035,
      "Any": 3036,
      "CH": 3037,
      "Ch": 3038,
      "For": 3039,
      "Got": 3040,
      "In": 3041,
      "Never": 3042,
      "OO": 3043,
      "RY": 3044,
      "Something": 3045,
      "aid": 3046,
      "app": 3047,
      "bs": 3048,
      "bow": 3049,
      "ball": 3050,
      "cu": 3051,
      "come": 3052,
      "cus": 3053,
      "faced": 3054,
      "ground": 3055,
      "hs": 3056,
      "haired": 3057,
      "lid": 3058,
      "mm": 3059,
      "more": 3060,
      "nter": 3061,
      "of": 3062,
      "sh": 3063,
      "tin": 3064,
      "tled": 3065,
      "time": 3066,
      "wh": 3067,
      "Ġer": 3068,
      "Ġaward": 3069,
      "Ġsixt": 3070,
      "Ġsighed": 3071,
      "Ġwing": 3072,
      "Ġwished": 3073,
      "Ġworth": 3074,
      "oul": 3075,
      "read": 3076,
      "Ġhate": 3077,
      "Ġban": 3078,
      "Ġbuck": 3079,
      "Ġbird": 3080,
      "arled": 3081,
      "arters": 3082,
      "Ġfool": 3083,
      "Ġcurs": 3084,
      "Ġcrying": 3085,
      "Ġcalm": 3086,
      "its": 3087,
      "ashing": 3088,
      "Ġdou": 3089,
      "Ġmur": 3090,
      "Ġmark": 3091,
      "Ġmont": 3092,
      "Ġthousand": 3093,
      "Ġgri": 3094,
      "Ġgra": 3095,
      "Ġlit": 3096,
      "Ġlur": 3097,
      "Ġpan": 3098,
      "Ġpig": 3099,
      "Ġoften": 3100,
      "owing": 3101,
      "othes": 3102,
      "ckon": 3103,
      "Ġev": 3104,
      "imes": 3105,
      "irteen": 3106,
      "Ġris": 3107,
      "Ġrushed": 3108,
      "Ġasking": 3109,
      "aybe": 3110,
      "ĠSort": 3111,
      "cel": 3112,
      "urse": 3113,
      "Ġanx": 3114,
      "ĠMin": 3115,
      "ĠMal": 3116,
      "ĠRemem": 3117,
      "Ġshall": 3118,
      "Ġknight": 3119,
      "Ġnotice": 3120,
      "ĠFigg": 3121,
      "Ġlived": 3122,
      "astic": 3123,
      "ooded": 3124,
      "Ġclam": 3125,
      "Ġclothes": 3126,
      "anted": 3127,
      "antic": 3128,
      "ession": 3129,
      "Ġnostri": 3130,
      "Ġalive": 3131,
      "opes": 3132,
      "blem": 3133,
      "umbling": 3134,
      "Ġfear": 3135,
      "ĠTo": 3136,
      "Ġherself": 3137,
      "Ġexpl": 3138,
      "Ġtwisted": 3139,
      "Ġflash": 3140,
      "iew": 3141,
      "aces": 3142,
      "Ġsped": 3143,
      "anging": 3144,
      "Ġhandle": 3145,
      "Ġwanting": 3146,
      "Ġbecome": 3147,
      "Ġterrified": 3148,
      "ĠLee": 3149,
      "ĠLady": 3150,
      "ĠLongbottom": 3151,
      "atching": 3152,
      "Ġmoving": 3153,
      "Ġsne": 3154,
      "Ġsnow": 3155,
      "Ġsniff": 3156,
      "Ġsnarled": 3157,
      "Ġwandering": 3158,
      "Ġspeci": 3159,
      "Ġstrong": 3160,
      "unno": 3161,
      "though": 3162,
      "brall": 3163,
      "Ġwhisper": 3164,
      "Ġhurry": 3165,
      "aws": 3166,
      "headed": 3167,
      "Ġcovered": 3168,
      "Ġhalfway": 3169,
      "Ġdrop": 3170,
      "Ġproblem": 3171,
      "Ġstudy": 3172,
      "Ġbreaking": 3173,
      "Ġgolden": 3174,
      "ĠJordan": 3175,
      "Ġyellow": 3176,
      "Ġshows": 3177,
      "Ġamaz": 3178,
      "Ġbottom": 3179,
      "Ġhours": 3180,
      "Ġkeys": 3181,
      "Ġinterested": 3182,
      "Ġfacing": 3183,
      "ĠMagical": 3184,
      "Ġwarned": 3185,
      "Ġwarning": 3186,
      "Ġparcel": 3187,
      "Ġchessmen": 3188,
      "Shut": 3189,
      "Ġnewsp": 3190,
      "Ġcouple": 3191,
      "Ġknocking": 3192,
      "Ġsummer": 3193,
      "Ġcentaur": 3194,
      "Ġloads": 3195,
      "Ġbelong": 3196,
      "Ġpassageway": 3197,
      "Ġlaughing": 3198,
      "Ġreflection": 3199,
      "Ġsimply": 3200,
      "Ġwooden": 3201,
      "Ġextra": 3202,
      "ĠChasers": 3203,
      "Ġdesperate": 3204,
      "Ġsuggested": 3205,
      "Ġfaded": 3206,
      "ĠDraco": 3207,
      "Ġtrembling": 3208,
      "Ġforbidden": 3209,
      "ĠArts": 3210,
      "Ġbranches": 3211,
      "Ġswallowed": 3212,
      "Ġmotorcycle": 3213,
      "Ġmurm": 3214,
      "ĠRemembrall": 3215,
      "Ġnostrils": 3216,
      "',": 3217,
      "AS": 3218,
      "Al": 3219,
      "After": 3220,
      "Could": 3221,
      "Gr": 3222,
      "Give": 3223,
      "Is": 3224,
      "ON": 3225,
      "Re": 3226,
      "ST": 3227,
      "Some": 3228,
      "Sorry": 3229,
      "TS": 3230,
      "Very": 3231,
      "aa": 3232,
      "aut": 3233,
      "ape": 3234,
      "aving": 3235,
      "bye": 3236,
      "fl": 3237,
      "gust": 3238,
      "ium": 3239,
      "iles": 3240,
      "iagon": 3241,
      "ject": 3242,
      "ns": 3243,
      "ner": 3244,
      "oh": 3245,
      "pit": 3246,
      "set": 3247,
      "that": 3248,
      "und": 3249,
      "vol": 3250,
      "zed": 3251,
      "Ġing": 3252,
      "ĠYeh": 3253,
      "Ġtap": 3254,
      "hered": 3255,
      "Ġwrapped": 3256,
      "Ġhig": 3257,
      "onest": 3258,
      "Ġbas": 3259,
      "Ġbow": 3260,
      "Ġbound": 3261,
      "Ġbac": 3262,
      "Ġbare": 3263,
      "Ġbol": 3264,
      "Ġfixed": 3265,
      "llent": 3266,
      "Ġtor": 3267,
      "Ġcir": 3268,
      "Ġchat": 3269,
      "Ġcake": 3270,
      "Ġcree": 3271,
      "Ġcauldron": 3272,
      "Ġcertainly": 3273,
      "Ġoh": 3274,
      "ident": 3275,
      "Ġdressed": 3276,
      "Ġmess": 3277,
      "Ġmus": 3278,
      "Ġthirteen": 3279,
      "Ġgle": 3280,
      "Ġgro": 3281,
      "Ġgard": 3282,
      "Ġlist": 3283,
      "Ġpick": 3284,
      "Ġpop": 3285,
      "Ġpiled": 3286,
      "Ġpeered": 3287,
      "ooting": 3288,
      "Ġbell": 3289,
      "Ġsad": 3290,
      "cks": 3291,
      "Ġstom": 3292,
      "oming": 3293,
      "ade": 3294,
      "Ġkid": 3295,
      "Ġkicked": 3296,
      "amed": 3297,
      "ĠSatur": 3298,
      "cellent": 3299,
      "Ġanim": 3300,
      "Ġrel": 3301,
      "Ġrep": 3302,
      "ĠDiagon": 3303,
      "Ġwitches": 3304,
      "terday": 3305,
      "Ġforce": 3306,
      "Ġlemon": 3307,
      "Ġshake": 3308,
      "Ġshocked": 3309,
      "Ġneat": 3310,
      "Ġneither": 3311,
      "Ġlooks": 3312,
      "unch": 3313,
      "Ġgoal": 3314,
      "Ġnotes": 3315,
      "Ġmeas": 3316,
      "Ġjus": 3317,
      "Ġjoke": 3318,
      "ils": 3319,
      "ict": 3320,
      "Ġclicked": 3321,
      "Ġclub": 3322,
      "Ġsolid": 3323,
      "Ġsea": 3324,
      "Ġseats": 3325,
      "Ġwhee": 3326,
      "Ġnoses": 3327,
      "ush": 3328,
      "quarters": 3329,
      "Ġgotta": 3330,
      "Ġanywhere": 3331,
      "Ġanymore": 3332,
      "ĠBr": 3333,
      "Ġyeah": 3334,
      "ĠTHE": 3335,
      "Ġexcellent": 3336,
      "igan": 3337,
      "istry": 3338,
      "Ġyours": 3339,
      "Ġworked": 3340,
      "izing": 3341,
      "Ġsparks": 3342,
      "Ġvi": 3343,
      "Ġthinks": 3344,
      "Ġtears": 3345,
      "Ġteach": 3346,
      "Ġsomethin": 3347,
      "angs": 3348,
      "Ġhanded": 3349,
      "Ġwants": 3350,
      "ulars": 3351,
      "ĠOU": 3352,
      "ĠOr": 3353,
      "inted": 3354,
      "bbish": 3355,
      "Ġthanks": 3356,
      "ogn": 3357,
      "Ġways": 3358,
      "Ġslammed": 3359,
      "gged": 3360,
      "Ġgrunt": 3361,
      "itching": 3362,
      "Ġsnout": 3363,
      "Ġunus": 3364,
      "Ġwaving": 3365,
      "Ġboats": 3366,
      "Ġchest": 3367,
      "Ġshoulders": 3368,
      "Ġstranger": 3369,
      "els": 3370,
      "Ġfinding": 3371,
      "Ġdarkness": 3372,
      "Ġroad": 3373,
      "Ġarmor": 3374,
      "Ġarmch": 3375,
      "inny": 3376,
      "innigan": 3377,
      "Ġpassing": 3378,
      "Ġlots": 3379,
      "Ġcourage": 3380,
      "aughter": 3381,
      "Ġacc": 3382,
      "Ġneeds": 3383,
      "Ġplayers": 3384,
      "Ġclear": 3385,
      "Ġclean": 3386,
      "Ġmeans": 3387,
      "Ġwaited": 3388,
      "oots": 3389,
      "Ġemer": 3390,
      "ĠBlood": 3391,
      "Ġsounding": 3392,
      "Ġbund": 3393,
      "Ġbroomsticks": 3394,
      "Ġquiver": 3395,
      "Ġsweets": 3396,
      "Ġmuttering": 3397,
      "Ġpacked": 3398,
      "Ġrule": 3399,
      "Ġstayed": 3400,
      "oculars": 3401,
      "Ġangrily": 3402,
      "Ġlesson": 3403,
      "Ġshowing": 3404,
      "Ġdesk": 3405,
      "Ġgamek": 3406,
      "Ġhomework": 3407,
      "Ġbottles": 3408,
      "Ġsafely": 3409,
      "ĠAlley": 3410,
      "Ġtrick": 3411,
      "Ġmarched": 3412,
      "Ġperhaps": 3413,
      "icularly": 3414,
      "Ġseems": 3415,
      "Ġshops": 3416,
      "Ġtouched": 3417,
      "Ġprom": 3418,
      "Ġadm": 3419,
      "Ġhiding": 3420,
      "Ġparticularly": 3421,
      "Ġsurprised": 3422,
      "ING": 3423,
      "Ġentered": 3424,
      "Ġgirls": 3425,
      "Ġsharply": 3426,
      "Ġbinoculars": 3427,
      "Ġcrossed": 3428,
      "Ġmidair": 3429,
      "Ġmidnight": 3430,
      "Ġsprang": 3431,
      "Ġcountry": 3432,
      "Ġsilently": 3433,
      "Ġzoo": 3434,
      "Ġawake": 3435,
      "Ġsummat": 3436,
      "Ġphot": 3437,
      "Ġrecogn": 3438,
      "ĠAlbus": 3439,
      "ĠAnyway": 3440,
      "Ġscramb": 3441,
      "Ġgrowled": 3442,
      "Ġattention": 3443,
      "Ġshadows": 3444,
      "Ġswooped": 3445,
      "Ġproperly": 3446,
      "Ġignored": 3447,
      "Ġticket": 3448,
      "Ġstrode": 3449,
      "Ġhissed": 3450,
      "Ġclutching": 3451,
      "Ġquills": 3452,
      "Thanks": 3453,
      "Ġesc": 3454,
      "Ġsuspe": 3455,
      "Ġchuckled": 3456,
      "Ġslightly": 3457,
      "Ġdungeons": 3458,
      "Ġfilled": 3459,
      "Ġmiser": 3460,
      "Ġpressed": 3461,
      "Ġeagerly": 3462,
      "ĠSorting": 3463,
      "ĠMalkin": 3464,
      "Ġspecial": 3465,
      "Ġnewspaper": 3466,
      "Ġmurmured": 3467,
      "Ġhigher": 3468,
      "Ġbacon": 3469,
      "Ġgarden": 3470,
      "ĠSaturday": 3471,
      "Ġgrunted": 3472,
      "Bet": 3473,
      "ED": 3474,
      "EEN": 3475,
      "Fl": 3476,
      "Get": 3477,
      "Listen": 3478,
      "Of": 3479,
      "Peeves": 3480,
      "RE": 3481,
      "Se": 3482,
      "Un": 3483,
      "UFF": 3484,
      "apt": 3485,
      "ailed": 3486,
      "cing": 3487,
      "cause": 3488,
      "du": 3489,
      "ian": 3490,
      "ipe": 3491,
      "ius": 3492,
      "kn": 3493,
      "ming": 3494,
      "ning": 3495,
      "oss": 3496,
      "pose": 3497,
      "ru": 3498,
      "rom": 3499,
      "rised": 3500,
      "ragon": 3501,
      "ury": 3502,
      "ues": 3503,
      "wall": 3504,
      "Ġ3": 3505,
      "Ġtired": 3506,
      "Ġact": 3507,
      "ounc": 3508,
      "Ġhide": 3509,
      "Ġhos": 3510,
      "Ġhouses": 3511,
      "Ġben": 3512,
      "Ġbill": 3513,
      "Ġblew": 3514,
      "erious": 3515,
      "Ġfist": 3516,
      "Ġfier": 3517,
      "ĠHist": 3518,
      "Ġcol": 3519,
      "iting": 3520,
      "atil": 3521,
      "lease": 3522,
      "oring": 3523,
      "Ġdu": 3524,
      "Ġdive": 3525,
      "Ġmon": 3526,
      "Ġmine": 3527,
      "Ġthro": 3528,
      "Ġthrown": 3529,
      "Ġgang": 3530,
      "Ġgently": 3531,
      "Ġlin": 3532,
      "Ġlake": 3533,
      "Ġlaughter": 3534,
      "Ġpat": 3535,
      "Ġpier": 3536,
      "Ġpinned": 3537,
      "Ġpanted": 3538,
      "Ġnor": 3539,
      "Ġinc": 3540,
      "oof": 3541,
      "any": 3542,
      "Ġstunn": 3543,
      "Ġstream": 3544,
      "Ġstamp": 3545,
      "Ġstiff": 3546,
      "Ġitself": 3547,
      "vers": 3548,
      "Ġ--?\"": 3549,
      "chie": 3550,
      "Ġrud": 3551,
      "Ġrang": 3552,
      "Ġweak": 3553,
      "Their": 3554,
      "Ġkiss": 3555,
      "ĠSh": 3556,
      "ĠSpr": 3557,
      "Ġann": 3558,
      "ĠMirror": 3559,
      "ĠMiss": 3560,
      "ĠPerhaps": 3561,
      "Ġrece": 3562,
      "Ġrepe": 3563,
      "Ġrefe": 3564,
      "Ġreckon": 3565,
      "rol": 3566,
      "ricted": 3567,
      "acks": 3568,
      "Ġshr": 3569,
      "Ġshri": 3570,
      "Ġshrie": 3571,
      "Ġshivered": 3572,
      "inding": 3573,
      "Ġdod": 3574,
      "une": 3575,
      "iform": 3576,
      "ĠAre": 3577,
      "Ġnothin": 3578,
      "ĠFinnigan": 3579,
      "ĠTheir": 3580,
      "Ġlie": 3581,
      "ĠWI": 3582,
      "ĠWas": 3583,
      "top": 3584,
      "ĠNever": 3585,
      "key": 3586,
      "Ġbackward": 3587,
      "Ġwhatever": 3588,
      "ices": 3589,
      "icious": 3590,
      "Ġsocc": 3591,
      "Ġsear": 3592,
      "Ġsevent": 3593,
      "raz": 3594,
      "Ġnobody": 3595,
      "Ġgettin": 3596,
      "Ġalthough": 3597,
      "ushing": 3598,
      "Ġshelves": 3599,
      "Your": 3600,
      "ĠBy": 3601,
      "Ġpois": 3602,
      "ĠTw": 3603,
      "ĠTable": 3604,
      "Ġoverhead": 3605,
      "ĠCome": 3606,
      "ĠCross": 3607,
      "Ġflames": 3608,
      "Ġbrand": 3609,
      "Ġbrown": 3610,
      "ache": 3611,
      "Ġspir": 3612,
      "Ġchoo": 3613,
      "Ġchild": 3614,
      "Ġview": 3615,
      "nched": 3616,
      "Ġdoorway": 3617,
      "aped": 3618,
      "ĠOF": 3619,
      "Ġpeering": 3620,
      "Ġcomfort": 3621,
      "Ġterm": 3622,
      "Ġthank": 3623,
      "Ġglit": 3624,
      "Ġgloom": 3625,
      "ĠLily": 3626,
      "olk": 3627,
      "olog": 3628,
      "Ġgrin": 3629,
      "ĠFlavor": 3630,
      "ollow": 3631,
      "ĠErised": 3632,
      "Ġmoaned": 3633,
      "Ġunless": 3634,
      "Ġuniform": 3635,
      "Ġspect": 3636,
      "ĠStud": 3637,
      "Ġsmoo": 3638,
      "Ġcheers": 3639,
      "Ġcheering": 3640,
      "Ġmustache": 3641,
      "Ġolder": 3642,
      "elcome": 3643,
      "Ġdarkly": 3644,
      "osing": 3645,
      "Ġharder": 3646,
      "Ġforever": 3647,
      "Ġbedroom": 3648,
      "Ġdragged": 3649,
      "Ġhurrying": 3650,
      "Ġtroph": 3651,
      "Ġcleared": 3652,
      "Ġtables": 3653,
      "Ġclasses": 3654,
      "Ġdrove": 3655,
      "Ġlightning": 3656,
      "Ġstole": 3657,
      "Ġtraining": 3658,
      "Knuts": 3659,
      "Ġhasn": 3660,
      "black": 3661,
      "phone": 3662,
      "Ġjoin": 3663,
      "Ġsweat": 3664,
      "Ġcats": 3665,
      "Ġyesterday": 3666,
      "Ġ(\"": 3667,
      "arms": 3668,
      "Ġplates": 3669,
      "Ġansw": 3670,
      "ibly": 3671,
      "Ġdifference": 3672,
      "ĠKing": 3673,
      "Ġdrills": 3674,
      "Ġpossession": 3675,
      "Ġscarlet": 3676,
      "Ġdirect": 3677,
      "Ġeasily": 3678,
      "ĠBeans": 3679,
      "Ġplatforms": 3680,
      "Ġghosts": 3681,
      "year": 3682,
      "One": 3683,
      "Only": 3684,
      "Ġadv": 3685,
      "Ġcontrol": 3686,
      "Ġyoungest": 3687,
      "Ġnearest": 3688,
      "Ġcomputer": 3689,
      "Mrs": 3690,
      "ĠYOU": 3691,
      "Ġfallen": 3692,
      "Ġcounter": 3693,
      "Ġgoblins": 3694,
      "Ġflute": 3695,
      "Ġtelephone": 3696,
      "Ġpresent": 3697,
      "Ġfighting": 3698,
      "Ġrelieved": 3699,
      "Ġleading": 3700,
      "Ġposts": 3701,
      "Ġimagine": 3702,
      "Ġspeeding": 3703,
      "Ġhuman": 3704,
      "Ġcollaps": 3705,
      "Ġmountain": 3706,
      "Ġwonderful": 3707,
      "Ġbathro": 3708,
      "Ġdived": 3709,
      "Ġunwra": 3710,
      "Ġfloating": 3711,
      "Ġplanets": 3712,
      "Ġsplit": 3713,
      "Ġlumpy": 3714,
      "ĠFrogs": 3715,
      "Ġblankets": 3716,
      "Ġmoonlight": 3717,
      "Ġstretched": 3718,
      "Ġprotect": 3719,
      "Ġexcitedly": 3720,
      "Ġcompletely": 3721,
      "Ġafford": 3722,
      "Ġhoops": 3723,
      "Ġfavorite": 3724,
      "Ġsandw": 3725,
      "Ġsausages": 3726,
      "ansfig": 3727,
      "Ġdoub": 3728,
      "Ġthousands": 3729,
      "Ġlurking": 3730,
      "Ġevil": 3731,
      "ĠMinistry": 3732,
      "Ġclambered": 3733,
      "Ġexplod": 3734,
      "pital": 3735,
      "onestly": 3736,
      "Ġcirc": 3737,
      "Ġstomach": 3738,
      "ĠOUT": 3739,
      "Ġemerald": 3740,
      "ĠBloody": 3741,
      "Ġgamekeeper": 3742,
      "Ġhospital": 3743,
      "Ġbeneath": 3744,
      "Ġfierce": 3745,
      "ĠHistory": 3746,
      "Ġstunned": 3747,
      "Ġrepeated": 3748,
      "Ġreferee": 3749,
      "Ġsoccer": 3750,
      "Ġtrophy": 3751,
      "AN": 3752,
      "Bl": 3753,
      "EL": 3754,
      "EV": 3755,
      "Ex": 3756,
      "Fred": 3757,
      "Five": 3758,
      "GH": 3759,
      "ID": 3760,
      "IM": 3761,
      "LL": 3762,
      "Me": 3763,
      "Mom": 3764,
      "Maybe": 3765,
      "Out": 3766,
      "Once": 3767,
      "Percy": 3768,
      "Perhaps": 3769,
      "RA": 3770,
      "Sc": 3771,
      "Sir": 3772,
      "Stop": 3773,
      "TH": 3774,
      "TEEN": 3775,
      "Welcome": 3776,
      "af": 3777,
      "bers": 3778,
      "bolog": 3779,
      "cul": 3780,
      "eal": 3781,
      "fense": 3782,
      "gr": 3783,
      "gy": 3784,
      "hip": 3785,
      "iar": 3786,
      "iry": 3787,
      "ien": 3788,
      "iped": 3789,
      "ips": 3790,
      "ipping": 3791,
      "joy": 3792,
      "kay": 3793,
      "kers": 3794,
      "lix": 3795,
      "mare": 3796,
      "ney": 3797,
      "ole": 3798,
      "oen": 3799,
      "phe": 3800,
      "pering": 3801,
      "press": 3802,
      "rowed": 3803,
      "tling": 3804,
      "tty": 3805,
      "ual": 3806,
      "zen": 3807,
      "Ġir": 3808,
      "Ġill": 3809,
      "Ġic": 3810,
      "Ġ...": 3811,
      "ĠKnow": 3812,
      "Ġought": 3813,
      "ĠKnuts": 3814,
      "Ġtast": 3815,
      "Ġapp": 3816,
      "Ġage": 3817,
      "inion": 3818,
      "Ġsid": 3819,
      "Ġsank": 3820,
      "Ġwore": 3821,
      "Ġwish": 3822,
      "Ġwrest": 3823,
      "Ġwings": 3824,
      "Ġwinked": 3825,
      "Ġwinning": 3826,
      "reme": 3827,
      "Ġhorn": 3828,
      "ones": 3829,
      "onze": 3830,
      "Ġbald": 3831,
      "Ġbike": 3832,
      "Ġboots": 3833,
      "erry": 3834,
      "arcus": 3835,
      "nded": 3836,
      "Ġfre": 3837,
      "Ġfine": 3838,
      "Ġfaster": 3839,
      "Ġfangs": 3840,
      "Ġtoast": 3841,
      "ĠHave": 3842,
      "ĠHIM": 3843,
      "Ġcas": 3844,
      "Ġcop": 3845,
      "Ġcreat": 3846,
      "Ġcream": 3847,
      "Ġcakes": 3848,
      "itting": 3849,
      "atoes": 3850,
      "asy": 3851,
      "asant": 3852,
      "org": 3853,
      "Ġdust": 3854,
      "Ġdem": 3855,
      "Ġdest": 3856,
      "Ġmum": 3857,
      "Ġmood": 3858,
      "Ġmumbled": 3859,
      "Ġmiles": 3860,
      "Ġthirty": 3861,
      "Ġgall": 3862,
      "Ġloo": 3863,
      "Ġlower": 3864,
      "Ġlunch": 3865,
      "Ġlosing": 3866,
      "Ġpu": 3867,
      "Ġpay": 3868,
      "Ġpuff": 3869,
      "Ġhalt": 3870,
      "Ġyawn": 3871,
      "Ġink": 3872,
      "Ġinvol": 3873,
      "Ġbear": 3874,
      "Ġbend": 3875,
      "Ġbeast": 3876,
      "Ġbeaming": 3877,
      "Ġbeaut": 3878,
      "Ġsaved": 3879,
      "cked": 3880,
      "ckle": 3881,
      "Ġstat": 3882,
      "Ġstal": 3883,
      "Ġstern": 3884,
      "Ġstare": 3885,
      "ettle": 3886,
      "ĠIs": 3887,
      "imey": 3888,
      "aging": 3889,
      "Ġur": 3890,
      "chant": 3891,
      "chway": 3892,
      "Ġrain": 3893,
      "Ġrare": 3894,
      "ayed": 3895,
      "Ġkick": 3896,
      "ĠSna": 3897,
      "ĠSever": 3898,
      "uration": 3899,
      "eech": 3900,
      "eeling": 3901,
      "eezed": 3902,
      "alle": 3903,
      "ĠPar": 3904,
      "Ġreach": 3905,
      "alus": 3906,
      "ĠDU": 3907,
      "ĠDev": 3908,
      "ĠDigg": 3909,
      "ĠRe": 3910,
      "ĠRight": 3911,
      "ĠRest": 3912,
      "ĠRoman": 3913,
      "Ġforced": 3914,
      "ric": 3915,
      "Ġleaning": 3916,
      "acket": 3917,
      "Ġshak": 3918,
      "Ġshare": 3919,
      "Ġupset": 3920,
      "unately": 3921,
      "ppled": 3922,
      "ĠAbout": 3923,
      "ĠFirst": 3924,
      "ĠFOR": 3925,
      "Ġfrown": 3926,
      "Ġfrantic": 3927,
      "Ġlies": 3928,
      "ĠGo": 3929,
      "ĠGet": 3930,
      "ĠGinny": 3931,
      "ĠGalle": 3932,
      "ustling": 3933,
      "elling": 3934,
      "Ġabou": 3935,
      "iches": 3936,
      "Ġcloud": 3937,
      "Ġsocks": 3938,
      "raph": 3939,
      "ops": 3940,
      "Ġoffice": 3941,
      "Ġsheets": 3942,
      "ĠBill": 3943,
      "Ġpol": 3944,
      "Ġpoor": 3945,
      "ĠTr": 3946,
      "ĠCurse": 3947,
      "Ġtwig": 3948,
      "Ġtwitched": 3949,
      "Ġbringing": 3950,
      "Ġbronze": 3951,
      "ĠVol": 3952,
      "Ġplain": 3953,
      "Ġplastic": 3954,
      "Ġyourselves": 3955,
      "Ġblond": 3956,
      "Ġblinked": 3957,
      "Ġspo": 3958,
      "pted": 3959,
      "Ġchocolate": 3960,
      "Ġsometimes": 3961,
      "Ġhandker": 3962,
      "ĠOf": 3963,
      "ĠOliver": 3964,
      "Ġpepper": 3965,
      "ĠUnder": 3966,
      "Ġhowling": 3967,
      "Ġbecoming": 3968,
      "bbed": 3969,
      "bbled": 3970,
      "Ġtrash": 3971,
      "ograph": 3972,
      "Ġslither": 3973,
      "Ġarchway": 3974,
      "Ġgrand": 3975,
      "Ġgrate": 3976,
      "Ġgrinned": 3977,
      "Ġeng": 3978,
      "Ġenorm": 3979,
      "Ġenjoy": 3980,
      "Ġenchant": 3981,
      "Ġwherever": 3982,
      "ĠElix": 3983,
      "Ġopinion": 3984,
      "Ġspeaking": 3985,
      "Ġtapped": 3986,
      "Ġbits": 3987,
      "Ġdaylight": 3988,
      "ucked": 3989,
      "Ġcheek": 3990,
      "Ġhappily": 3991,
      "Ġstruck": 3992,
      "ĠThree": 3993,
      "ĠThrough": 3994,
      "Ġputting": 3995,
      "Which": 3996,
      "Ġwizarding": 3997,
      "Ġvoices": 3998,
      "Ġcloaks": 3999,
      "Ġpretty": 4000,
      "dding": 4001,
      "Ġrob": 4002,
      "Ġroast": 4003,
      "Ġnightmare": 4004,
      "Ġminds": 4005,
      "ngth": 4006,
      "Ġgreatest": 4007,
      "Ġhappens": 4008,
      "Ġreading": 4009,
      "ooted": 4010,
      "Ġcoins": 4011,
      "avored": 4012,
      "Ġdisgust": 4013,
      "Ġgrew": 4014,
      "Ġhorse": 4015,
      "ĠSection": 4016,
      "Ġhelped": 4017,
      "Ġbadly": 4018,
      "Ġimpressed": 4019,
      "Ġbuild": 4020,
      "Ġnerve": 4021,
      "Ġteams": 4022,
      "Ġsquare": 4023,
      "Ġsquinting": 4024,
      "Ġsqueak": 4025,
      "ĠInside": 4026,
      "Ġjoking": 4027,
      "Ġsweet": 4028,
      "Ġskin": 4029,
      "ĠJames": 4030,
      "Ġfriendly": 4031,
      "wolf": 4032,
      "Ġbreathe": 4033,
      "Ġbreathing": 4034,
      "Ġcurse": 4035,
      "Ġcurious": 4036,
      "Ġcuriously": 4037,
      "Ġcurtain": 4038,
      "Ġbelieved": 4039,
      "Ġstrangely": 4040,
      "Ġbush": 4041,
      "Ġuseful": 4042,
      "iping": 4043,
      "Ġdrive": 4044,
      "Ġpossibly": 4045,
      "Ġhungry": 4046,
      "Ġadvent": 4047,
      "Ġbarked": 4048,
      "Ġcontact": 4049,
      "Ġmeeting": 4050,
      "Ġhurtled": 4051,
      "INDOR": 4052,
      "Ġpurpose": 4053,
      "Ġsticks": 4054,
      "Ġexplained": 4055,
      "Ġtightly": 4056,
      "anced": 4057,
      "Ġcards": 4058,
      "Ġcrossbow": 4059,
      "Ġsprinted": 4060,
      "Ġclosed": 4061,
      "Ġtown": 4062,
      "Ġtowering": 4063,
      "Ġclapping": 4064,
      "Ġlocker": 4065,
      "Ġphoen": 4066,
      "ĠWho": 4067,
      "ĠWhy": 4068,
      "ĠWhile": 4069,
      "Ġimagining": 4070,
      "LEY": 4071,
      "Ġbelow": 4072,
      "Ġeggs": 4073,
      "Ġcollect": 4074,
      "strictor": 4075,
      "Ġshadow": 4076,
      "Ġprefects": 4077,
      "Ġwarmth": 4078,
      "Ġbathroom": 4079,
      "ĠHerbolog": 4080,
      "ĠNearly": 4081,
      "Ġfeathers": 4082,
      "Ġmysterious": 4083,
      "Ġunwrapped": 4084,
      "FFINDOR": 4085,
      "Ġfrog": 4086,
      "Ġbewitched": 4087,
      "Ġfrightened": 4088,
      "Ġpretending": 4089,
      "Ġperfectly": 4090,
      "Ġwhistle": 4091,
      "Ġcomplained": 4092,
      "Ġcelebrating": 4093,
      "Ġaston": 4094,
      "Ġbrilliant": 4095,
      "Ġfirm": 4096,
      "ĠHeadless": 4097,
      "Ġvanished": 4098,
      "Ġsubject": 4099,
      "Ġdelighted": 4100,
      "RYFFINDOR": 4101,
      "while": 4102,
      "Ġbirds": 4103,
      "Ġgrab": 4104,
      "Ġpanic": 4105,
      "Ġanxiously": 4106,
      "Ġbowl": 4107,
      "Ġbarely": 4108,
      "Ġcreep": 4109,
      "Ġmusic": 4110,
      "Ġgroaned": 4111,
      "Ġbellowed": 4112,
      "Ġreport": 4113,
      "Ġunusual": 4114,
      "Ġbundle": 4115,
      "Ġadmir": 4116,
      "Ġphotograph": 4117,
      "Ġscrambled": 4118,
      "Ġmiserably": 4119,
      "aptain": 4120,
      "Ġthroat": 4121,
      "Ġlines": 4122,
      "Ġincred": 4123,
      "chief": 4124,
      "ĠSprout": 4125,
      "Ġrecei": 4126,
      "Ġshrieked": 4127,
      "Ġpoison": 4128,
      "Ġglittering": 4129,
      "Ġspectac": 4130,
      "Ġsmooth": 4131,
      "Ġcollapsed": 4132,
      "Ġsandwiches": 4133,
      "ansfiguration": 4134,
      "Ġexploded": 4135,
      "Ġinvolved": 4136,
      "ĠSnare": 4137,
      "ĠDiggle": 4138,
      "ĠRestricted": 4139,
      "ĠRomania": 4140,
      "Ġhandkerchief": 4141,
      "Ġslithering": 4142,
      "Ġenormous": 4143,
      "Ġenchantments": 4144,
      "ĠElixir": 4145,
      "Ġadventure": 4146,
      "Ġphoenix": 4147,
      "ĠHerbology": 4148,
      "Ġphotographs": 4149,
      "\"...": 4150,
      "\"--": 4151,
      "'.\"": 4152,
      "),": 4153,
      "-\"": 4154,
      "-,": 4155,
      "About": 4156,
      "BLE": 4157,
      "CK": 4158,
      "Cour": 4159,
      "Dad": 4160,
      "Dunno": 4161,
      "ET": 4162,
      "Even": 4163,
      "First": 4164,
      "Firenze": 4165,
      "From": 4166,
      "Gryffindor": 4167,
      "IR": 4168,
      "Keep": 4169,
      "Make": 4170,
      "OM": 4171,
      "OW": 4172,
      "Or": 4173,
      "Ru": 4174,
      "To": 4175,
      "TCH": 4176,
      "Up": 4177,
      "Would": 4178,
      "Want": 4179,
      "With": 4180,
      "WAR": 4181,
      "Yet": 4182,
      "ax": 4183,
      "aurs": 4184,
      "ales": 4185,
      "by": 4186,
      "back": 4187,
      "cise": 4188,
      "cuse": 4189,
      "ere": 4190,
      "eve": 4191,
      "ender": 4192,
      "fin": 4193,
      "face": 4194,
      "gar": 4195,
      "ges": 4196,
      "gest": 4197,
      "hind": 4198,
      "hough": 4199,
      "iot": 4200,
      "iately": 4201,
      "jar": 4202,
      "man": 4203,
      "mered": 4204,
      "mint": 4205,
      "ne": 4206,
      "nut": 4207,
      "right": 4208,
      "rum": 4209,
      "sy": 4210,
      "sit": 4211,
      "said": 4212,
      "tie": 4213,
      "two": 4214,
      "uly": 4215,
      "uce": 4216,
      "ugs": 4217,
      "ubby": 4218,
      "vati": 4219,
      "well": 4220,
      "yed": 4221,
      "Ġid": 4222,
      "Ġty": 4223,
      "Ġtem": 4224,
      "Ġtaught": 4225,
      "Ġajar": 4226,
      "Ġsense": 4227,
      "Ġwet": 4228,
      "Ġwound": 4229,
      "Ġwine": 4230,
      "Ġwicked": 4231,
      "Ġwiping": 4232,
      "ren": 4233,
      "reen": 4234,
      "renched": 4235,
      "Ġhooded": 4236,
      "onf": 4237,
      "ony": 4238,
      "onna": 4239,
      "Ġbes": 4240,
      "Ġbart": 4241,
      "Ġbother": 4242,
      "Ġbite": 4243,
      "Ġbank": 4244,
      "Ġbored": 4245,
      "edd": 4246,
      "edalus": 4247,
      "era": 4248,
      "erm": 4249,
      "errily": 4250,
      "arl": 4251,
      "Ġfle": 4252,
      "Ġfold": 4253,
      "Ġfair": 4254,
      "Ġfault": 4255,
      "Ġfitted": 4256,
      "Ġfolk": 4257,
      "lly": 4258,
      "Ġtore": 4259,
      "Ġtoppled": 4260,
      "ĠHat": 4261,
      "ĠHad": 4262,
      "Ġcage": 4263,
      "aters": 4264,
      "ations": 4265,
      "ories": 4266,
      "idy": 4267,
      "ider": 4268,
      "iding": 4269,
      "idge": 4270,
      "ising": 4271,
      "ises": 4272,
      "Ġdry": 4273,
      "Ġdam": 4274,
      "Ġdart": 4275,
      "Ġdying": 4276,
      "Ġdirty": 4277,
      "Ġhearts": 4278,
      "Ġmap": 4279,
      "Ġmixt": 4280,
      "Ġmarks": 4281,
      "Ġmixed": 4282,
      "Ġmerrily": 4283,
      "Ġthreat": 4284,
      "Ġthund": 4285,
      "ens": 4286,
      "Ġgrou": 4287,
      "Ġgul": 4288,
      "Ġgonna": 4289,
      "Ġlim": 4290,
      "Ġland": 4291,
      "Ġlap": 4292,
      "Ġlift": 4293,
      "Ġpin": 4294,
      "Ġpor": 4295,
      "Ġpen": 4296,
      "Ġpri": 4297,
      "Ġpound": 4298,
      "Ġpump": 4299,
      "Ġpairs": 4300,
      "Ġpriv": 4301,
      "Ġpudd": 4302,
      "Ġpipe": 4303,
      "Ġhamb": 4304,
      "Ġhamm": 4305,
      "Ġhairy": 4306,
      "Ġnons": 4307,
      "Ġnames": 4308,
      "Ġint": 4309,
      "ote": 4310,
      "Ġbee": 4311,
      "Ġbeat": 4312,
      "Ġbeet": 4313,
      "Ġbeak": 4314,
      "ckles": 4315,
      "Ġstam": 4316,
      "Ġstri": 4317,
      "Ġstack": 4318,
      "Ġstumbled": 4319,
      "Ġsteep": 4320,
      "Ġstaff": 4321,
      "omb": 4322,
      "Ġech": 4323,
      "Ġeight": 4324,
      "Ġeff": 4325,
      "Ġearly": 4326,
      "Ġearn": 4327,
      "ety": 4328,
      "etch": 4329,
      "etrified": 4330,
      "str": 4331,
      "imming": 4332,
      "ags": 4333,
      "agging": 4334,
      "Ġunc": 4335,
      "Ġwhir": 4336,
      "Ġrum": 4337,
      "Ġrage": 4338,
      "Ġrough": 4339,
      "Ġrats": 4340,
      "Ġripped": 4341,
      "Ġruffled": 4342,
      "Ġropes": 4343,
      "Ġroof": 4344,
      "Ġrustling": 4345,
      "Ġweather": 4346,
      "Ġweigh": 4347,
      "Ġaside": 4348,
      "amous": 4349,
      "ĠSp": 4350,
      "ĠSick": 4351,
      "urry": 4352,
      "urger": 4353,
      "ooked": 4354,
      "ĠMarge": 4355,
      "ĠMarcus": 4356,
      "ĠPre": 4357,
      "ĠPatil": 4358,
      "ĠPlease": 4359,
      "ĠDon": 4360,
      "ĠDid": 4361,
      "ĠDedalus": 4362,
      "rove": 4363,
      "royed": 4364,
      "aker": 4365,
      "ĠRidge": 4366,
      "term": 4367,
      "pear": 4368,
      "rib": 4369,
      "riar": 4370,
      "rigg": 4371,
      "rilliant": 4372,
      "Ġleap": 4373,
      "Ġleather": 4374,
      "entr": 4375,
      "riday": 4376,
      "Ġshone": 4377,
      "Ġshiny": 4378,
      "Ġshuffled": 4379,
      "Ġshape": 4380,
      "Ġshooting": 4381,
      "illy": 4382,
      "Ġlookin": 4383,
      "unching": 4384,
      "unks": 4385,
      "Ġknee": 4386,
      "iful": 4387,
      "ĠAL": 4388,
      "ĠAlt": 4389,
      "Ġwerewolf": 4390,
      "uddy": 4391,
      "ĠFin": 4392,
      "ĠFamous": 4393,
      "ĠFriar": 4394,
      "ainst": 4395,
      "Ġmem": 4396,
      "Ġlives": 4397,
      "Ġjet": 4398,
      "ands": 4399,
      "ĠWHA": 4400,
      "ĠGu": 4401,
      "ĠGot": 4402,
      "ĠNick": 4403,
      "ĠNOT": 4404,
      "icing": 4405,
      "Ġclock": 4406,
      "Ġsobbed": 4407,
      "raft": 4408,
      "Ġnodding": 4409,
      "Ġalche": 4410,
      "oped": 4411,
      "oping": 4412,
      "Ġknowin": 4413,
      "used": 4414,
      "ooming": 4415,
      "quet": 4416,
      "inkled": 4417,
      "bles": 4418,
      "gered": 4419,
      "gelin": 4420,
      "Ġoffered": 4421,
      "ĠBott": 4422,
      "Ġpoking": 4423,
      "ĠTH": 4424,
      "Ġdownstairs": 4425,
      "Ġovert": 4426,
      "Ġoverco": 4427,
      "ĠCan": 4428,
      "Ġtwitching": 4429,
      "Ġflashed": 4430,
      "Ġflooded": 4431,
      "Ġbring": 4432,
      "Ġbrass": 4433,
      "Ġqueen": 4434,
      "ĠVery": 4435,
      "Hey": 4436,
      "Ġplate": 4437,
      "Ġplump": 4438,
      "Ġplaces": 4439,
      "Ġworst": 4440,
      "Ġblur": 4441,
      "Ġblame": 4442,
      "Ġblocked": 4443,
      "Ġblinking": 4444,
      "Ġsport": 4445,
      "Ġspark": 4446,
      "Ġspread": 4447,
      "Ġspeech": 4448,
      "ptem": 4449,
      "Ġchas": 4450,
      "Ġchick": 4451,
      "Ġchos": 4452,
      "Ġchamp": 4453,
      "Ġvac": 4454,
      "Ġsuit": 4455,
      "Ġwhipped": 4456,
      "Ġsomebody": 4457,
      "Ġcannot": 4458,
      "Ġteles": 4459,
      "ocks": 4460,
      "angled": 4461,
      "evi": 4462,
      "Ġscore": 4463,
      "Ġscri": 4464,
      "Ġscra": 4465,
      "Ġscree": 4466,
      "Ġscraw": 4467,
      "ular": 4468,
      "ults": 4469,
      "Ġdeal": 4470,
      "Ġdefe": 4471,
      "Ġdeliver": 4472,
      "ĠOh": 4473,
      "ĠOw": 4474,
      "Ġpeas": 4475,
      "Ġpecul": 4476,
      "eeping": 4477,
      "ĠUn": 4478,
      "ĠUp": 4479,
      "Ġorange": 4480,
      "Ġeverywhere": 4481,
      "bbit": 4482,
      "arking": 4483,
      "Ġtrunks": 4484,
      "Ġglo": 4485,
      "Ġglared": 4486,
      "Ġglinting": 4487,
      "Ġglancing": 4488,
      "ĠLife": 4489,
      "ĠLord": 4490,
      "ĠLevi": 4491,
      "Ġswift": 4492,
      "itely": 4493,
      "ires": 4494,
      "mediately": 4495,
      "Ġgrown": 4496,
      "Ġgrubby": 4497,
      "Ġcrump": 4498,
      "Ġcrashed": 4499,
      "Ġcrunching": 4500,
      "Ġmanage": 4501,
      "ĠEm": 4502,
      "Ġdrinking": 4503,
      "Ġsnatched": 4504,
      "Ġunf": 4505,
      "Ġunple": 4506,
      "Ġtape": 4507,
      "Ġtapping": 4508,
      "Ġtabby": 4509,
      "Ġwave": 4510,
      "Ġsmoke": 4511,
      "Ġboa": 4512,
      "Ġbobbing": 4513,
      "Ġbitter": 4514,
      "ucky": 4515,
      "ĠCharms": 4516,
      "ĠThose": 4517,
      "Ġowlery": 4518,
      "Ġfinds": 4519,
      "ĠStonewall": 4520,
      "Ġroared": 4521,
      "Ġimmediately": 4522,
      "Ġmoments": 4523,
      "Ġgives": 4524,
      "Ġends": 4525,
      "brows": 4526,
      "place": 4527,
      "Ġwhispering": 4528,
      "Ġquicker": 4529,
      "Ġfloors": 4530,
      "Ġaccept": 4531,
      "Ġhappening": 4532,
      "ionship": 4533,
      "Ġwriting": 4534,
      "ungi": 4535,
      "unged": 4536,
      "ures": 4537,
      "Ġplayer": 4538,
      "awed": 4539,
      "Ġfireplace": 4540,
      "Ġclever": 4541,
      "Ġmeanwhile": 4542,
      "Ġours": 4543,
      "Ġourselves": 4544,
      "Ġrealizing": 4545,
      "Ġdisco": 4546,
      "Ġdisapp": 4547,
      "Ġstreaked": 4548,
      "Ġlights": 4549,
      "ĠBlack": 4550,
      "lessly": 4551,
      "Ġsilk": 4552,
      "ĠSeven": 4553,
      "ĠSeptem": 4554,
      "Ġowned": 4555,
      "Ġimpati": 4556,
      "Ġimposs": 4557,
      "Ġsideways": 4558,
      "Ġsorts": 4559,
      "Ġnerves": 4560,
      "Ġtakin": 4561,
      "Ġsquash": 4562,
      "Ġsqueezed": 4563,
      "Ġrabbit": 4564,
      "ĠOnly": 4565,
      "Ġguess": 4566,
      "Ġpackages": 4567,
      "Ġrubbish": 4568,
      "ĠJust": 4569,
      "ĠJoh": 4570,
      "Ġcoldly": 4571,
      "Ġstaying": 4572,
      "Ġmovements": 4573,
      "Ġconstrictor": 4574,
      "Ġemptied": 4575,
      "Ġrounded": 4576,
      "Ġanger": 4577,
      "Ġlearning": 4578,
      "Ġamong": 4579,
      "Ġtrip": 4580,
      "Ġdeeper": 4581,
      "Ġdeeply": 4582,
      "Ġcrowded": 4583,
      "Ġforgive": 4584,
      "auldrons": 4585,
      "ĠBefore": 4586,
      "ĠBeaters": 4587,
      "Ġscreaming": 4588,
      "ksh": 4589,
      "yeh": 4590,
      "Ġnecks": 4591,
      "Ġwildly": 4592,
      "Ġyounger": 4593,
      "Ġexcuse": 4594,
      "Ġbrightly": 4595,
      "Ġdecor": 4596,
      "Ġdecide": 4597,
      "Should": 4598,
      "ĠYet": 4599,
      "Ġturkey": 4600,
      "Ġsticking": 4601,
      "Ġspells": 4602,
      "like": 4603,
      "Ġbraver": 4604,
      "Ġfinger": 4605,
      "Ġdreamed": 4606,
      "Ġheavily": 4607,
      "ances": 4608,
      "Ġkitchens": 4609,
      "Another": 4610,
      "Ġrattled": 4611,
      "Ġrattling": 4612,
      "Ġfluttered": 4613,
      "Ġfluttering": 4614,
      "Ġeyebrows": 4615,
      "Ġsmelled": 4616,
      "Ġbags": 4617,
      "Ġcounted": 4618,
      "Ġexcitement": 4619,
      "Ġawa": 4620,
      "Ġhoped": 4621,
      "Ġpunished": 4622,
      "Ġrecord": 4623,
      "Ġbursting": 4624,
      "Ġobvious": 4625,
      "Ġeaten": 4626,
      "Ġreflected": 4627,
      "Ġmissed": 4628,
      "Ġmissing": 4629,
      "Ġmentioned": 4630,
      "OUR": 4631,
      "fortunately": 4632,
      "Ġserious": 4633,
      "Ġbattered": 4634,
      "Ġdistant": 4635,
      "Ġdistance": 4636,
      "Ġresults": 4637,
      "ĠAngelin": 4638,
      "ĠWizards": 4639,
      "ĠNext": 4640,
      "Ġextreme": 4641,
      "Ġswooping": 4642,
      "ĠChaser": 4643,
      "Ġdesperately": 4644,
      "Ġsleeve": 4645,
      "Ġdrawing": 4646,
      "Ġhissing": 4647,
      "Ġshortly": 4648,
      "ĠAges": 4649,
      "ĠAgainst": 4650,
      "Ġclutched": 4651,
      "Ġsoftly": 4652,
      "ĠSmeltings": 4653,
      "Ġdetention": 4654,
      "ĠSomeone": 4655,
      "ĠFrog": 4656,
      "Ġchoice": 4657,
      "Ġconcern": 4658,
      "Ġconcentr": 4659,
      "Ġprote": 4660,
      "Next": 4661,
      "Nearly": 4662,
      "formed": 4663,
      "Ġaddressed": 4664,
      "Ġwoken": 4665,
      "Ġcandy": 4666,
      "Ġdelicious": 4667,
      "Ġargue": 4668,
      "Ġstruggled": 4669,
      "Ġstruggling": 4670,
      "Ġconfused": 4671,
      "Anyway": 4672,
      "cuss": 4673,
      "Ġsixty": 4674,
      "Ġbanquet": 4675,
      "Ġfoolish": 4676,
      "Ġcursed": 4677,
      "Ġmonth": 4678,
      "Ġmonths": 4679,
      "Ġrisk": 4680,
      "Ġsneaking": 4681,
      "Ġsniffed": 4682,
      "Ġstrongly": 4683,
      "Ġproblems": 4684,
      "Ġamazed": 4685,
      "Ġamazement": 4686,
      "Someone": 4687,
      "floor": 4688,
      "nson": 4689,
      "Ġbask": 4690,
      "Ġbolt": 4691,
      "Ġanimals": 4692,
      "Ġrelax": 4693,
      "Ġarmchairs": 4694,
      "Ġquivering": 4695,
      "Ġrecognized": 4696,
      "Ġsuspected": 4697,
      "Better": 4698,
      "ounced": 4699,
      "Ġcolor": 4700,
      "Ġpiercing": 4701,
      "Ġrude": 4702,
      "Ġannoy": 4703,
      "Ġshriek": 4704,
      "Ġdodged": 4705,
      "razil": 4706,
      "Ġbrandy": 4707,
      "Ġspiral": 4708,
      "Ġgloomy": 4709,
      "Ġanswered": 4710,
      "Ġbathrobe": 4711,
      "Ġunwrap": 4712,
      "Ġdoubt": 4713,
      "Ġfreckles": 4714,
      "Ġcasually": 4715,
      "organ": 4716,
      "Ġbeautiful": 4717,
      "Ġstatue": 4718,
      "ĠSeverus": 4719,
      "ĠParvati": 4720,
      "ĠDevil": 4721,
      "Ġfrantically": 4722,
      "ĠGalleons": 4723,
      "Ġpeppermint": 4724,
      "ĠUnderground": 4725,
      "Ġcurtains": 4726,
      "Ġastonishing": 4727,
      "Ġincredible": 4728,
      "Ġreceived": 4729,
      "Course": 4730,
      "Ġtemper": 4731,
      "Ġbeside": 4732,
      "Ġbartender": 4733,
      "Ġmixture": 4734,
      "Ġthreatening": 4735,
      "Ġthundered": 4736,
      "Ġhamburger": 4737,
      "Ġnonsense": 4738,
      "Ġroughly": 4739,
      "ĠAlthough": 4740,
      "Ġovercoat": 4741,
      "Ġsparkling": 4742,
      "Ġchosen": 4743,
      "Ġchampionship": 4744,
      "Ġpeculiar": 4745,
      "Ġunpleasant": 4746,
      "ĠSeptember": 4747,
      "Ġimpossible": 4748,
      "Ġsquashy": 4749,
      "ĠJohnson": 4750,
      "ĠAngelina": 4751,
      "Ġextremely": 4752,
      "\"'": 4753,
      "'?\"": 4754,
      "AT": 4755,
      "Aunt": 4756,
      "BU": 4757,
      "Back": 4758,
      "Bye": 4759,
      "Brilliant": 4760,
      "De": 4761,
      "Dark": 4762,
      "DEN": 4763,
      "Funny": 4764,
      "Follow": 4765,
      "Griphook": 4766,
      "GRYFFINDOR": 4767,
      "GWAR": 4768,
      "HH": 4769,
      "Hell": 4770,
      "Half": 4771,
      "Hogwarts": 4772,
      "Have": 4773,
      "Hope": 4774,
      "HUFF": 4775,
      "Hurry": 4776,
      "IS": 4777,
      "LY": 4778,
      "Le": 4779,
      "Like": 4780,
      "Lucky": 4781,
      "Must": 4782,
      "Mars": 4783,
      "Miss": 4784,
      "MBLE": 4785,
      "ND": 4786,
      "NE": 4787,
      "NI": 4788,
      "Nah": 4789,
      "Oy": 4790,
      "Outer": 4791,
      "OGWAR": 4792,
      "Pl": 4793,
      "PUFF": 4794,
      "QU": 4795,
      "Say": 4796,
      "Sudden": 4797,
      "Slyther": 4798,
      "Tr": 4799,
      "Take": 4800,
      "Use": 4801,
      "VE": 4802,
      "Wing": 4803,
      "Will": 4804,
      "Wond": 4805,
      "Yer": 4806,
      "aily": 4807,
      "bor": 4808,
      "bell": 4809,
      "bock": 4810,
      "bbles": 4811,
      "cr": 4812,
      "con": 4813,
      "can": 4814,
      "cut": 4815,
      "card": 4816,
      "cent": 4817,
      "col": 4818,
      "cary": 4819,
      "craft": 4820,
      "ely": 4821,
      "elf": 4822,
      "easy": 4823,
      "fall": 4824,
      "father": 4825,
      "ford": 4826,
      "gal": 4827,
      "gie": 4828,
      "grown": 4829,
      "gian": 4830,
      "green": 4831,
      "hh": 4832,
      "hand": 4833,
      "half": 4834,
      "hole": 4835,
      "ients": 4836,
      "kes": 4837,
      "kles": 4838,
      "kins": 4839,
      "lp": 4840,
      "low": 4841,
      "land": 4842,
      "lass": 4843,
      "lier": 4844,
      "mat": 4845,
      "mist": 4846,
      "mering": 4847,
      "non": 4848,
      "nes": 4849,
      "nine": 4850,
      "ob": 4851,
      "oed": 4852,
      "oar": 4853,
      "obb": 4854,
      "olet": 4855,
      "pin": 4856,
      "par": 4857,
      "pot": 4858,
      "post": 4859,
      "pared": 4860,
      "rit": 4861,
      "sm": 4862,
      "sers": 4863,
      "six": 4864,
      "then": 4865,
      "tune": 4866,
      "ug": 4867,
      "uft": 4868,
      "under": 4869,
      "vo": 4870,
      "vy": 4871,
      "vin": 4872,
      "vor": 4873,
      "viously": 4874,
      "wood": 4875,
      "word": 4876,
      "zy": 4877,
      "zz": 4878,
      "zoar": 4879,
      "Ġ4": 4880,
      "Ġtit": 4881,
      "Ġtut": 4882,
      "Ġtent": 4883,
      "Ġtart": 4884,
      "Ġtant": 4885,
      "Ġtest": 4886,
      "Ġtreat": 4887,
      "Ġticked": 4888,
      "Ġtank": 4889,
      "Ġtucked": 4890,
      "hecary": 4891,
      "Ġamb": 4892,
      "ination": 4893,
      "Ġsink": 4894,
      "Ġsway": 4895,
      "Ġsong": 4896,
      "Ġsigh": 4897,
      "Ġsunk": 4898,
      "Ġsoul": 4899,
      "Ġsilly": 4900,
      "Ġwom": 4901,
      "Ġwise": 4902,
      "Ġwife": 4903,
      "Ġwishing": 4904,
      "Ġwiped": 4905,
      "Ġwrenched": 4906,
      "Ġwrigg": 4907,
      "revor": 4908,
      "Ġhonestly": 4909,
      "onom": 4910,
      "Ġbon": 4911,
      "Ġbid": 4912,
      "Ġbot": 4913,
      "Ġbun": 4914,
      "Ġband": 4915,
      "Ġbull": 4916,
      "Ġbree": 4917,
      "Ġbish": 4918,
      "Ġbitten": 4919,
      "Ġboring": 4920,
      "ednes": 4921,
      "erbock": 4922,
      "arse": 4923,
      "Ġfit": 4924,
      "Ġfond": 4925,
      "Ġfought": 4926,
      "Ġfudge": 4927,
      "Ġfoul": 4928,
      "Ġfailed": 4929,
      "Ġfavored": 4930,
      "ĠHan": 4931,
      "ĠHam": 4932,
      "ĠHouse": 4933,
      "ĠHOGWAR": 4934,
      "Ġcoo": 4935,
      "Ġcam": 4936,
      "Ġcro": 4937,
      "Ġcack": 4938,
      "Ġcrou": 4939,
      "Ġcous": 4940,
      "Ġcost": 4941,
      "Ġcared": 4942,
      "Ġcool": 4943,
      "Ġcabb": 4944,
      "Ġcaptain": 4945,
      "Ġcauldrons": 4946,
      "Ġoak": 4947,
      "Ġokay": 4948,
      "iter": 4949,
      "itain": 4950,
      "atches": 4951,
      "attering": 4952,
      "atform": 4953,
      "athered": 4954,
      "ases": 4955,
      "asped": 4956,
      "asure": 4957,
      "oris": 4958,
      "orse": 4959,
      "orrowed": 4960,
      "idly": 4961,
      "idnight": 4962,
      "Ġdang": 4963,
      "Ġdared": 4964,
      "Ġdaring": 4965,
      "Ġdashed": 4966,
      "Ġdawn": 4967,
      "Ġdancing": 4968,
      "Ġdread": 4969,
      "Ġdashing": 4970,
      "Ġheaven": 4971,
      "Ġmes": 4972,
      "Ġmain": 4973,
      "Ġmice": 4974,
      "Ġmercy": 4975,
      "Ġmakes": 4976,
      "Ġmuffled": 4977,
      "Ġmedd": 4978,
      "Ġthr": 4979,
      "Ġthump": 4980,
      "enius": 4981,
      "Ġgig": 4982,
      "Ġgate": 4983,
      "Ġgathered": 4984,
      "Ġlif": 4985,
      "Ġlog": 4986,
      "Ġlove": 4987,
      "Ġlately": 4988,
      "Ġlaid": 4989,
      "Ġpow": 4990,
      "Ġpal": 4991,
      "Ġpill": 4992,
      "Ġpatch": 4993,
      "Ġpause": 4994,
      "Ġpure": 4995,
      "Ġpowd": 4996,
      "Ġpub": 4997,
      "Ġpict": 4998,
      "Ġpushing": 4999,
      "Ġpetrified": 5000,
      "Ġparking": 5001,
      "Ġnail": 5002,
      "Ġnatur": 5003,
      "oop": 5004,
      "oooo": 5005,
      "Ġbean": 5006,
      "Ġbeamed": 5007,
      "Ġbezoar": 5008,
      "Ġsaf": 5009,
      "cking": 5010,
      "ckford": 5011,
      "Ġstut": 5012,
      "Ġstarts": 5013,
      "Ġstumped": 5014,
      "omas": 5015,
      "eted": 5016,
      "ettie": 5017,
      "imble": 5018,
      "imsy": 5019,
      "irs": 5020,
      "agm": 5021,
      "Ġuna": 5022,
      "Ġwhim": 5023,
      "Ġri": 5024,
      "Ġruff": 5025,
      "Ġrib": 5026,
      "Ġrumm": 5027,
      "Ġrows": 5028,
      "Ġrumbling": 5029,
      "Ġwear": 5030,
      "Ġweird": 5031,
      "aded": 5032,
      "These": 5033,
      "Ġate": 5034,
      "Ġkettle": 5035,
      "ĠSpe": 5036,
      "ĠSide": 5037,
      "ĠSomething": 5038,
      "urity": 5039,
      "Ġankles": 5040,
      "ĠMaybe": 5041,
      "ĠPut": 5042,
      "ĠPro": 5043,
      "ĠPince": 5044,
      "ĠPuce": 5045,
      "Ġrept": 5046,
      "Ġredd": 5047,
      "Ġrepl": 5048,
      "alk": 5049,
      "alty": 5050,
      "alade": 5051,
      "ĠDis": 5052,
      "ĠDragon": 5053,
      "ĠDaily": 5054,
      "roll": 5055,
      "rodu": 5056,
      "rockford": 5057,
      "ardium": 5058,
      "Ġfork": 5059,
      "Ġfortune": 5060,
      "peci": 5061,
      "redients": 5062,
      "ries": 5063,
      "ripp": 5064,
      "Ġlent": 5065,
      "Ġlevel": 5066,
      "ridge": 5067,
      "Ġsho": 5068,
      "Ġshown": 5069,
      "Ġshame": 5070,
      "Ġshudd": 5071,
      "Ġshaped": 5072,
      "Ġneigh": 5073,
      "ĠRonald": 5074,
      "indly": 5075,
      "illage": 5076,
      "Ġdozen": 5077,
      "Ġupward": 5078,
      "unting": 5079,
      "Ġknick": 5080,
      "Ġknuck": 5081,
      "Ġknobb": 5082,
      "ums": 5083,
      "ĠAd": 5084,
      "ĠApot": 5085,
      "Ġgoin": 5086,
      "Ġgoble": 5087,
      "hings": 5088,
      "mies": 5089,
      "ĠFR": 5090,
      "ĠFriday": 5091,
      "ĠFungi": 5092,
      "ĠThese": 5093,
      "aining": 5094,
      "Ġframe": 5095,
      "Ġmelt": 5096,
      "Ġlip": 5097,
      "Ġlion": 5098,
      "Ġliking": 5099,
      "Ġlicking": 5100,
      "Ġjam": 5101,
      "Ġjost": 5102,
      "Ġjew": 5103,
      "Ġjaws": 5104,
      "Ġjacket": 5105,
      "ĠWands": 5106,
      "ĠWednes": 5107,
      "toe": 5108,
      "ĠNah": 5109,
      "ĠNich": 5110,
      "Ġbacks": 5111,
      "Ġbacked": 5112,
      "elled": 5113,
      "ffic": 5114,
      "ical": 5115,
      "icent": 5116,
      "Ġseeing": 5117,
      "Ġcliff": 5118,
      "Ġsold": 5119,
      "Ġsobbing": 5120,
      "Ġsepar": 5121,
      "ctions": 5122,
      "ssy": 5123,
      "Ġalarm": 5124,
      "oomed": 5125,
      "nah": 5126,
      "inkling": 5127,
      "Ġshelf": 5128,
      "ideo": 5129,
      "umber": 5130,
      "Quick": 5131,
      "ĠBell": 5132,
      "ĠBest": 5133,
      "ĠBinn": 5134,
      "ĠBrazil": 5135,
      "ĠBettie": 5136,
      "Ġwhose": 5137,
      "ously": 5138,
      "Ġpoked": 5139,
      "ĠTW": 5140,
      "ĠTen": 5141,
      "ĠTues": 5142,
      "Ġdownward": 5143,
      "ĠCon": 5144,
      "ĠCould": 5145,
      "ĠCent": 5146,
      "ĠCup": 5147,
      "ĠCrockford": 5148,
      "Ġtwist": 5149,
      "Ġflicked": 5150,
      "Ġflushed": 5151,
      "Ġflavor": 5152,
      "Ġflaming": 5153,
      "Ġbrains": 5154,
      "ongue": 5155,
      "Ġplunged": 5156,
      "ĠIts": 5157,
      "Ġworrying": 5158,
      "ounds": 5159,
      "Ġblow": 5160,
      "Ġblown": 5161,
      "Ġblock": 5162,
      "Ġblinding": 5163,
      "acle": 5164,
      "Ġsple": 5165,
      "Ġspace": 5166,
      "Ġspying": 5167,
      "Ġspindly": 5168,
      "ometimes": 5169,
      "Ġchim": 5170,
      "Ġchairs": 5171,
      "Ġcharm": 5172,
      "Ġchip": 5173,
      "Ġchalk": 5174,
      "Ġval": 5175,
      "Ġvast": 5176,
      "Ġvamp": 5177,
      "Ġvict": 5178,
      "Ġvillage": 5179,
      "Ġvideo": 5180,
      "Ġdoormat": 5181,
      "Ġcannon": 5182,
      "alfay": 5183,
      "Ġteap": 5184,
      "Ġtearing": 5185,
      "ondu": 5186,
      "onday": 5187,
      "Ġsayin": 5188,
      "Ġhanding": 5189,
      "Ġuses": 5190,
      "olding": 5191,
      "Ġnowhere": 5192,
      "Ġheaded": 5193,
      "Ġeyed": 5194,
      "apers": 5195,
      "Ġscales": 5196,
      "uffly": 5197,
      "uffling": 5198,
      "Ġdeaf": 5199,
      "Ġdefin": 5200,
      "ĠOR": 5201,
      "ĠOver": 5202,
      "ĠOur": 5203,
      "Ġpeace": 5204,
      "Ġpelt": 5205,
      "ĠUse": 5206,
      "Ġturns": 5207,
      "Ġeverybody": 5208,
      "Ġeverythin": 5209,
      "Ġcomm": 5210,
      "bber": 5211,
      "Ġtrans": 5212,
      "Ġtransf": 5213,
      "Ġtracks": 5214,
      "Ġglaring": 5215,
      "Ġglance": 5216,
      "Ġglided": 5217,
      "Ġglowing": 5218,
      "Ġglanced": 5219,
      "Ġgliding": 5220,
      "ĠLet": 5221,
      "Ġswa": 5222,
      "Ġswish": 5223,
      "Ġswishing": 5224,
      "Ġsweeping": 5225,
      "olut": 5226,
      "Ġslot": 5227,
      "Ġslam": 5228,
      "Ġslumped": 5229,
      "Ġsloped": 5230,
      "berry": 5231,
      "gging": 5232,
      "Ġgran": 5233,
      "Ġgrim": 5234,
      "Ġgruffly": 5235,
      "ĠEng": 5236,
      "Ġsnig": 5237,
      "Ġsneak": 5238,
      "Ġunl": 5239,
      "Ġspend": 5240,
      "ĠStand": 5241,
      "Ġbehaving": 5242,
      "Ġwaist": 5243,
      "Ġwailed": 5244,
      "Ġlonger": 5245,
      "Ġboiling": 5246,
      "Ġboils": 5247,
      "Ġgoodness": 5248,
      "Ġcheered": 5249,
      "Ġmustn": 5250,
      "Ġstrained": 5251,
      "Ġoldest": 5252,
      "While": 5253,
      "Ġhugged": 5254,
      "Ġkeen": 5255,
      "Ġunderground": 5256,
      "Ġroar": 5257,
      "Ġroaring": 5258,
      "Ġrobe": 5259,
      "osa": 5260,
      "Ġnighttime": 5261,
      "ĠGrunn": 5262,
      "Ġtalked": 5263,
      "Ġhats": 5264,
      "Ġbeds": 5265,
      "Ġremembers": 5266,
      "Ġneedn": 5267,
      "ishment": 5268,
      "Ġsmiles": 5269,
      "Ġpasty": 5270,
      "Ġplayed": 5271,
      "Ġhoarse": 5272,
      "Ġcover": 5273,
      "Ġcoats": 5274,
      "Ġdiscuss": 5275,
      "Ġstrength": 5276,
      "Ġemb": 5277,
      "Ġdrops": 5278,
      "Ġdropping": 5279,
      "ĠNorwe": 5280,
      "ixing": 5281,
      "Ġsteak": 5282,
      "Ġsilvery": 5283,
      "Ġsounds": 5284,
      "Ġfinish": 5285,
      "Ġshouting": 5286,
      "Ġsmaller": 5287,
      "Ġsmallest": 5288,
      "Ġmagical": 5289,
      "Ġbadge": 5290,
      "Ġaskin": 5291,
      "Ġimprove": 5292,
      "ildered": 5293,
      "Ġtrem": 5294,
      "Ġtreacle": 5295,
      "Ġsorted": 5296,
      "Ġbuying": 5297,
      "Ġbigger": 5298,
      "Ġbiggest": 5299,
      "Ġstraw": 5300,
      "beus": 5301,
      "blin": 5302,
      "mony": 5303,
      "Ġsqueal": 5304,
      "Ġraising": 5305,
      "Ġmutter": 5306,
      "Ġruined": 5307,
      "Ġrubbing": 5308,
      "Ġrestaur": 5309,
      "ĠJuly": 5310,
      "Ġtrousers": 5311,
      "Ġcolder": 5312,
      "Ġbegin": 5313,
      "Ġmovement": 5314,
      "Ġsleepy": 5315,
      "Ġsleeping": 5316,
      "Ġsleepily": 5317,
      "ashion": 5318,
      "Ġappear": 5319,
      "Ġpaid": 5320,
      "master": 5321,
      "Ġcurled": 5322,
      "Ġballoon": 5323,
      "Ġbroad": 5324,
      "Ġdeser": 5325,
      "udged": 5326,
      "Ġbloody": 5327,
      "Ġpainful": 5328,
      "Ġguardin": 5329,
      "Ġsurround": 5330,
      "abby": 5331,
      "abbed": 5332,
      "Ġtries": 5333,
      "Ġtriump": 5334,
      "Ġmaroon": 5335,
      "Ġunicorns": 5336,
      "Ġideas": 5337,
      "Ġdriven": 5338,
      "Ġdrift": 5339,
      "Ġmetal": 5340,
      "Ġkeyhole": 5341,
      "ĠHowever": 5342,
      "Ġeasier": 5343,
      "ĠNobody": 5344,
      "Ġclosely": 5345,
      "ĠBehind": 5346,
      "Ġtoadless": 5347,
      "ĠDear": 5348,
      "ĠDefense": 5349,
      "Ġexamined": 5350,
      "ĠOllivanders": 5351,
      "Ġburied": 5352,
      "Ġcontin": 5353,
      "Ġmisty": 5354,
      "Ġmistaking": 5355,
      "Ġpartner": 5356,
      "Ġinstant": 5357,
      "Ġstuffed": 5358,
      "Ġrefuse": 5359,
      "Ġfields": 5360,
      "ĠYer": 5361,
      "Ġtraffic": 5362,
      "Ġclimbing": 5363,
      "Ġexplaining": 5364,
      "ĠHufflepuffs": 5365,
      "Ġbravery": 5366,
      "Ġfreezing": 5367,
      "Ġdreams": 5368,
      "Ġlowered": 5369,
      "Stay": 5370,
      "Still": 5371,
      "Ġtallest": 5372,
      "Ġsinging": 5373,
      "Ġpracticing": 5374,
      "Ġflutter": 5375,
      "Ġorder": 5376,
      "Ġordered": 5377,
      "Ġhitting": 5378,
      "Ġtowered": 5379,
      "Ġcounting": 5380,
      "Ġflatten": 5381,
      "Ġskyward": 5382,
      "Ġpotatoes": 5383,
      "Ġpunching": 5384,
      "Ġpostcard": 5385,
      "LEPUFF": 5386,
      "Ġcentaurs": 5387,
      "ĠAlgie": 5388,
      "ĠAnyone": 5389,
      "Ġsooner": 5390,
      "Ġscratching": 5391,
      "Ġgrowls": 5392,
      "Ġreminds": 5393,
      "Ġvisited": 5394,
      "Ġdifficulty": 5395,
      "Ġsimple": 5396,
      "Ġhummed": 5397,
      "Ġhumans": 5398,
      "Ġbabble": 5399,
      "Ġmountains": 5400,
      "Ġnormally": 5401,
      "Ġattack": 5402,
      "Ġattract": 5403,
      "Ġjumping": 5404,
      "Ġserv": 5405,
      "Ġbattle": 5406,
      "ĠHerbs": 5407,
      "Ġearlier": 5408,
      "Ġeagle": 5409,
      "ĠWizardry": 5410,
      "Ġspots": 5411,
      "Ġsliding": 5412,
      "Ġboxes": 5413,
      "Ġcheerfully": 5414,
      "Didn": 5415,
      "Ġignore": 5416,
      "Ġslept": 5417,
      "Ġsunlight": 5418,
      "Ġbewildered": 5419,
      "Ġstroked": 5420,
      "ĠAgripp": 5421,
      "uddle": 5422,
      "Ġfrightening": 5423,
      "Ġflopped": 5424,
      "Ġsplut": 5425,
      "Ġvaults": 5426,
      "Ġpretended": 5427,
      "Ġtrembled": 5428,
      "Ġproudly": 5429,
      "AAAA": 5430,
      "Ġespeci": 5431,
      "Ġsusp": 5432,
      "Ġdeterm": 5433,
      "Ġwhistled": 5434,
      "Ġflickering": 5435,
      "Ġchoked": 5436,
      "Ġstretching": 5437,
      "Ġdungeon": 5438,
      "DORE": 5439,
      "Ġaddress": 5440,
      "Ġwolf": 5441,
      "Ġbrick": 5442,
      "Ġburning": 5443,
      "Ġfirs": 5444,
      "Ġcandles": 5445,
      "Ġinterru": 5446,
      "Ġsandy": 5447,
      "Ġsausage": 5448,
      "Ġreturned": 5449,
      "Ġsubst": 5450,
      "Ġargu": 5451,
      "Ġchecking": 5452,
      "Ġconfusion": 5453,
      "Charlie": 5454,
      "OOL": 5455,
      "OOM": 5456,
      "Ġawarded": 5457,
      "Ġbanner": 5458,
      "Ġcursing": 5459,
      "Ġcalmly": 5460,
      "Ġmarkings": 5461,
      "Ġgrip": 5462,
      "Ġgripped": 5463,
      "Ġrising": 5464,
      "Ġsneer": 5465,
      "Ġsnowy": 5466,
      "Ġyellowish": 5467,
      "Ġbelonged": 5468,
      "Really": 5469,
      "Ready": 5470,
      "Ġingredients": 5471,
      "Ġbolted": 5472,
      "Ġtorn": 5473,
      "Ġglee": 5474,
      "Ġgleaming": 5475,
      "Ġsadly": 5476,
      "Ġanimal": 5477,
      "Ġmeasure": 5478,
      "Ġwheezing": 5479,
      "ĠBritain": 5480,
      "Ġviolet": 5481,
      "Ġarmchair": 5482,
      "Ġaccident": 5483,
      "Ġpromised": 5484,
      "Ġcountryside": 5485,
      "Ġrecognize": 5486,
      "Ġescape": 5487,
      "REE": 5488,
      "Send": 5489,
      "Unless": 5490,
      "known": 5491,
      "Ġacting": 5492,
      "Ġfists": 5493,
      "Ġduel": 5494,
      "Ġmonst": 5495,
      "Ġpatting": 5496,
      "Ġstiffly": 5497,
      "ĠShould": 5498,
      "Ġshrank": 5499,
      "ĠWITCH": 5500,
      "Ġsearch": 5501,
      "Ġseventy": 5502,
      "ĠStudents": 5503,
      "Ġstolen": 5504,
      "Ġsweaty": 5505,
      "Ġadvice": 5506,
      "Ġrefereeing": 5507,
      "Excuse": 5508,
      "ience": 5509,
      "phet": 5510,
      "Ġirrit": 5511,
      "Ġicy": 5512,
      "Ġsides": 5513,
      "Ġwrestling": 5514,
      "Ġcopying": 5515,
      "Ġdemanded": 5516,
      "Ġdestroyed": 5517,
      "Ġpuffing": 5518,
      "Ġyawning": 5519,
      "Ġurg": 5520,
      "ĠDUMBLE": 5521,
      "Ġshaken": 5522,
      "Ġfrowning": 5523,
      "Ġclouds": 5524,
      "ĠTransfiguration": 5525,
      "Ġgrandfather": 5526,
      "Ġgrateful": 5527,
      "Ġengine": 5528,
      "Ġbuilding": 5529,
      "Ġsquares": 5530,
      "Ġsqueaked": 5531,
      "Ġbushy": 5532,
      "Ġcollecting": 5533,
      "Ġfirmly": 5534,
      "Ġadmiring": 5535,
      "Rubbish": 5536,
      "Ġidiot": 5537,
      "Ġfleet": 5538,
      "Ġfolded": 5539,
      "Ġpenalty": 5540,
      "Ġpumpkin": 5541,
      "Ġprivate": 5542,
      "Ġintrodu": 5543,
      "Ġbeef": 5544,
      "Ġstammered": 5545,
      "Ġstrict": 5546,
      "Ġechoed": 5547,
      "Ġeffort": 5548,
      "Ġrumors": 5549,
      "Ġweighing": 5550,
      "ĠSickles": 5551,
      "ĠRidgeback": 5552,
      "ribly": 5553,
      "ĠALBU": 5554,
      "ĠFinally": 5555,
      "ĠGuide": 5556,
      "Ġalchemy": 5557,
      "Ġblurted": 5558,
      "Ġchasing": 5559,
      "Ġchicken": 5560,
      "Ġvacation": 5561,
      "Ġscribbled": 5562,
      "Ġscraping": 5563,
      "ĠUnfortunately": 5564,
      "ĠLeviosa": 5565,
      "Ġswiftly": 5566,
      "Ġcrumpled": 5567,
      "Ġbitterly": 5568,
      "Ġimpatiently": 5569,
      "Ġconcentrate": 5570,
      "Ġbasket": 5571,
      "Hello": 5572,
      "HUFFLEPUFF": 5573,
      "Suddenly": 5574,
      "Slytherin": 5575,
      "Wingardium": 5576,
      "Wonder": 5577,
      "lowly": 5578,
      "Ġtantrum": 5579,
      "Ġwomen": 5580,
      "onomy": 5581,
      "Ġbothered": 5582,
      "Ġbishop": 5583,
      "ĠHannah": 5584,
      "ĠHOGWARTS": 5585,
      "Ġcoolly": 5586,
      "Ġcamera": 5587,
      "Ġcroaked": 5588,
      "Ġcousin": 5589,
      "Ġdangling": 5590,
      "Ġmeself": 5591,
      "Ġgigantic": 5592,
      "Ġlogic": 5593,
      "Ġpowers": 5594,
      "Ġpillow": 5595,
      "Ġribs": 5596,
      "ĠProphet": 5597,
      "ĠPucey": 5598,
      "Ġreptile": 5599,
      "Ġshuddered": 5600,
      "Ġknickerbock": 5601,
      "Ġknobbly": 5602,
      "ĠApothecary": 5603,
      "Ġjostled": 5604,
      "ĠWednesday": 5605,
      "ĠNicholas": 5606,
      "ĠBinns": 5607,
      "ĠTuesday": 5608,
      "Ġteapot": 5609,
      "Ġdeafening": 5610,
      "Ġdefinitely": 5611,
      "ĠNorwegian": 5612,
      "Ġrestaurant": 5613,
      "ĠAgrippa": 5614,
      "Ġespecially": 5615,
      "Ġdetermined": 5616,
      "Ġinterrupted": 5617,
      "Ġirritably": 5618,
      "ĠDUMBLEDORE": 5619,
      "ĠALBUS": 5620,
      "'.": 5621,
      "',\"": 5622,
      "'âĢľ": 5623,
      ".'": 5624,
      "45": 5625,
      "945": 5626,
      "AD": 5627,
      "AG": 5628,
      "AK": 5629,
      "AAR": 5630,
      "Abs": 5631,
      "Bin": 5632,
      "Bind": 5633,
      "Bless": 5634,
      "Bane": 5635,
      "Budge": 5636,
      "BID": 5637,
      "BOOM": 5638,
      "CE": 5639,
      "CR": 5640,
      "Che": 5641,
      "Com": 5642,
      "Call": 5643,
      "CRA": 5644,
      "DI": 5645,
      "DU": 5646,
      "Dou": 5647,
      "Dra": 5648,
      "Duck": 5649,
      "DRY": 5650,
      "Dragon": 5651,
      "Doris": 5652,
      "EI": 5653,
      "EM": 5654,
      "Ever": 5655,
      "EST": 5656,
      "FT": 5657,
      "Fin": 5658,
      "Four": 5659,
      "Filch": 5660,
      "FOR": 5661,
      "Flew": 5662,
      "Fifty": 5663,
      "George": 5664,
      "Had": 5665,
      "Hull": 5666,
      "Hang": 5667,
      "Hmm": 5668,
      "HING": 5669,
      "Honestly": 5670,
      "IX": 5671,
      "ILL": 5672,
      "ICK": 5673,
      "Jordan": 5674,
      "Ke": 5675,
      "LA": 5676,
      "LD": 5677,
      "Las": 5678,
      "Lee": 5679,
      "Light": 5680,
      "Lock": 5681,
      "Little": 5682,
      "LAS": 5683,
      "Might": 5684,
      "Most": 5685,
      "Master": 5686,
      "MAS": 5687,
      "Merry": 5688,
      "Midnight": 5689,
      "None": 5690,
      "Nine": 5691,
      "NEV": 5692,
      "Ow": 5693,
      "Ooooo": 5694,
      "Pe": 5695,
      "Pre": 5696,
      "Per": 5697,
      "Pig": 5698,
      "Pass": 5699,
      "POT": 5700,
      "Patil": 5701,
      "Please": 5702,
      "RS": 5703,
      "Sw": 5704,
      "Spe": 5705,
      "Sometimes": 5706,
      "Tw": 5707,
      "Ten": 5708,
      "Too": 5709,
      "Tell": 5710,
      "Taking": 5711,
      "Things": 5712,
      "UDEN": 5713,
      "Vernon": 5714,
      "Voldemort": 5715,
      "VEN": 5716,
      "Vault": 5717,
      "WE": 5718,
      "Won": 5719,
      "Was": 5720,
      "Wow": 5721,
      "Wizard": 5722,
      "ZE": 5723,
      "ZAR": 5724,
      "aves": 5725,
      "aved": 5726,
      "aze": 5727,
      "aith": 5728,
      "bane": 5729,
      "bors": 5730,
      "bviously": 5731,
      "bounds": 5732,
      "cin": 5733,
      "cond": 5734,
      "cious": 5735,
      "cove": 5736,
      "cuts": 5737,
      "curse": 5738,
      "copes": 5739,
      "don": 5740,
      "ding": 5741,
      "did": 5742,
      "down": 5743,
      "dling": 5744,
      "dden": 5745,
      "eg": 5746,
      "ex": 5747,
      "eed": 5748,
      "ear": 5749,
      "eled": 5750,
      "every": 5751,
      "ended": 5752,
      "emies": 5753,
      "fle": 5754,
      "fting": 5755,
      "fern": 5756,
      "five": 5757,
      "fering": 5758,
      "foot": 5759,
      "fric": 5760,
      "go": 5761,
      "gers": 5762,
      "give": 5763,
      "glass": 5764,
      "hot": 5765,
      "hound": 5766,
      "handed": 5767,
      "hamed": 5768,
      "ial": 5769,
      "ipp": 5770,
      "iest": 5771,
      "ieth": 5772,
      "jam": 5773,
      "jured": 5774,
      "kly": 5775,
      "kward": 5776,
      "lting": 5777,
      "lause": 5778,
      "lcome": 5779,
      "lops": 5780,
      "latform": 5781,
      "mother": 5782,
      "mber": 5783,
      "minut": 5784,
      "moon": 5785,
      "mwood": 5786,
      "nis": 5787,
      "nif": 5788,
      "nie": 5789,
      "nosed": 5790,
      "oons": 5791,
      "ody": 5792,
      "ode": 5793,
      "por": 5794,
      "pent": 5795,
      "pers": 5796,
      "ring": 5797,
      "rot": 5798,
      "rass": 5799,
      "rary": 5800,
      "range": 5801,
      "ronomy": 5802,
      "she": 5803,
      "sing": 5804,
      "sie": 5805,
      "sening": 5806,
      "sident": 5807,
      "swall": 5808,
      "sbane": 5809,
      "ton": 5810,
      "til": 5811,
      "tell": 5812,
      "tep": 5813,
      "taker": 5814,
      "uid": 5815,
      "ules": 5816,
      "undred": 5817,
      "uable": 5818,
      "uade": 5819,
      "upted": 5820,
      "ubeus": 5821,
      "va": 5822,
      "wk": 5823,
      "wter": 5824,
      "what": 5825,
      "wol": 5826,
      "wald": 5827,
      "ys": 5828,
      "yt": 5829,
      "yll": 5830,
      "yes": 5831,
      "zagging": 5832,
      "Ġ,": 5833,
      "Ġ0": 5834,
      "Ġ2": 5835,
      "Ġou": 5836,
      "Ġick": 5837,
      "Ġille": 5838,
      "Ġvel": 5839,
      "Ġted": 5840,
      "Ġting": 5841,
      "Ġtack": 5842,
      "Ġtunn": 5843,
      "Ġtugg": 5844,
      "Ġtied": 5845,
      "Ġtip": 5846,
      "Ġtipped": 5847,
      "Ġtub": 5848,
      "Ġtune": 5849,
      "Ġtidy": 5850,
      "Ġtangled": 5851,
      "Ġtuft": 5852,
      "Ġtongue": 5853,
      "hever": 5854,
      "Ġacted": 5855,
      "inx": 5856,
      "inct": 5857,
      "inous": 5858,
      "Ġsin": 5859,
      "Ġsen": 5860,
      "Ġsore": 5861,
      "Ġsunny": 5862,
      "Ġsinking": 5863,
      "Ġsession": 5864,
      "Ġselling": 5865,
      "Ġward": 5866,
      "Ġwig": 5867,
      "Ġwins": 5868,
      "Ġwider": 5869,
      "ouched": 5870,
      "oudy": 5871,
      "rely": 5872,
      "rels": 5873,
      "rets": 5874,
      "Ġhon": 5875,
      "Ġhar": 5876,
      "Ġhing": 5877,
      "Ġhook": 5878,
      "Ġhun": 5879,
      "Ġhood": 5880,
      "Ġhumb": 5881,
      "Ġholl": 5882,
      "Ġhushed": 5883,
      "Ġhatching": 5884,
      "Ġhooted": 5885,
      "Ġhuddle": 5886,
      "Ġbis": 5887,
      "Ġboo": 5888,
      "Ġbul": 5889,
      "Ġbunny": 5890,
      "Ġbanged": 5891,
      "Ġborrow": 5892,
      "Ġbaked": 5893,
      "Ġbudge": 5894,
      "Ġbanging": 5895,
      "Ġbunch": 5896,
      "Ġbangs": 5897,
      "Ġbounc": 5898,
      "Ġbinding": 5899,
      "Ġborrowed": 5900,
      "edown": 5901,
      "erve": 5902,
      "erts": 5903,
      "erlin": 5904,
      "ercise": 5905,
      "arA": 5906,
      "arg": 5907,
      "argh": 5908,
      "arter": 5909,
      "arhound": 5910,
      "arrass": 5911,
      "inged": 5912,
      "ingly": 5913,
      "ndid": 5914,
      "Ġfou": 5915,
      "Ġfed": 5916,
      "Ġfas": 5917,
      "Ġfan": 5918,
      "Ġfut": 5919,
      "Ġfif": 5920,
      "Ġfum": 5921,
      "Ġfame": 5922,
      "Ġfrying": 5923,
      "Ġfail": 5924,
      "Ġfreed": 5925,
      "Ġfury": 5926,
      "Ġfashion": 5927,
      "Ġfaith": 5928,
      "llow": 5929,
      "Ġtot": 5930,
      "Ġtooth": 5931,
      "Ġtoys": 5932,
      "ĠHa": 5933,
      "ĠHar": 5934,
      "ĠHor": 5935,
      "ĠHig": 5936,
      "ĠHog": 5937,
      "ĠHope": 5938,
      "ĠHouses": 5939,
      "Ġcow": 5940,
      "Ġcant": 5941,
      "Ġcraw": 5942,
      "Ġcaut": 5943,
      "Ġcraz": 5944,
      "Ġcondu": 5945,
      "Ġocc": 5946,
      "Ġoyt": 5947,
      "ites": 5948,
      "ition": 5949,
      "itches": 5950,
      "ator": 5951,
      "ates": 5952,
      "atic": 5953,
      "lent": 5954,
      "asp": 5955,
      "asily": 5956,
      "asions": 5957,
      "asper": 5958,
      "asping": 5959,
      "ashes": 5960,
      "ora": 5961,
      "orc": 5962,
      "orksh": 5963,
      "orously": 5964,
      "ids": 5965,
      "ides": 5966,
      "iders": 5967,
      "idents": 5968,
      "isy": 5969,
      "istering": 5970,
      "iskly": 5971,
      "Ġda": 5972,
      "Ġdess": 5973,
      "Ġdull": 5974,
      "Ġdried": 5975,
      "Ġdate": 5976,
      "Ġdough": 5977,
      "Ġdump": 5978,
      "Ġdense": 5979,
      "Ġdunno": 5980,
      "Ġducked": 5981,
      "Ġdwell": 5982,
      "Ġdates": 5983,
      "Ġhero": 5984,
      "Ġheap": 5985,
      "Ġheel": 5986,
      "Ġhesit": 5987,
      "Ġheaved": 5988,
      "Ġmen": 5989,
      "Ġmag": 5990,
      "Ġmil": 5991,
      "Ġmass": 5992,
      "Ġmold": 5993,
      "Ġmouse": 5994,
      "Ġmater": 5995,
      "Ġmah": 5996,
      "Ġmarm": 5997,
      "Ġmaster": 5998,
      "Ġmatches": 5999,
      "Ġmixing": 6000,
      "Ġthre": 6001,
      "Ġthud": 6002,
      "Ġthunder": 6003,
      "Ġgit": 6004,
      "Ġgent": 6005,
      "Ġgap": 6006,
      "Ġgather": 6007,
      "Ġgaw": 6008,
      "Ġgames": 6009,
      "Ġgift": 6010,
      "Ġgarl": 6011,
      "Ġgenius": 6012,
      "Ġlar": 6013,
      "Ġling": 6014,
      "Ġlan": 6015,
      "Ġlad": 6016,
      "Ġlum": 6017,
      "Ġloy": 6018,
      "Ġlady": 6019,
      "Ġlined": 6020,
      "Ġlawn": 6021,
      "Ġpou": 6022,
      "Ġpitch": 6023,
      "Ġpup": 6024,
      "Ġpage": 6025,
      "Ġpaced": 6026,
      "Ġpaces": 6027,
      "Ġpiles": 6028,
      "Ġpush": 6029,
      "Ġpawed": 6030,
      "Ġpapers": 6031,
      "Ġhawk": 6032,
      "Ġnon": 6033,
      "Ġnet": 6034,
      "Ġnic": 6035,
      "Ġnib": 6036,
      "Ġnuts": 6037,
      "Ġnettle": 6038,
      "Ġnagging": 6039,
      "Ġinform": 6040,
      "Ġinvent": 6041,
      "Ġinfus": 6042,
      "Ġinformed": 6043,
      "owy": 6044,
      "owling": 6045,
      "Ġwash": 6046,
      "Ġwaste": 6047,
      "Ġwastep": 6048,
      "oose": 6049,
      "oops": 6050,
      "ooping": 6051,
      "otting": 6052,
      "Ġbeady": 6053,
      "Ġbeating": 6054,
      "Ġsav": 6055,
      "Ġsaint": 6056,
      "Ġsailed": 6057,
      "Ġsagged": 6058,
      "Ġsacked": 6059,
      "Ġonward": 6060,
      "ckled": 6061,
      "ckons": 6062,
      "Ġstag": 6063,
      "Ġstrid": 6064,
      "Ġstate": 6065,
      "Ġstones": 6066,
      "Ġstories": 6067,
      "omora": 6068,
      "Ġequ": 6069,
      "etic": 6070,
      "ĠIckle": 6071,
      "stal": 6072,
      "stood": 6073,
      "stool": 6074,
      "stead": 6075,
      "stances": 6076,
      "imp": 6077,
      "veal": 6078,
      "veled": 6079,
      "irring": 6080,
      "vering": 6081,
      "veries": 6082,
      "Ġ-\"": 6083,
      "Ġ\"...": 6084,
      "Ġ\"--": 6085,
      "uttled": 6086,
      "agged": 6087,
      "aggy": 6088,
      "Ġwhoo": 6089,
      "Ġwhic": 6090,
      "chley": 6091,
      "Ġray": 6092,
      "Ġrif": 6093,
      "Ġride": 6094,
      "Ġrig": 6095,
      "Ġrise": 6096,
      "Ġroot": 6097,
      "Ġrip": 6098,
      "Ġrich": 6099,
      "Ġrush": 6100,
      "Ġroots": 6101,
      "Ġripping": 6102,
      "Ġracket": 6103,
      "Ġrooted": 6104,
      "Ġwelcome": 6105,
      "Ġass": 6106,
      "Ġaske": 6107,
      "Ġasph": 6108,
      "Ġashamed": 6109,
      "aying": 6110,
      "Ġking": 6111,
      "Ġketch": 6112,
      "ĠSw": 6113,
      "ĠSet": 6114,
      "ĠSil": 6115,
      "ĠSus": 6116,
      "ĠSure": 6117,
      "ĠSoon": 6118,
      "ĠSCH": 6119,
      "ĠSund": 6120,
      "ĠSEV": 6121,
      "ĠSlowly": 6122,
      "ĠSIX": 6123,
      "urb": 6124,
      "urious": 6125,
      "Ġanci": 6126,
      "eeze": 6127,
      "ĠMe": 6128,
      "ĠMight": 6129,
      "ĠMore": 6130,
      "ĠMind": 6131,
      "ĠMars": 6132,
      "ĠMuch": 6133,
      "ĠMod": 6134,
      "ĠMorgan": 6135,
      "ĠMimsy": 6136,
      "ĠMalfay": 6137,
      "ĠMonday": 6138,
      "ĠMerlin": 6139,
      "ĠPoor": 6140,
      "ĠPower": 6141,
      "ĠPAR": 6142,
      "ĠPOT": 6143,
      "ĠPolk": 6144,
      "ĠPlatform": 6145,
      "Ġrear": 6146,
      "Ġrefere": 6147,
      "Ġrevol": 6148,
      "Ġreckons": 6149,
      "Ġreveal": 6150,
      "alator": 6151,
      "ĠDO": 6152,
      "ĠDad": 6153,
      "ĠDunno": 6154,
      "ĠDuddy": 6155,
      "ighted": 6156,
      "roving": 6157,
      "roken": 6158,
      "robably": 6159,
      "ores": 6160,
      "ards": 6161,
      "ĠRed": 6162,
      "ĠRubeus": 6163,
      "tern": 6164,
      "terge": 6165,
      "Ġform": 6166,
      "Ġforty": 6167,
      "rian": 6168,
      "Ġlect": 6169,
      "Ġlege": 6170,
      "Ġlength": 6171,
      "entions": 6172,
      "entieth": 6173,
      "ackets": 6174,
      "ride": 6175,
      "Ġoutstand": 6176,
      "Ġshack": 6177,
      "Ġshared": 6178,
      "Ġsharing": 6179,
      "Ġshoot": 6180,
      "Ġshove": 6181,
      "Ġshrive": 6182,
      "Ġshining": 6183,
      "Ġshoes": 6184,
      "Ġshuffling": 6185,
      "Ġshabby": 6186,
      "Ġshaggy": 6187,
      "Ġnephe": 6188,
      "ĠRonnie": 6189,
      "rous": 6190,
      "indel": 6191,
      "illed": 6192,
      "Ġupon": 6193,
      "Ġupright": 6194,
      "ppose": 6195,
      "pposed": 6196,
      "Ġknack": 6197,
      "umstances": 6198,
      "ĠAT": 6199,
      "ĠAh": 6200,
      "ĠAnt": 6201,
      "ĠARE": 6202,
      "ĠAND": 6203,
      "ĠAfric": 6204,
      "Ġwerewol": 6205,
      "udents": 6206,
      "Ġgolf": 6207,
      "ĠFI": 6208,
      "ĠFitch": 6209,
      "ĠFrom": 6210,
      "ĠFollow": 6211,
      "ĠFOUR": 6212,
      "ĠFirs": 6213,
      "ĠFear": 6214,
      "Ġmeal": 6215,
      "Ġliver": 6216,
      "Ġliqu": 6217,
      "Ġjar": 6218,
      "Ġjoy": 6219,
      "Ġjour": 6220,
      "Ġjars": 6221,
      "Ġjog": 6222,
      "Ġjol": 6223,
      "Ġjammed": 6224,
      "Ġjeal": 6225,
      "Ġjabbed": 6226,
      "Ġjinx": 6227,
      "Ġjackets": 6228,
      "andering": 6229,
      "ĠWhe": 6230,
      "ĠWest": 6231,
      "ĠWarl": 6232,
      "ĠWorse": 6233,
      "ĠGood": 6234,
      "ĠGold": 6235,
      "ĠGRYFFINDOR": 6236,
      "arty": 6237,
      "ĠNice": 6238,
      "ĠNine": 6239,
      "ĠNIN": 6240,
      "ilt": 6241,
      "ilty": 6242,
      "ooding": 6243,
      "elle": 6244,
      "ffee": 6245,
      "ffering": 6246,
      "icy": 6247,
      "icles": 6248,
      "icated": 6249,
      "Ġseek": 6250,
      "Ġclick": 6251,
      "Ġclap": 6252,
      "Ġclue": 6253,
      "Ġclamber": 6254,
      "Ġclaws": 6255,
      "Ġclues": 6256,
      "Ġclasped": 6257,
      "Ġcloudy": 6258,
      "anting": 6259,
      "antastic": 6260,
      "Ġsoared": 6261,
      "Ġsoaring": 6262,
      "Ġself": 6263,
      "owned": 6264,
      "hedules": 6265,
      "Ġnoble": 6266,
      "Ġnoises": 6267,
      "Ġnoisy": 6268,
      "Ġtherefore": 6269,
      "Ġaloud": 6270,
      "opments": 6271,
      "usually": 6272,
      "Ġoffended": 6273,
      "Quidditch": 6274,
      "ĠBit": 6275,
      "ĠBars": 6276,
      "ĠBog": 6277,
      "ĠBoth": 6278,
      "ĠBED": 6279,
      "ĠBody": 6280,
      "Ġpopped": 6281,
      "Ġpoker": 6282,
      "Ġposit": 6283,
      "Ġfeed": 6284,
      "Ġfeared": 6285,
      "ĠTry": 6286,
      "ĠTell": 6287,
      "ĠTold": 6288,
      "ĠTap": 6289,
      "ĠTHA": 6290,
      "ĠTerry": 6291,
      "ĠTrevor": 6292,
      "Ġdownright": 6293,
      "Ġoverhe": 6294,
      "Ġexch": 6295,
      "Ġexpress": 6296,
      "Ġexercise": 6297,
      "Ġexasper": 6298,
      "ĠCle": 6299,
      "ĠCaptain": 6300,
      "ĠCere": 6301,
      "ĠCarA": 6302,
      "ĠQuite": 6303,
      "Ġtwinkling": 6304,
      "Ġflow": 6305,
      "Ġflight": 6306,
      "Ġflock": 6307,
      "Ġflared": 6308,
      "Ġflung": 6309,
      "Ġflipped": 6310,
      "Ġflitted": 6311,
      "Ġbrain": 6312,
      "Ġbriskly": 6313,
      "igzagging": 6314,
      "igorously": 6315,
      "orted": 6316,
      "ortled": 6317,
      "Ġagree": 6318,
      "Ġagony": 6319,
      "ersby": 6320,
      "Ġquivered": 6321,
      "ĠVCR": 6322,
      "ists": 6323,
      "Here": 6324,
      "Ġwormwood": 6325,
      "ntly": 6326,
      "Ġblast": 6327,
      "Ġblink": 6328,
      "Ġblushed": 6329,
      "Ġblaz": 6330,
      "Ġblistering": 6331,
      "Ġspat": 6332,
      "Ġspiders": 6333,
      "pths": 6334,
      "Ġchar": 6335,
      "Ġchased": 6336,
      "Ġchipped": 6337,
      "Ġchanging": 6338,
      "Ġcharms": 6339,
      "Ġchops": 6340,
      "Ġchortled": 6341,
      "Ġvigorously": 6342,
      "Ġsugar": 6343,
      "Ġsuffering": 6344,
      "Ġtimidly": 6345,
      "Ġdoorstep": 6346,
      "Ġdoorkn": 6347,
      "Ġtear": 6348,
      "Ġtend": 6349,
      "angers": 6350,
      "eves": 6351,
      "Ġhandful": 6352,
      "Ġletting": 6353,
      "Ġheadmaster": 6354,
      "aping": 6355,
      "Ġscrew": 6356,
      "Ġscored": 6357,
      "Ġscattering": 6358,
      "Ġscuttled": 6359,
      "Ġschedules": 6360,
      "ursed": 6361,
      "urses": 6362,
      "ursday": 6363,
      "uffs": 6364,
      "uffbo": 6365,
      "Ġdepths": 6366,
      "ĠOut": 6367,
      "ĠOak": 6368,
      "ĠOff": 6369,
      "ĠOdd": 6370,
      "ĠONE": 6371,
      "Ġpelting": 6372,
      "ĠUnderneath": 6373,
      "Ġhowls": 6374,
      "Ġcompl": 6375,
      "Ġcomment": 6376,
      "Ġterror": 6377,
      "bbling": 6378,
      "arkins": 6379,
      "ogany": 6380,
      "Ġglitt": 6381,
      "Ġglowed": 6382,
      "Ġglory": 6383,
      "ĠMalfoys": 6384,
      "ively": 6385,
      "ĠLave": 6386,
      "ĠLittle": 6387,
      "ĠLooking": 6388,
      "ĠLike": 6389,
      "ĠLET": 6390,
      "ĠLeg": 6391,
      "Ġswore": 6392,
      "Ġsworn": 6393,
      "Ġswarm": 6394,
      "Ġswimming": 6395,
      "Ġswelled": 6396,
      "otta": 6397,
      "olum": 6398,
      "Ġslowed": 6399,
      "Ġslip": 6400,
      "Ġslipping": 6401,
      "Ġslug": 6402,
      "Ġslipp": 6403,
      "Ġarmed": 6404,
      "Ġarrow": 6405,
      "Ġarriv": 6406,
      "Ġthoughtfully": 6407,
      "Ġgrad": 6408,
      "Ġgrump": 6409,
      "Ġgrinning": 6410,
      "Ġcris": 6411,
      "Ġcrime": 6412,
      "Ġcrammed": 6413,
      "Ġcraning": 6414,
      "Ġcrashing": 6415,
      "Ġcrooked": 6416,
      "leskin": 6417,
      "Ġmane": 6418,
      "Ġrooms": 6419,
      "Whatever": 6420,
      "Ġenter": 6421,
      "Ġentering": 6422,
      "Ġencl": 6423,
      "Ġenemies": 6424,
      "ĠEv": 6425,
      "ĠEach": 6426,
      "ĠEey": 6427,
      "Ġmod": 6428,
      "Ġmoons": 6429,
      "Ġmoleskin": 6430,
      "Ġdroo": 6431,
      "Ġdrunk": 6432,
      "Ġdrained": 6433,
      "Ġdrowned": 6434,
      "Ġsnoo": 6435,
      "Ġsneered": 6436,
      "Ġsnorted": 6437,
      "Ġsnuffbo": 6438,
      "Ġlasted": 6439,
      "Ġunse": 6440,
      "Ġunbe": 6441,
      "Ġunbl": 6442,
      "Ġuneasy": 6443,
      "Ġunknown": 6444,
      "ĠWere": 6445,
      "Ġwandered": 6446,
      "Ġmadly": 6447,
      "ups": 6448,
      "Ġstartled": 6449,
      "untled": 6450,
      "Ġsecurity": 6451,
      "ĠYouKnow": 6452,
      "Ġwax": 6453,
      "nderhead": 6454,
      "Ġsmo": 6455,
      "Ġsmart": 6456,
      "Ġboiled": 6457,
      "Ġbossy": 6458,
      "Ġboarhound": 6459,
      "Ġwalnut": 6460,
      "Ġchew": 6461,
      "Ġremote": 6462,
      "Ġhappier": 6463,
      "Ġstraining": 6464,
      "Ġstrangers": 6465,
      "Ġafterward": 6466,
      "ĠThank": 6467,
      "ĠThomas": 6468,
      "ĠThursday": 6469,
      "Ġputs": 6470,
      "Ġcalls": 6471,
      "Ġcalling": 6472,
      "Ġhugging": 6473,
      "Ġkeeps": 6474,
      "Ġprepared": 6475,
      "Ġprecious": 6476,
      "Ġunderstood": 6477,
      "Ġwinding": 6478,
      "ĠGrindel": 6479,
      "Ġfewer": 6480,
      "innet": 6481,
      "bright": 6482,
      "brown": 6483,
      "Ġpasses": 6484,
      "Ġpassword": 6485,
      "plane": 6486,
      "uggle": 6487,
      "Ġwhisk": 6488,
      "Ġwhiskers": 6489,
      "Ronan": 6490,
      "Ġhates": 6491,
      "Ġcourty": 6492,
      "aughty": 6493,
      "Ġhurting": 6494,
      "Ġneedle": 6495,
      "Ġneedles": 6496,
      "ĠAuntie": 6497,
      "Ġairplane": 6498,
      "ishly": 6499,
      "Ġyerself": 6500,
      "getting": 6501,
      "Ġwrite": 6502,
      "Ġwrinkled": 6503,
      "Thirty": 6504,
      "Ġtrodden": 6505,
      "Ġfeeble": 6506,
      "Ġpasties": 6507,
      "Ġfires": 6508,
      "Ġfirecr": 6509,
      "Ġuntidy": 6510,
      "Ġclenched": 6511,
      "Nobody": 6512,
      "please": 6513,
      "Ġhopped": 6514,
      "Ġhovered": 6515,
      "Ġcopper": 6516,
      "Ġcovers": 6517,
      "Ġcocon": 6518,
      "Ġcozy": 6519,
      "Ġsurely": 6520,
      "Ġdisgr": 6521,
      "Ġgreed": 6522,
      "Ġgreasy": 6523,
      "Ġhairs": 6524,
      "Ġhaircut": 6525,
      "Ġstreets": 6526,
      "Ġlighted": 6527,
      "Ġlighter": 6528,
      "Ġprodded": 6529,
      "Ġprodu": 6530,
      "Ġprogr": 6531,
      "Ġstoat": 6532,
      "Ġstudent": 6533,
      "Ġelbow": 6534,
      "ĠBlimey": 6535,
      "Ġhorrified": 6536,
      "Ġhorribly": 6537,
      "Ġstead": 6538,
      "Ġsteam": 6539,
      "Ġsteady": 6540,
      "Ġsteering": 6541,
      "rief": 6542,
      "Ġremembering": 6543,
      "ĠSend": 6544,
      "ĠSelf": 6545,
      "Ġowner": 6546,
      "Ġtrolls": 6547,
      "Ġfiner": 6548,
      "Ġcarp": 6549,
      "Ġcarved": 6550,
      "Ġkillin": 6551,
      "Ġkilling": 6552,
      "Knew": 6553,
      "Ġfourth": 6554,
      "Ġcareless": 6555,
      "Ġcaretaker": 6556,
      "Ġhandsome": 6557,
      "Ġimpress": 6558,
      "Ġtreasure": 6559,
      "Ġsorta": 6560,
      "ordinary": 6561,
      "Ġloudest": 6562,
      "Ġbubbles": 6563,
      "blic": 6564,
      "Ġcere": 6565,
      "ĠInstead": 6566,
      "Ġrapped": 6567,
      "Ġraise": 6568,
      "ĠOnce": 6569,
      "Ġswept": 6570,
      "Ġskinny": 6571,
      "Ġskimming": 6572,
      "Ġguilty": 6573,
      "Ġpacking": 6574,
      "Ġrub": 6575,
      "ĠJim": 6576,
      "ĠJell": 6577,
      "Ġbegins": 6578,
      "Ġbreathed": 6579,
      "Ġconf": 6580,
      "Ġconvin": 6581,
      "Ġyelling": 6582,
      "Ġgreenh": 6583,
      "Ġemptying": 6584,
      "ocus": 6585,
      "Ġpaused": 6586,
      "Ġpajam": 6587,
      "Ġangles": 6588,
      "Ġhelping": 6589,
      "HAR": 6590,
      "Ġsetting": 6591,
      "Ġbelieves": 6592,
      "ĠEverybody": 6593,
      "Ġstraightened": 6594,
      "Ġdesire": 6595,
      "Ġdesks": 6596,
      "Ġmouthed": 6597,
      "ORT": 6598,
      "Ġamuse": 6599,
      "Ġsnap": 6600,
      "Ġheartstr": 6601,
      "Ġgasp": 6602,
      "Ġgasps": 6603,
      "Ġgasping": 6604,
      "Ġpainfully": 6605,
      "Ġfollows": 6606,
      "Ġfollowers": 6607,
      "eys": 6608,
      "eyed": 6609,
      "ĠKE": 6610,
      "ĠKent": 6611,
      "ĠKeep": 6612,
      "ĠKeys": 6613,
      "Ġfasten": 6614,
      "Ġfastest": 6615,
      "Ġreasons": 6616,
      "Ġdeadly": 6617,
      "Ġfeelings": 6618,
      "Ġmouths": 6619,
      "Ġmouthful": 6620,
      "TERS": 6621,
      "ipment": 6622,
      "Ġtripped": 6623,
      "Ġtrifle": 6624,
      "Ġfootstool": 6625,
      "Ġmarried": 6626,
      "Ġlistened": 6627,
      "Ġperched": 6628,
      "Ġperformed": 6629,
      "iculous": 6630,
      "cope": 6631,
      "Ġdriving": 6632,
      "Ġcrowds": 6633,
      "Ġtouches": 6634,
      "Ġtouching": 6635,
      "Ġfacedown": 6636,
      "Ġdirector": 6637,
      "Ġproof": 6638,
      "Ġstupidly": 6639,
      "Ġrolls": 6640,
      "Ġrolling": 6641,
      "Ġscreams": 6642,
      "Ġsigned": 6643,
      "Ġhunger": 6644,
      "Ġhungrily": 6645,
      "Ġtoads": 6646,
      "Ġhangings": 6647,
      "ĠSnowy": 6648,
      "ĠSeekers": 6649,
      "ĠDevel": 6650,
      "umming": 6651,
      "Ġexamine": 6652,
      "Ġadmi": 6653,
      "Ġwilder": 6654,
      "rers": 6655,
      "Ġcontained": 6656,
      "Ġcontrary": 6657,
      "Ġparty": 6658,
      "Ġparted": 6659,
      "Ġparties": 6660,
      "Ġstuffing": 6661,
      "Ġcompared": 6662,
      "Ġcompany": 6663,
      "Ġsurprises": 6664,
      "ENT": 6665,
      "IND": 6666,
      "Shhh": 6667,
      "ĠYew": 6668,
      "ĠYorksh": 6669,
      "Ġtrapped": 6670,
      "Ġtrailing": 6671,
      "Ġsticky": 6672,
      "Ġsnakelike": 6673,
      "Ġtightened": 6674,
      "Ġfalling": 6675,
      "Ġobject": 6676,
      "Ġheavier": 6677,
      "Ġnumbers": 6678,
      "Ġnearby": 6679,
      "ĠNothing": 6680,
      "Ġbreathlessly": 6681,
      "Stand": 6682,
      "Students": 6683,
      "Ġtaller": 6684,
      "Ġcoughed": 6685,
      "Ġrations": 6686,
      "Ġshutting": 6687,
      "inkingly": 6688,
      "Ġspring": 6689,
      "Ġsprinting": 6690,
      "Ġvisible": 6691,
      "Ġorders": 6692,
      "Ġimportantly": 6693,
      "Ġbaggy": 6694,
      "Ġtowers": 6695,
      "Ġnastily": 6696,
      "Ġrocker": 6697,
      "Ġflatly": 6698,
      "Ġexpecting": 6699,
      "Ġexciting": 6700,
      "Ġportraits": 6701,
      "odel": 6702,
      "odswall": 6703,
      "Ġzomb": 6704,
      "Ġzooming": 6705,
      "Ġzigzagging": 6706,
      "Ġedged": 6707,
      "Ġawkward": 6708,
      "Ġoddly": 6709,
      "Ġpunct": 6710,
      "Ġpunishment": 6711,
      "Ġearshot": 6712,
      "Ġkindly": 6713,
      "Ġrecent": 6714,
      "Ġpostage": 6715,
      "Ġcracks": 6716,
      "Ġcracked": 6717,
      "Ġcracking": 6718,
      "Ġcrackers": 6719,
      "Ġimagined": 6720,
      "Ġimagination": 6721,
      "Ġstaircases": 6722,
      "azed": 6723,
      "Ġcentury": 6724,
      "Ġloved": 6725,
      "Ġscratch": 6726,
      "Ġpassageways": 6727,
      "Ġclassrooms": 6728,
      "Ġreflections": 6729,
      "Ġvisitor": 6730,
      "Ġmounted": 6731,
      "Ġnarrowed": 6732,
      "Ġwitchcraft": 6733,
      "Ġjerk": 6734,
      "Ġdrinks": 6735,
      "Ġdrinker": 6736,
      "Ġseriously": 6737,
      "Ġserpent": 6738,
      "Ġcrystal": 6739,
      "Ġdial": 6740,
      "Ġdisturb": 6741,
      "Ġpersuade": 6742,
      "ĠMommy": 6743,
      "ĠPeren": 6744,
      "Ġreserve": 6745,
      "ĠAnother": 6746,
      "ĠNeither": 6747,
      "Ġcheerful": 6748,
      "Ġwindowsill": 6749,
      "Ġdormitories": 6750,
      "Ġsleeves": 6751,
      "Ġfading": 6752,
      "Ġfrogs": 6753,
      "Ġfrozen": 6754,
      "letchley": 6755,
      "Ġdrawn": 6756,
      "Ġdrawling": 6757,
      "Ġmotion": 6758,
      "Ġbewitching": 6759,
      "Ġfrighten": 6760,
      "Ġfloated": 6761,
      "ĠRavenclaws": 6762,
      "Before": 6763,
      "Ġsickening": 6764,
      "Ġhotel": 6765,
      "Ġdetentions": 6766,
      "Ġinsist": 6767,
      "Ġinsul": 6768,
      "Ġinsisted": 6769,
      "Ġinsides": 6770,
      "Ġstools": 6771,
      "Ġwhistling": 6772,
      "Ġridiculous": 6773,
      "ĠWithin": 6774,
      "Ġflickered": 6775,
      "Ġchoking": 6776,
      "Ġcelebrate": 6777,
      "nothing": 6778,
      "Ġ17": 6779,
      "Ġ1945": 6780,
      "Ġastronomy": 6781,
      "Ġhooves": 6782,
      "Ġburned": 6783,
      "Ġfavors": 6784,
      "Ġmisery": 6785,
      "Ġinterfere": 6786,
      "Ġinterfering": 6787,
      "ĠSirius": 6788,
      "Ġfeasts": 6789,
      "Ġvanish": 6790,
      "Ġdelic": 6791,
      "Ġdelayed": 6792,
      "Ġtrusted": 6793,
      "Ġargum": 6794,
      "ĠExactly": 6795,
      "ĠExpress": 6796,
      "Ġboarded": 6797,
      "Ġchecked": 6798,
      "Ġwristw": 6799,
      "Ġconfusing": 6800,
      "Ġbravely": 6801,
      "Ġfaintly": 6802,
      "Ġfaintest": 6803,
      "Anyone": 6804,
      "Anything": 6805,
      "Christmas": 6806,
      "OOK": 6807,
      "cuits": 6808,
      "shine": 6809,
      "white": 6810,
      "Ġerupted": 6811,
      "Ġsixth": 6812,
      "Ġsixteen": 6813,
      "Ġbuckle": 6814,
      "Ġbucket": 6815,
      "Ġdouble": 6816,
      "Ġgravy": 6817,
      "Ġevents": 6818,
      "Ġanxious": 6819,
      "Ġclamped": 6820,
      "Ġsnowball": 6821,
      "Ġextraordinary": 6822,
      "Alas": 6823,
      "Always": 6824,
      "Albus": 6825,
      "Couldn": 6826,
      "Gran": 6827,
      "Gringotts": 6828,
      "STUDEN": 6829,
      "aaaa": 6830,
      "flavored": 6831,
      "ohomora": 6832,
      "Ġtapest": 6833,
      "Ġbasic": 6834,
      "Ġbounded": 6835,
      "Ġtorches": 6836,
      "Ġchatter": 6837,
      "Ġchattering": 6838,
      "Ġmessing": 6839,
      "Ġpicking": 6840,
      "Ġneatly": 6841,
      "Ġmeasured": 6842,
      "Ġmeasuring": 6843,
      "Ġwheeled": 6844,
      "ĠBright": 6845,
      "Ġvibr": 6846,
      "Ġviole": 6847,
      "Ġaccount": 6848,
      "Ġaccidents": 6849,
      "Ġtricky": 6850,
      "Ġpromise": 6851,
      "Ġadmitted": 6852,
      "Ġphotos": 6853,
      "Ġscrambling": 6854,
      "Ġescalator": 6855,
      "Ġescaping": 6856,
      "Ġmiserable": 6857,
      "Ġ31": 6858,
      "Ġactually": 6859,
      "Ġbillowing": 6860,
      "Ġcolors": 6861,
      "Ġdunderhead": 6862,
      "Ġmonksh": 6863,
      "Ġpatted": 6864,
      "Ġstreamed": 6865,
      "Ġstreaming": 6866,
      "Ġruddy": 6867,
      "Ġkissed": 6868,
      "ĠShooting": 6869,
      "Ġannounced": 6870,
      "ĠWIZAR": 6871,
      "Ġsearched": 6872,
      "Ġseventh": 6873,
      "ĠTwelve": 6874,
      "ĠTwentieth": 6875,
      "Ġspirits": 6876,
[...]
